FFF7
FFF5
FFFD
FFFE
FFFE
FFF8
FFFE
0004
0000
FFFE
FFFF
FFFD
FFFF
FFF8
FFFA
FFF4
FFFB
0002
FFFA
FFF5
FFF3
FFFD
FFF3
FFFB
0002
FFF6
FFF6
FFF8
FFF7
0003
0002
FFFC
0001
0004
0002
0001
FFFD
0003
0001
0000
0003
FFFF
FFFA
FFF4
0006
FFF8
0003
FFF9
FFF6
0001
FFFE
FFFD
FFF9
FFF4
0005
0000
FFF4
FFFA
FFF6
0003
0005
FFFA
FFFC
FFFB
FFFE
FFF7
FFFF
FFFC
FFF7
FFFD
FFF7
FFF3
FFF3
FFF7
FFF8
0002
FFF6
FFF9
FFF2
FFFA
0002
FFF4
FFF8
FFF9
0004
FFFA
FFFF
0001
FFF8
0003
FFF4
FFFD
0003
FFF5
FFF2
FFF9
0008
000B
0009
000C
000E
000D
0003
FFF5
FFF4
FFEF
FFFB
FFF2
FFF3
0000
FFF6
FFFF
FFF3
FFF4
0001
FFFC
FFF4
0004
FFF9
FFFA
0007
0001
0001
0004
0010
0015
FFFD
0005
FFF5
0003
FFFF
FFED
FFF6
FFF1
FFEF
FFED
FFFC
FFF5
FFF6
FFF5
0002
FFF6
FFF3
FFF6
FFFC
0005
0003
FFFB
FFF9
FFFB
FFF0
FFFC
FFF6
FFFE
FFF9
0001
FFE2
FFDC
FFDE
FFE6
FFE2
FFE5
FFEE
FFF4
FFED
FFF8
FFF4
FFFC
0000
0001
0001
FFFE
0007
FFF6
0004
FFF1
FFEA
FFE3
FFFA
0007
FFED
FFFD
FFFC
FFE5
FFE5
FFE6
0002
FFF8
0001
0009
FFFE
FFF1
FFF2
FFF5
FFFE
FFFC
FFFB
0000
FFFB
FFFF
FFFB
FFEF
FFF3
FFF0
FFE4
0001
0005
FFFD
000D
000C
0010
FFF3
0007
0007
000A
0018
0021
FFF3
0005
0004
FFF5
FFF0
0000
FFF7
0004
FFFA
FFFB
FFFE
FFEF
FFEC
FFE1
FFFE
0001
000B
0011
FFFF
0012
0009
0015
0025
0031
0017
001A
0011
001A
0008
0019
FFFC
FFFF
FFF4
FFF7
0000
FFFE
FFFD
FFFF
0006
FFF9
FFF7
FFF3
0013
0012
000B
000A
0015
0011
001B
0033
0036
001F
0035
001D
001D
0014
0006
000F
FFFF
0013
0004
FFFD
0002
FFFF
FFFF
FFF9
FFFA
0000
FFEF
0000
000E
0012
0013
000E
0000
000F
0033
0038
0035
002D
0013
0013
0010
001F
0011
0026
001B
0014
FFFB
FFF4
FFFE
FFFF
0000
FFFA
0001
0005
FFFB
0002
FFFE
0013
0004
000A
000B
FFFA
0025
0032
0022
0012
0018
001E
0015
0029
0017
001D
0012
0007
FFFC
FFF9
FFFE
0002
FFF7
FFF5
000B
0006
0005
000A
0003
FFFA
FFF3
0008
FFEF
FFEC
0006
001F
0006
FFFF
0014
0014
0016
000A
0004
0014
0009
FFEB
0001
0005
FFFE
FFFE
FFFC
FFF7
FFFF
0017
0006
0006
FFFC
FFF8
FFF1
FFFD
FFD9
FFED
FFF7
FFF8
FFF4
FFFC
FFFA
0002
0007
000D
0010
000E
FFF9
FFE5
FFF4
FFF4
FFF1
FFF3
0002
FFF6
0008
0002
FFF3
FFFA
0005
FFF5
FFFB
FFEA
FFE4
FFF0
FFEB
FFEA
FFE8
FFEE
FFF9
0000
FFF6
0016
000F
0000
FFF8
FFFF
FFF2
FFF9
FFF3
FFF3
0004
FFF9
FFF6
0000
0003
0008
0006
FFF6
FFF2
0000
FFEC
FFEE
FFE1
FFDC
FFE8
FFEF
0000
0002
000C
0022
0012
0013
000A
FFF9
FFF6
FFF4
FFF7
FFFA
FFF5
0002
FFFE
000E
000F
0009
0000
0006
FFFE
FFFF
0002
FFF3
FFE6
FFE4
FFE9
FFE4
FFFA
000A
0009
0008
FFF7
0009
FFFF
0001
FFDE
FFF3
0002
0001
0002
0001
0007
0006
000A
0005
0007
0002
FFFF
FFF4
FFF2
FFE9
FFED
FFE7
FFF5
FFFA
000B
FFF6
0017
FFFE
FFF2
FFFD
FFFA
FFF8
FFE7
FFF6
0004
FFFC
FFFC
FFF5
000A
FFFE
000A
000A
000C
0010
0003
0005
0000
FFE1
FFE4
FFF3
0001
FFF8
0005
FFF9
000C
000B
000C
0004
FFE9
FFDF
FFF8
FFFB
FFFB
0002
FFF7
FFF6
0004
FFF8
0005
FFF8
0007
0002
0003
0001
FFFC
0007
FFFC
FFF8
FFF2
FFEF
0001
0007
0006
0004
0000
FFFE
FFE9
FFFE
FFF5
FFF9
FFFE
FFF5
FFF5
0003
FFF8
FFFD
000F
0000
FFF1
FFFE
0005
0002
FFF0
FFEC
000F
FFF3
FFDF
0000
000A
0003
0005
FFE6
FFE6
FFF0
0003
FFFA
FFFA
FFF5
FFF5
FFF6
FFFA
FFF1
FFF2
FFF3
FFFE
FFF7
FFF8
FFF7
FFF6
FFF6
FFF5
000A
FFFF
FFE4
FFE9
FFF9
FFEA
FFFC
FFED
FFF3
FFE9
FFF7
FFF7
0000
0001
FFF9
FFF5
0003
FFF7
FFF4
FFF7
FFFF
FFF1
FFEF
FFE7
FFE1
FFEE
FFE9
FFE9
FFF5
FFFA
FFFC
0001
000D
0003
FFED
FFE1
FFEF
FFF4
FFF8
0007
FFF9
0005
FFF8
0003
FFF6
FFF4
0000
0007
FFFE
0005
0001
FFFC
FFF3
FFF2
FFEB
FFFE
FFF8
FFFF
FFF5
0005
FFFB
0002
FFE0
FFD5
FFE7
FFE9
0003
000A
0008
0002
0003
FFF9
FFF9
FFF5
FFF8
FFF9
0002
0010
000B
0017
0016
0010
0017
FFFA
0009
0009
FFED
FFF9
0008
0002
FFE5
FFEB
FFFF
0000
FFFF
0009
FFFA
FFF8
FFFA
FFF3
FFFA
0001
FFFA
FFFE
FFFE
0003
0004
0015
0020
0018
000E
000D
000E
0009
000F
000F
0016
0004
0011
0011
0005
0001
0004
0008
0003
FFF8
FFF5
FFF7
FFF5
FFF6
FFF7
FFF7
FFFE
FFF9
FFF8
0005
0005
0009
0015
0016
0015
0015
001F
0010
0012
001E
0018
0007
000F
0004
FFFD
FFFF
FFFF
FFF7
FFFA
0003
0004
FFFE
FFF6
FFFB
FFF5
FFFA
FFFF
0007
FFFF
FFFA
FFF5
0003
0001
0001
0003
FFFE
0004
FFF7
FFFA
FFF9
FFF8
FFFF
0002
0000
0004
FFFB
FFFC
FFFE
FFF2
FFFC
FFEF
FFF9
FFFC
FFFA
FFFA
FFEF
FFF9
FFF7
FFF9
FFF9
0000
FFFF
FFF5
FFFF
0000
FFF7
FFF2
FFF4
FFFB
FFFE
FFFE
FFFF
FFFC
FFF8
FFFE
FFFB
FFF6
FFF3
FFF3
FFF7
FFF4
FFFD
FFFA
FFFD
FFF7
FFFD
FFFF
FFF4
FFF8
FFF4
FFFB
FFF8
FFF4
FFF8
FFF1
FFF6
FFFF
FFF9
FFF8
FFF6
FFF8
FFF2
FFF3
FFFD
FFF2
FFF9
FFEE
FFF4
FFF6
FFF2
FFEF
FFF9
FFFB
FFFA
FFF0
FFFA
FFFB
FFE7
FFF2
FFF4
FFEB
FFEB
FFFE
FFFA
FFFD
FFFA
FFF5
FFFE
FFFE
FFFE
FFFC
FFF1
FFF1
0000
FFF7
FFFF
FFF4
0001
FFFD
0001
0004
0003
000E
0005
0014
0009
000A
0002
FFF6
FFF7
0000
FFFB
FFF6
FFFE
FFF3
FFF8
FFF1
FFF6
FFF5
FFFF
FFFD
FFF4
FFFE
FFFF
FFFE
FFFF
0003
FFFC
000E
001B
001F
002D
002A
0013
000E
0019
0003
0006
000F
FFF1
FFE8
FFFC
FFFB
0003
0002
FFF1
FFEF
FFEF
FFFD
FFFD
FFF8
FFF0
FFFF
FFF1
FFF8
0017
000D
001D
002B
0038
0023
0014
0024
0015
001D
0023
000C
000F
000D
FFF8
FFFA
FFFF
FFF8
0002
FFFA
FFF9
FFEF
FFFD
FFFC
FFF4
FFFA
0001
0006
0010
0023
0032
002D
0024
0016
001E
0032
0024
0032
002E
0028
0025
001D
0018
0003
0002
FFFF
0007
FFFC
FFF9
0000
FFF2
FFFE
0001
FFFC
000A
000D
0012
0033
0021
001A
0015
000F
0013
0027
0025
001D
0020
002D
0012
0016
0004
FFF8
FFF7
0006
0002
FFF7
FFFB
FFFB
FFF6
FFF4
FFF4
0006
0004
0004
0007
0018
000A
FFFF
0002
001C
001C
0026
0024
0022
0012
0011
000E
001C
FFFB
0002
0005
0001
FFFB
FFF3
FFF4
FFFD
FFFB
FFF6
0003
0000
000E
0002
0015
0003
FFFA
FFF7
FFF5
0002
FFFB
FFF5
FFF3
FFFB
000D
0007
FFFB
000D
FFFB
0007
0006
000C
0008
FFF8
FFFA
FFF9
FFF0
FFF7
0001
FFFA
0004
000F
0002
FFF6
FFF9
FFE5
FFEE
FFE1
FFEB
FFDF
FFD8
FFFE
FFFA
000A
FFF7
FFFE
FFFB
FFFE
000E
000A
000D
FFF6
FFFD
0000
FFF5
FFF2
FFF7
0000
FFEC
0005
FFFE
FFED
FFEB
FFEC
FFF6
FFF8
FFEC
FFDC
FFD0
FFE9
000C
FFF4
FFDA
FFE6
FFEF
FFF0
FFEE
FFF0
FFFE
0003
0000
FFFE
FFFA
FFFF
FFFD
FFF0
FFE6
FFEF
FFF5
000A
FFF4
0000
FFFC
FFF5
FFF5
FFEE
FFE3
FFF1
0004
FFE5
FFEA
FFF9
FFEA
FFEC
FFE7
FFE5
FFF8
FFF2
FFF3
FFF6
FFFC
FFFE
FFF3
FFE9
FFDC
FFDF
FFFC
FFF5
0004
FFF2
FFE3
FFF9
FFF9
FFFE
FFE9
FFE0
FFF7
0003
FFFD
0008
FFF6
FFFA
FFE4
FFEB
FFFE
FFF5
FFF0
FFF7
FFF3
FFF3
FFFC
FFF1
FFD4
FFD5
FFED
FFFE
FFFC
FFEB
FFE3
FFFE
0001
0003
FFFB
FFDC
FFEE
FFEF
FFF1
0007
0009
FFFE
0001
FFF7
FFF8
FFF2
0000
FFF2
FFFE
FFF3
FFFB
FFF3
FFD1
FFDE
FFD6
FFEA
FFF5
FFFE
FFFF
0002
0001
0006
FFF4
FFE4
FFE6
0005
FFFA
0008
0011
0004
000B
000D
FFF5
FFF3
FFFB
FFF0
FFFF
FFF3
0000
FFF0
FFD7
FFC9
FFC2
FFD7
FFEB
FFF8
FFFF
0012
0016
FFFA
FFE4
FFE0
FFF9
FFF8
000D
0009
FFFF
0009
001B
0003
FFFA
FFF9
FFFF
FFFA
FFF4
FFF8
0003
FFFC
FFDF
FFE1
FFC8
FFC7
FFD2
FFE7
FFFA
FFF5
FFEE
FFDA
FFCC
FFF7
0000
FFF0
0009
0005
0007
0005
0017
FFF3
FFF1
FFF3
FFF5
FFF3
FFF2
FFF3
0005
0001
FFF7
FFF2
FFE0
FFD8
FFCD
FFE4
FFDB
FFD5
FFCD
FFD4
FFE4
000B
000D
0001
0014
0020
0021
001E
0016
0003
FFF4
FFF8
FFF2
FFFF
FFF1
FFFE
0004
0014
0015
0007
FFEC
FFFA
FFD9
FFDB
FFD0
FFDD
FFEA
FFDF
FFF1
0006
0008
000E
0005
0017
001D
0011
0002
FFF6
FFF2
FFF5
FFF6
0000
0000
FFF4
0007
000F
002C
0018
000C
001E
0007
FFEE
FFE5
FFF7
000B
0000
000E
0017
000A
0004
000A
0015
0016
0018
FFFF
FFF4
FFEF
FFF5
FFF4
FFFD
FFF7
FFFB
FFFB
0000
0004
0010
0029
0015
0001
FFF3
0015
001E
001B
0025
0028
0021
000B
FFF9
0009
000A
000A
000F
FFFF
FFE6
FFFC
FFF7
FFF0
FFEF
FFF2
FFF8
0003
FFF3
FFF4
0011
0023
0022
0025
001F
0029
0025
0027
001E
0022
0017
000F
0001
0005
0003
0004
0016
0004
FFF0
FFFD
FFF1
FFF9
FFF1
FFF2
FFFC
FFFC
0002
000C
001C
002D
0026
0032
0033
003B
000F
0014
001F
001E
000F
0000
FFFE
0008
0002
0004
FFFA
FFFE
FFEF
FFF6
FFFB
FFFB
FFEF
FFFD
FFF9
0000
FFFC
0008
0005
001E
001F
0029
0017
0021
0028
0035
0013
0020
000E
0009
000C
0003
FFF3
FFFE
FFFA
FFFF
FFFC
FFF5
FFFA
FFEE
FFF7
FFF8
FFEE
FFF0
FFFF
FFFA
FFFA
0009
000B
0016
0028
0024
001D
001C
FFFF
000C
0009
000B
0008
0009
FFF8
0000
0000
FFF5
0000
FFF1
FFFB
FFF9
FFF3
FFF3
FFF0
FFF1
FFF5
FFF5
FFFF
FFEE
FFFF
FFFC
0006
000A
0004
000F
000C
0004
0001
FFFD
0005
0003
FFF7
0001
FFF8
FFFE
FFEF
FFEE
FFF2
FFEF
FFF9
FFF6
FFF8
0000
FFF9
0000
FFF8
FFFE
FFF4
FFF5
FFFE
FFEF
FFF3
FFEF
FFF2
FFF5
FFF7
FFF4
FFEF
FFF9
FFF9
FFFD
FFFD
FFF9
FFFA
FFFE
FFEF
FFFB
FFF3
FFFC
FFFA
FFFF
0000
0001
FFF3
FFFB
FFFE
FFFF
FFF6
FFFD
FFF5
FFF3
FFF3
FFF9
FFFD
FFF9
FFF3
0003
FFFD
FFFB
FFFA
FFFD
0002
FFF2
FFF8
FFFD
FFF5
FFF5
FFFC
FFFF
0004
FFFE
0000
FFF5
FFF7
FFF8
FFFB
FFF3
FFFC
FFFD
FFF2
FFF5
FFFD
FFFA
0000
FFF8
0004
FFF8
FFFB
FFF6
FFF2
FFFE
FFF7
FFFA
FFFC
0001
0003
FFF9
0004
FFFD
FFF2
0000
FFFC
FFF9
FFF9
0004
FFF8
FFFE
FFF9
FFFB
0003
FFFC
0006
0006
FFFB
0006
FFFA
FFF5
0004
FFFA
FFF5
FFF9
0001
FFF4
FFFA
FFFF
FFF3
0001
0003
FFFA
FFFA
0006
FFFC
0007
FFFE
0009
0012
0005
0004
FFFE
0005
0000
FFEC
FFF7
0000
0001
FFFF
FFF4
FFFE
FFF6
FFFC
FFF9
FFF9
0001
FFFC
FFFA
FFFD
FFF9
FFF2
FFFC
FFF2
FFF6
FFF1
0011
0014
0004
0005
0012
0004
FFFA
FFEF
FFE0
FFEE
FFEE
FFE2
FFF7
FFFB
FFF2
FFF5
0003
0000
FFFF
FFF5
FFEF
FFFF
FFF8
FFF1
FFE9
FFE0
FFEF
FFFC
0009
0017
0005
001D
001E
0014
FFFF
FFF5
FFF1
FFE0
FFE2
FFEB
FFFE
FFF4
FFFE
0002
FFFF
FFF9
FFF6
FFF9
FFEB
FFE7
FFEA
FFD1
FFDD
FFEB
FFFB
001B
0000
FFFF
000B
0008
0009
000B
0002
FFF8
FFFB
FFFD
FFEB
FFDA
FFE6
FFED
0003
FFF7
0000
FFFA
FFFE
FFF2
FFEA
FFE6
FFDC
FFD0
FFE6
FFFF
0008
0004
0006
FFE6
FFF7
FFF7
000E
000B
0005
0006
0018
0013
FFFD
FFFD
FFF3
FFEF
FFF8
FFFC
FFFF
FFFA
FFF3
FFF4
FFEE
FFF2
FFE5
FFEC
0009
0000
0000
FFF7
0003
FFF3
FFF1
0001
0001
FFF3
0015
FFFD
0019
FFFE
0015
FFFA
FFE4
FFF4
0000
FFF2
FFF8
FFF8
FFF1
FFFF
FFF4
0003
FFF5
FFF9
0003
FFFB
FFF6
0002
0001
FFF8
FFEA
FFED
FFE0
FFF3
001E
0025
0010
0003
0014
FFFD
FFE8
FFF5
FFFC
0004
FFF6
0000
0001
FFFC
FFFF
0011
FFF9
000D
FFF4
FFF4
0005
0007
0009
0006
FFE9
FFC3
FFDB
0005
000D
001B
0012
0011
001A
FFEC
FFDA
FFF2
FFFD
FFFE
0001
0003
FFF2
FFFF
0007
0010
0020
0014
0001
FFF6
0000
FFF8
0004
0019
FFDA
FFC4
FFCA
FFDD
0010
0026
0035
0020
0024
0009
FFF8
FFEC
FFF9
FFFB
FFF7
FFFC
FFFC
0006
0013
001A
0014
FFFE
000A
FFFB
FFF3
FFF3
FFFF
FFEE
FFD3
FFD2
FFD9
FFEC
0015
0028
0038
003B
003C
0027
FFF9
FFF2
FFF4
FFF3
FFF2
FFF6
FFF7
000A
0003
001A
0014
000C
0006
000D
0007
FFF5
FFF2
FFE4
FFE5
FFF1
FFF0
0002
0026
0028
002E
0030
0039
001E
0002
FFFF
FFFE
FFF3
0000
FFFF
FFF6
FFF9
0013
0027
0024
001D
000D
0013
0018
FFF9
FFF5
FFE1
FFEB
FFE8
FFF4
000F
0029
0028
002B
0023
001B
0012
000F
0001
FFF3
FFFD
0002
FFF2
FFFC
FFF9
0013
0019
0023
001B
0012
0015
0013
000B
FFEF
FFE9
FFE7
FFF1
FFF5
0001
0015
001C
0011
0006
0000
000E
0011
0003
0004
0004
FFF3
FFF2
0000
FFF0
001D
0024
002C
0022
0023
0021
0013
FFF8
FFDF
FFEC
FFE7
0000
0001
0007
0001
0003
000B
0006
FFEF
FFFD
000B
0007
FFF5
FFF5
FFF8
FFFF
FFEE
FFE7
0005
000F
000F
001B
002C
0028
0008
FFE6
FFEA
FFFD
000B
0003
FFF6
FFDC
FFF6
0006
0014
0008
FFFE
FFFF
000A
0001
FFFF
FFFC
FFF8
FFF4
FFE7
FFE8
FFF4
0002
0017
0008
0025
0022
FFF5
FFDA
FFDB
FFF0
FFF5
FFFA
FFEC
FFFB
FFF9
FFFD
000D
000D
0002
FFFD
0004
0004
FFF4
0001
FFF9
FFFF
FFE8
FFE9
FFF7
0010
0014
0013
0029
0029
0015
FFE7
FFE6
FFE8
FFDE
FFE9
FFFB
0005
FFFE
FFF6
000E
001A
0000
FFE4
FFF4
0003
FFFA
0002
0000
FFFC
FFFD
FFF4
0013
0008
0023
0011
000D
0025
000E
FFF2
FFE1
FFE7
FFF2
FFEA
FFDE
FFF2
FFED
FFFB
000A
FFFA
FFF6
FFF1
FFFF
FFFE
FFFB
FFF9
0002
FFF9
FFFC
0008
0011
001D
0027
001F
0021
0019
0013
0002
FFF4
FFE7
FFE9
FFEA
FFE3
FFF3
FFEE
FFEE
FFE9
FFF5
FFEC
FFEC
FFEC
FFF4
FFF3
FFF8
FFF3
FFF4
FFFA
FFFE
0001
001F
002C
0033
0027
0023
0010
0007
0002
FFE9
FFF6
FFE6
FFF0
FFE7
FFE1
FFE2
FFE6
FFEE
FFEE
FFEE
FFE9
FFF8
0001
FFF8
0002
FFF6
FFEF
FFF7
FFEA
0001
001A
0025
002E
0013
0017
001D
000C
FFF0
FFF2
FFEE
FFE5
FFDA
FFDC
FFE3
FFEB
FFF9
FFEA
FFEC
FFF2
FFFB
0001
FFFB
FFF8
FFF5
FFF8
FFF7
FFF1
FFF6
0009
0010
0017
000A
0011
000E
0000
FFF9
FFF5
FFE4
FFF3
FFE7
FFE6
FFF5
FFEF
FFFF
0000
FFEF
FFF3
0002
0000
FFF2
0002
FFF7
FFF3
FFFC
FFF2
FFFA
0008
000B
FFF7
FFFE
FFFC
FFF9
FFEF
FFEA
FFEB
FFED
FFF2
FFF2
FFFC
FFFC
0005
FFF3
FFFE
0000
FFFF
FFF8
0002
FFFE
FFF6
FFFF
FFFD
FFF4
0004
FFFB
FFFA
FFF9
000A
000A
FFF8
0000
FFF8
FFF9
FFF1
FFFB
FFF8
FFF8
FFF5
0008
FFF9
0001
0001
0000
0001
FFFB
FFFF
0003
FFF4
FFFB
FFF2
0000
FFF4
0000
0004
FFF7
FFF5
0001
FFF3
FFF6
FFF3
FFF6
FFFD
0001
FFFA
FFFF
FFF3
0004
0004
FFFC
FFFB
FFFC
FFFD
FFFC
FFFD
FFF6
FFF8
FFFF
FFFE
FFFA
0006
0000
FFF9
0006
0000
FFFF
FFFE
FFF7
FFFD
FFFB
FFFE
FFF6
FFF6
FFFF
0002
0003
FFFB
FFFE
0003
FFFF
FFFE
0003
FFFA
0004
FFFA
FFF9
FFFF
FFFB
FFF8
FFFA
0005
FFF9
FFF9
0000
FFF4
FFF7
FFF5
FFFF
FFFD
FFFF
FFFA
FFFD
FFFD
FFF5
FFFB
FFF5
FFFD
0005
0005
FFFD
0003
FFF9
0005
FFF5
0003
0002
FFF4
0000
FFF8
FFFE
FFFC
0003
FFF4
FFFD
FFF8
FFFB
FFF6
FFFE
FFF8
FFFB
FFF2
FFF4
FFFB
FFFC
FFF7
0004
FFFE
FFFD
FFFF
FFFA
0003
FFF7
FFF8
0004
FFF4
FFFA
FFFE
0004
0001
0001
0014
001B
002E
002C
0019
0028
0012
0004
FFF0
FFFD
FFEE
FFEB
FFFE
FFF7
FFFB
0004
FFFD
0006
FFFE
FFF6
0003
0002
0005
0002
0000
000F
001E
0018
0020
0024
002D
0030
0042
002F
0030
0024
000D
FFFE
FFE3
FFEB
FFE8
FFF3
FFF9
0003
FFF5
FFFF
0002
FFF5
FFFA
0005
0001
FFFA
000C
0010
0009
000C
0019
001B
0025
0025
0030
0035
0033
0023
000C
0005
FFF4
0000
FFE9
FFF3
FFFA
FFFC
0003
FFF5
0005
FFFA
0006
FFFE
FFF9
FFFC
FFFB
FFF1
FFFC
0019
0009
001B
0018
002E
0035
0041
001D
0028
0014
FFFB
0018
0007
FFDE
FFE7
FFED
FFFF
FFFA
FFFC
0001
0002
0005
0003
FFF9
FFFB
FFFB
FFED
0010
0016
000D
001B
0008
000E
0029
001C
001F
0025
001D
001B
001F
001D
FFF9
FFF1
FFFC
FFF3
FFF8
FFFC
FFFB
FFFD
0005
0004
FFF7
FFFB
FFF3
0000
0004
0001
FFE4
FFE5
FFCF
FFE8
000F
002E
0010
001A
0016
0018
FFFC
0023
0019
FFEF
FFED
FFF2
FFF7
0006
FFF6
0001
0006
FFFB
FFFE
FFE8
FFEA
FFE5
FFEE
FFE0
FFC6
FFCD
FFB4
FFB6
FFE2
002A
001C
0020
0024
0028
0007
001E
0018
FFF5
FFFD
FFFB
FFFA
FFFB
0000
0008
FFF6
FFEB
FFE5
FFF2
FFD9
FFDC
FFCE
FFBD
FFD2
FFC3
FFCB
FFC3
FFD9
0015
0029
0019
001D
0033
0029
0023
0009
FFF8
FFF1
FFF7
FFF9
FFF6
0006
FFF8
FFFB
FFE2
FFCC
FFD4
FFD9
FFCB
FFCF
FFDE
FFFB
FFED
FFDF
FFC1
FFC0
FFD6
0008
FFFE
0022
0026
001E
0017
FFFB
FFF0
0006
FFFC
0004
FFFD
FFFE
FFFB
FFEF
FFEA
FFC5
FFEC
FFDC
FFFF
0002
0021
FFFE
000B
FFF0
FFE7
FFC7
FFE0
FFDA
FFF3
0029
001D
0010
FFF8
FFF0
0004
FFFB
FFFE
FFFA
FFF5
FFF7
FFFB
FFFE
FFEE
FFE5
FFF1
FFFB
0015
0006
000C
000C
FFFF
FFF4
FFF5
FFD7
FFE6
FFE7
0005
0012
000D
FFFC
FFE8
FFDF
FFF1
FFF8
0000
FFF9
0005
FFF8
FFF7
FFFB
FFFD
FFF5
000B
0035
001E
FFFC
FFF3
FFF6
0000
FFF2
FFF0
FFF4
FFF8
FFF7
FFFC
0002
0001
FFF7
FFF3
FFDC
FFEB
FFFC
FFFF
0002
FFFB
FFF7
0002
FFF8
0002
0007
000D
001A
FFFF
FFF2
FFF9
FFDF
FFE1
FFD9
FFDE
FFF9
000E
FFFF
FFEC
FFE6
FFD7
FFE3
FFDB
FFD9
FFFA
FFFF
0000
0004
FFF6
0006
0001
000E
001C
000F
000A
FFFC
FFF7
FFF7
FFE2
FFEC
FFE9
FFE6
FFE7
FFF3
000E
0003
FFF4
FFE6
FFCE
FFE5
FFDF
FFE1
FFF0
0005
000B
0000
0003
FFFD
FFF8
000D
001B
000A
FFF3
FFE3
FFF3
FFE5
FFDB
FFD7
FFDE
FFE8
FFEC
0008
0004
FFFD
FFE4
FFD2
FFD3
FFDB
FFEB
FFE9
FFEA
0004
FFFD
0003
0003
FFF8
FFFE
FFF6
0002
0014
FFE9
FFF2
000F
000C
0006
FFFE
FFF7
FFEE
FFFB
000A
0013
0010
0002
FFFC
FFF0
FFE7
FFEF
FFEE
0000
0006
FFFC
0005
FFFB
FFFF
0003
FFFE
FFF8
0016
FFFD
000B
0017
001E
000D
0017
002B
001A
0013
0018
000A
0006
0000
FFF4
FFDE
FFE2
FFF3
FFF8
0002
0003
0003
0004
FFFC
FFFC
0003
0007
0004
0012
000E
0009
0017
001B
0020
0025
0027
0026
0001
0005
000C
FFFD
FFED
FFF6
FFE8
FFF2
FFF2
FFF1
0000
0003
FFFB
FFFB
0001
0002
FFFB
0006
0006
0002
000B
FFF8
FFEA
FFF8
0011
001A
000D
0013
0008
000C
001D
0004
0004
000C
0000
0007
0008
0007
0002
0007
0003
FFF5
FFF9
0003
FFFC
0002
FFF5
FFFC
FFFE
001A
001B
0010
001D
0003
FFF1
FFFE
0012
0007
0018
000E
0010
0015
FFF7
0005
0019
000C
0004
0006
0005
FFF8
FFF5
FFF5
FFFD
0006
0001
FFF2
FFFE
0001
FFFA
0011
0011
0015
0012
FFF8
000D
FFFA
0007
001C
0006
0003
FFF7
000B
0008
000C
0001
FFFE
0000
0001
FFF7
FFF4
0001
0005
FFFB
0008
0008
FFFB
FFEC
FFFC
FFFB
FFFB
000E
000D
0014
000B
0009
0010
FFFC
FFF4
FFF6
0005
0007
0002
0000
0007
FFF6
FFFF
FFFB
0006
FFFB
FFF9
0004
0002
0009
0001
FFF7
0005
FFFC
FFFF
0007
FFFB
FFFC
FFF4
FFEE
FFF5
FFF4
FFF5
FFFD
FFF1
FFF1
FFF6
FFFE
0004
0001
FFFA
FFFC
FFF6
FFFA
FFFD
FFFE
FFF7
0001
FFF8
0009
0004
FFFE
FFF4
FFFC
FFFB
0000
0009
000A
0001
0001
0005
0000
FFF3
0003
FFF5
0002
FFFC
0004
FFFE
FFF9
0006
0000
FFF5
FFFA
0002
FFF7
FFF8
FFF7
0001
0006
0006
FFFE
FFFB
0006
FFFD
0005
0004
FFF6
FFF7
0006
0003
FFF7
FFF7
FFFE
FFF7
0001
FFF9
FFFA
0003
0009
FFFA
0008
FFFF
0003
0000
FFFD
0003
0009
0009
0003
0003
0000
000B
0009
0003
0001
FFF9
0005
FFFC
0000
000A
FFFD
FFFE
FFFA
0000
0000
FFFC
FFFA
FFFC
FFFD
0007
0008
0002
FFFC
FFFF
FFFA
0002
FFFB
FFF9
0007
0003
FFFA
FFFC
FFF9
FFFA
FFFA
0008
0001
000A
FFFD
0006
FFF9
0009
0008
0008
0001
FFF9
FFFB
0009
0005
FFFD
FFFC
0001
FFFC
FFF8
FFFC
0002
0002
0004
0002
FFFB
0005
0003
0008
000B
FFFF
FFFD
0001
FFFB
0001
0009
0004
000B
0005
0000
FFFD
FFFE
FFFD
0002
FFF7
FFFC
FFED
FFEF
0000
FFF5
FFF5
000E
0000
0006
0006
0018
0017
FFFE
0007
0008
FFFE
0005
FFFA
0001
FFFD
0008
000A
FFFE
0009
0005
000A
FFF9
0004
FFEE
FFE4
FFE2
FFEE
FFFB
0001
000E
0008
FFF6
0003
000E
0003
0002
FFFF
0000
FFFD
FFFF
FFFA
FFF9
0003
FFFF
0000
FFFB
FFFD
0015
0011
000C
FFF5
FFEA
FFEA
FFD6
FFE2
FFF2
FFF3
000D
000A
FFF9
FFF7
FFFA
FFEE
FFF5
FFFC
FFFB
0006
0003
0005
FFFF
0008
FFFF
000A
0001
000C
0008
0016
FFFD
0000
0001
0001
FFFD
FFE8
FFFE
0002
0005
0018
001A
001C
0002
0017
FFFF
0004
FFF9
0006
FFF8
FFF9
FFFE
0003
0009
0002
0003
FFFD
FFFC
FFF6
0008
FFF2
0004
FFF9
FFFE
FFF3
FFF4
000B
0018
001D
0014
0005
000E
0011
FFF0
0008
FFFB
FFF9
FFF9
0001
0001
0001
FFFB
0005
000A
0004
FFEF
FFF3
0002
FFFD
FFF4
FFED
FFEA
FFF9
FFEF
0006
0018
0012
0007
0011
0006
000D
000E
000A
FFF1
FFF7
FFF3
0001
0004
FFFD
FFFC
000D
0005
000D
FFF7
FFFE
000E
0008
FFFD
FFE7
FFE3
FFEB
FFF6
0013
000C
0003
0016
FFFA
000E
000E
000D
000B
FFF7
FFF3
0000
0003
0009
0002
0000
0001
0019
0012
FFF4
FFEF
FFEF
FFFC
FFF0
FFCC
FFC5
FFD7
000B
001D
0005
0004
0000
FFFB
001B
0022
0022
0015
FFFA
0003
000A
FFFD
0002
0002
FFFE
0000
0013
0016
000C
FFF6
FFE6
FFEC
FFD8
FFE7
FFDD
FFF3
002C
002C
0008
0002
0028
0016
0016
0022
001A
0013
FFFA
FFFE
0000
FFFF
0004
FFFC
0006
000D
0015
0010
000B
FFED
FFF8
FFF0
FFD5
FFD9
FFF1
000B
003B
003C
0019
001E
001F
0026
FFF8
000D
FFF9
0003
FFED
FFEB
FFFD
0003
FFFC
FFFA
0009
000D
0001
000E
0003
FFFD
FFEC
FFD5
FFD1
FFF1
0002
000A
0024
0029
001F
0019
0019
0011
FFF5
0007
FFF0
FFD8
FFD7
FFE8
FFFA
FFF7
0008
0006
0006
000B
000B
000A
FFF4
FFEA
FFDB
FFD2
FFE1
FFF7
0000
0029
0027
0026
001D
0012
0011
0000
FFFD
FFFC
FFF7
FFF1
FFE1
FFDE
FFFB
FFF7
0002
0000
0003
0004
0004
FFFD
FFEE
FFE8
FFD0
FFCA
FFDC
FFFA
001C
0028
000F
0015
0023
000B
001E
000E
0007
0012
0003
FFF8
FFE6
FFEB
FFF2
0006
0007
FFFE
FFFC
0009
0003
FFFE
0002
FFD9
FFDF
FFCC
FFE0
FFF1
0001
0006
0011
0019
0015
0013
0002
0011
0005
0001
FFF2
FFED
FFDC
FFE9
FFED
0001
000A
0006
FFFF
0002
FFF6
FFFE
FFF5
FFD0
FFD7
FFCC
FFD8
FFD7
FFEC
FFEB
0000
0011
0014
0010
000B
FFFD
FFFF
FFE3
FFDF
FFDA
FFE1
FFE5
FFF1
0004
0009
FFFE
0007
0006
000F
FFFC
FFEA
FFD3
FFD5
FFDF
FFD9
FFDE
FFED
FFEE
FFF8
FFFD
000E
0014
000C
0008
FFF6
FFE6
FFE2
FFD9
FFCB
FFDD
FFFE
0004
0004
0000
FFFE
000A
000E
0000
FFFE
0003
FFF3
FFEE
FFE2
FFE3
FFDD
FFDC
FFE6
FFFD
0006
000F
0008
000A
FFFC
FFE1
FFE0
FFD0
FFD0
FFF5
FFFD
0005
0008
0001
0008
0007
000C
0005
FFFA
000C
0013
000A
0005
FFF3
FFDF
FFD1
FFEE
0002
FFF9
0014
0017
0000
FFFA
FFD8
FFD6
FFDB
FFDD
FFF5
FFF6
FFF9
FFFF
FFFA
000A
FFF7
FFFE
0004
0005
0010
0008
0018
0003
000F
FFF7
FFF8
FFE9
FFF6
0007
0003
FFFC
FFEE
FFE3
FFE2
FFDC
FFDE
FFD8
0000
0001
0004
FFFE
FFFE
0006
0009
FFFC
0009
0012
0010
000C
000A
0008
FFFE
0000
FFFC
FFF6
FFFC
0002
0007
FFF7
FFE8
FFE7
FFEC
FFE2
FFE2
FFE8
0002
FFFA
0004
FFFD
0007
FFF9
0004
0008
000B
0021
0029
0021
0001
0009
0005
000B
FFF6
FFFF
0003
0002
FFEB
FFF2
FFE6
FFD9
FFD8
FFD2
FFE5
FFF9
FFF6
0000
FFFD
FFFE
000A
FFFE
FFFF
FFFF
0010
0022
0027
0030
0020
0013
001C
000A
FFFD
0002
FFF0
FFED
FFEB
FFEB
FFD8
FFE3
FFE9
FFEC
FFFA
FFFE
0001
0004
0005
0000
FFFF
0000
FFFA
FFFB
000E
0011
0007
0015
002F
0031
0027
002A
0032
0025
000F
0009
FFFE
000A
0004
000F
000C
0007
FFFF
0001
0009
0000
FFFC
0002
FFFB
FFF9
FFFB
FFFB
0004
0000
000B
000F
0007
0019
0011
0015
0009
0009
000D
000D
0010
000D
000A
0014
0006
FFFE
000B
FFFB
0008
FFFD
FFFB
0003
0009
0000
0006
FFFF
FFFE
0005
FFFE
FFFF
0000
0009
0006
FFFA
FFFE
FFFC
000C
0008
FFFE
0001
0008
0005
000A
0002
FFFF
FFFB
0006
0000
FFFD
0004
FFF7
0006
0002
FFF9
0008
FFF8
FFF9
FFFD
0009
FFF9
FFF9
0001
0003
0007
FFFA
0000
0005
FFFF
0000
FFF8
FFF8
FFFA
FFFF
FFFD
FFFB
0008
FFFB
FFF8
0007
FFFE
FFFB
FFFF
FFFE
0002
FFFB
FFFF
0006
FFFA
0007
FFF9
0009
FFFB
0000
0000
0005
0001
0000
0007
FFF9
0007
0006
0003
0007
FFFC
FFFE
0008
FFFA
0003
0007
FFFF
0008
FFFA
FFF7
0002
0005
0004
0002
0002
0003
0015
000B
000A
0002
0004
0005
0009
000A
000A
FFFE
FFF8
0006
0007
FFFC
0004
FFFA
FFF9
0003
FFFD
FFFC
FFF6
0000
0002
FFFC
0004
FFF6
0000
FFFD
0008
0018
0002
0006
0013
0026
001C
0014
0007
000E
0005
FFFF
0002
FFFD
FFF8
0000
0000
0005
FFFD
0005
FFFE
FFF8
FFF5
FFE6
FFDD
FFF2
0002
000C
000F
0014
0015
001C
001C
0020
0015
0020
001B
0010
0006
000E
000B
0008
FFFF
FFFD
FFFE
FFF8
0005
FFF4
FFF0
FFEF
FFE6
FFF1
0009
000C
0032
0024
0018
0012
0018
000E
002C
0024
0010
000A
001C
000F
000D
000A
0008
FFFD
0002
FFFB
FFFC
FFFA
FFFA
FFF7
FFF1
FFE3
FFE3
FFFD
0006
0010
0029
0020
001A
0018
000F
001A
0015
0020
0016
0026
000F
0007
0007
0015
000A
FFFC
0002
0008
FFFE
FFFF
FFFE
FFEF
FFF2
FFEA
FFF6
0004
001A
001A
0021
0018
000F
0024
001E
0016
0010
0012
0022
0027
0000
FFF7
FFF6
0003
0003
0008
0005
FFFC
FFF8
FFFC
FFFE
FFE6
FFE3
FFFF
FFF9
0025
0015
0007
0006
0005
000B
FFFF
0009
FFF9
FFEE
FFDF
FFF4
FFE5
FFF3
FFE0
FFDA
0004
0004
0008
FFFB
FFFE
FFFA
FFFD
FFFE
FFF6
FFE0
FFF6
000C
001A
0008
FFFD
000B
0001
FFCF
FFCD
FFCE
FFBA
FFB1
FFAE
FFA7
FFC0
FFC2
FFC3
FFCE
FFF5
FFFF
0001
FFFA
0004
FFFB
FFFC
FFF5
FFEC
FFF4
0005
000B
0014
0016
000B
FFF8
FFEC
FFB4
FFA8
FFC7
FFC4
FFBC
FFAE
FFA9
FFB9
FFBE
FFC6
FFD1
FFEE
0001
FFF8
FFFF
FFFF
0001
FFF8
FFFA
FFF0
FFFC
0026
001E
0019
0015
001C
000C
FFF8
FFD3
FFE0
000C
0018
0012
FFEC
FFCE
FFEC
FFD6
FFEA
FFE2
FFE6
FFFB
0003
FFFD
0005
FFF7
0003
FFF3
0002
000A
001E
0020
001B
0009
000E
0013
FFF0
FFD9
FFE9
0017
002D
0030
0021
0008
FFFE
0009
FFFA
FFEF
FFE3
FFEB
FFF7
FFFB
0001
FFF8
FFF5
FFFA
000C
001B
0011
0027
0008
000A
0008
FFF8
FFEB
FFE3
FFEF
000C
0026
001E
0019
002A
0020
0013
0003
FFF7
FFF1
FFE6
FFF2
FFFF
0001
0007
FFFB
0004
0001
000B
001B
0017
0020
000D
0003
FFFA
FFE5
FFE7
FFD0
FFF5
0025
0022
0020
0017
0024
000B
0007
FFF4
FFE2
FFF1
FFF7
0002
0001
FFFF
FFF7
FFF6
FFEE
FFEE
FFFF
0023
0021
0012
0012
000F
0002
FFE6
FFCC
FFDE
000E
002D
0029
001A
0010
FFFD
FFF4
FFEE
FFF1
FFF5
FFFF
FFFC
0009
FFFA
FFFB
FFFC
FFE3
FFDB
FFED
FFF4
001E
0002
0004
0014
0004
FFEC
FFCD
FFE8
0004
0020
0029
000D
0006
FFFB
FFFB
FFF8
FFFB
FFFA
FFF2
FFFF
FFF9
0005
0001
FFF9
FFE0
FFDF
FFFC
0000
0016
0014
000D
000C
FFFF
FFEC
FFD3
FFF8
000A
0021
0026
0010
0013
FFEF
FFED
FFEC
FFF8
FFF6
FFFB
0000
0008
FFFC
FFFF
FFF5
FFF5
FFE9
000E
000A
0008
0010
0017
0008
FFF1
FFF0
FFFC
FFEF
0016
0016
0013
0017
0021
FFF7
FFE3
FFF0
0002
FFF9
0004
0005
FFF9
0002
0001
0004
FFF9
0009
FFFA
FFFF
0016
001A
0013
000D
FFED
FFDB
FFE3
FFF6
0005
000B
0005
001C
0018
FFF5
FFF4
0002
0010
FFFD
FFFE
0005
0007
FFFD
0003
0001
FFFF
0005
FFF7
FFDB
FFF1
0013
0005
FFDE
FFD5
FFDB
FFE5
0001
0010
0013
0011
001B
FFFC
FFFA
0006
0013
0005
FFFD
FFF6
0002
FFFB
FFFC
FFF8
FFF6
0001
0012
FFF7
FFF3
FFF9
FFFE
0003
FFF4
FFF3
FFFD
0008
0014
001D
000B
0013
0015
0011
0008
0005
0011
0007
0001
FFFD
0002
FFF7
FFFD
0000
0004
FFF8
FFF5
FFF2
FFE9
FFDB
FFE8
FFF1
FFF6
FFF2
FFF3
0003
0010
0018
001E
001C
0008
0005
FFFE
0009
000C
000A
0006
0000
0000
FFFA
FFFB
FFFF
0000
FFF5
FFFD
FFF8
FFDF
FFEF
FFE0
FFDC
FFE1
FFEA
FFE5
0011
0002
001B
0014
0015
0013
000C
0013
0008
0013
000D
FFF9
0007
0003
FFFC
0000
0007
FFFA
0000
0009
0009
FFFE
FFF2
FFF2
FFFE
FFEB
FFE9
FFF4
FFEB
0010
001C
000C
001D
0018
0019
0012
0012
000D
FFFC
FFF7
0002
0000
0000
0003
FFFA
FFFB
FFF7
FFFB
0000
FFF8
FFFD
000D
000E
FFFD
0017
0015
0021
0010
0016
0016
001A
0020
0012
0013
0005
000A
000B
0005
FFFE
0004
FFFF
FFF7
0007
FFFC
0004
0009
FFFC
0005
FFFF
000E
000A
000A
0015
0016
000F
0013
000F
0016
0009
0004
0003
000A
0005
0005
FFFD
FFFF
0000
0001
FFFD
0006
0009
FFFA
0002
FFFB
0006
FFFE
FFFD
FFF8
0008
FFF8
FFF8
FFFC
FFF7
FFFA
FFFB
FFFC
0000
0008
0000
FFFB
0000
FFF9
FFF9
0000
FFFD
FFFD
0002
0004
0003
FFFC
FFFD
FFFC
FFF9
FFF7
FFF7
0003
0004
FFFE
FFF5
0006
0000
FFFB
FFF5
0004
0006
0002
FFF6
0005
0001
FFFE
FFFB
FFFB
0007
0000
0006
FFFD
FFF8
0002
0006
FFF7
0004
FFF6
FFF5
FFFA
FFFD
FFFB
FFF8
0001
FFFD
FFF7
FFF5
0005
0005
FFFA
FFFF
FFFC
0003
FFF6
FFF5
FFFE
0002
0006
FFFF
0002
FFFB
0002
0005
0005
FFF5
0004
FFFF
FFF8
FFFB
FFFD
FFF9
FFEC
FFEE
FFF2
FFEF
FFF2
FFF3
FFFA
0000
FFFB
FFF9
FFF5
FFF6
0005
FFF5
0004
FFF9
FFFB
FFFF
FFFA
0005
FFF1
FFFA
FFFF
FFFA
FFFA
0002
FFF7
FFEB
FFF2
FFF7
FFE5
FFF2
FFE8
FFE1
FFED
FFF6
FFF6
FFF6
FFF2
FFFE
FFFC
FFFA
0007
0006
0006
0005
FFFC
FFFD
FFF9
FFF1
FFF4
FFF8
FFF5
FFF1
FFFF
FFEC
FFEB
FFF9
FFF3
FFFA
0007
000A
FFFE
FFF9
FFF7
0008
000B
0004
FFFE
FFFA
FFFD
FFFD
0005
FFFC
FFFE
FFF5
FFF8
FFF6
FFF7
0008
FFFD
0000
0017
FFFA
FFF9
FFF4
FFE2
FFF6
0007
0012
FFFF
FFFD
000E
0010
000C
FFFE
0004
0002
FFF8
FFF6
0003
FFF8
FFF8
FFFD
0006
FFFA
0001
0005
FFFD
0003
0005
FFF8
0007
000B
0003
0007
0009
0019
0013
0003
0013
0011
FFFC
FFFF
FFFC
0003
FFFF
0005
FFFE
0004
0007
FFF3
0000
000A
0004
0005
000C
0012
0008
000D
0015
0020
0005
0005
FFFA
000F
0022
0016
0004
0007
FFFE
FFF8
0000
FFFF
FFFE
0002
FFF6
0007
FFFE
FFF7
FFF7
0003
FFF3
0013
000A
000B
0012
000F
FFFE
002B
001A
001F
000F
0007
000C
0020
0005
0006
0015
0011
0005
FFFD
FFF6
FFFE
FFF5
FFFE
0000
0003
FFF8
0003
0009
000A
000F
0015
0012
0010
0012
0000
0002
0010
0020
001B
0008
0000
FFFF
FFFF
000B
0010
FFFD
0001
FFFF
0001
0005
FFFA
0007
FFF7
000E
000D
001C
001B
0016
0009
000B
0009
FFEC
FFD5
FFDB
FFFB
0012
0028
FFF2
FFFF
000D
FFFE
FFF6
0004
000D
FFF8
0002
0002
FFF6
FFF9
FFF3
FFF6
0006
0022
0020
000C
0019
0007
FFEF
FFE4
FFD2
FFB6
FFBF
FFC3
FFFA
0019
FFFE
FFFF
0002
FFFF
FFEC
FFF9
FFF7
FFFE
0000
FFFC
0002
0002
FFF8
0004
0002
0027
000D
001D
FFF1
FFF7
FFE1
FFD9
FFE2
FFCC
FFBC
FFC1
FFF2
FFFF
001A
0007
0000
0004
FFF2
FFF7
FFF6
FFFA
FFFD
FFFF
FFFB
0002
0005
0003
0000
000C
0014
FFF6
FFD9
FFEB
FFED
FFF4
FFE0
FFEB
FFC8
FFBB
FFE7
FFEB
0019
0013
001B
0016
FFF2
FFF2
FFFA
FFF7
FFF9
0006
FFFB
0001
0003
0006
0021
0011
0022
FFFA
FFE3
FFE1
FFE9
FFF8
FFFB
FFFF
FFE7
FFBE
FFCA
FFE8
000A
001B
001F
0018
FFFF
000B
FFF6
000A
0001
FFFD
FFFA
FFF5
FFFA
0009
001E
0017
FFFC
FFE8
FFD7
FFFB
FFF3
000E
0017
FFFF
FFCC
FFCF
FFE4
0003
000D
0028
001B
0004
0001
000A
0009
0008
FFFC
0005
FFF9
0003
0009
0015
0017
0006
FFE5
FFDF
FFD8
FFE7
0002
0009
0000
FFDB
FFBB
FFC5
FFFC
0010
0016
0025
001E
FFFD
0002
FFFD
FFF9
000B
FFFB
FFF8
FFFA
FFFF
FFFD
0006
0007
FFF7
FFEB
FFE1
FFD6
FFED
FFF8
FFF4
FFED
FFB7
FFBE
FFE3
0025
002D
0017
001C
000D
000F
FFF4
FFF9
0001
0001
FFF9
FFF5
0004
FFF4
FFF2
FFFD
0007
FFE8
FFF2
FFE4
FFF0
FFEF
FFFF
FFDA
FFB1
FFB5
FFD4
000F
0027
0026
0012
000F
000A
0002
FFF3
0004
0008
FFFE
0006
0005
FFFF
0007
FFF3
0005
FFF8
FFED
FFFD
FFF2
FFEE
FFF3
FFEA
FFE1
FFC3
FFCD
FFF9
0015
001C
0008
0001
0005
FFFC
FFFB
FFF9
0001
FFFF
0005
0005
FFFB
FFFE
FFF8
FFFD
FFFE
0009
0008
FFEA
0006
FFFA
FFF7
0001
0002
FFEE
0002
000C
001C
0005
FFEE
0000
FFE4
FFEF
FFFA
FFFD
0009
0002
FFFF
FFFB
FFFE
FFF8
FFFE
0007
0000
FFFB
FFF5
FFF4
0009
000F
000A
001E
0025
0034
0026
0027
001D
0000
FFFC
FFEB
FFFA
0005
0014
0011
000A
0001
FFFC
0000
FFF6
FFFE
FFFF
FFFB
FFFF
FFFC
FFF6
FFF1
001B
0015
0019
0033
001F
0029
0029
0017
0020
000D
000B
0004
FFF1
0006
000D
0012
FFFC
FFFF
FFF5
0001
FFFF
FFF7
FFFF
FFF4
FFFC
FFF5
FFFC
0001
FFFC
0015
001F
0024
0029
001B
0022
0010
0005
000F
000C
0005
FFF8
0000
000B
0002
FFFF
FFF6
FFFA
0002
0005
FFF6
0002
0001
FFF9
FFFB
0009
0008
0004
001B
FFF8
FFEC
FFF4
FFF9
0007
0009
0001
0013
0014
FFF8
0002
0007
0002
0004
0007
0000
FFF8
0002
FFF9
0002
0001
FFF5
0001
0004
0003
FFFE
FFFC
FFFD
FFEE
FFF3
FFF5
0001
0003
0004
000A
0000
000A
0009
FFFB
0005
FFFD
0002
0006
0000
0001
0005
FFFE
FFF6
FFFF
0001
FFFC
FFFB
FFF9
FFF4
0001
0006
FFFB
FFFE
0004
FFFA
0005
000E
000C
FFFC
0008
0004
0005
0000
0003
FFF6
0002
FFF9
0003
FFFA
FFFE
0003
FFFC
0003
FFFD
FFF5
0001
0006
0000
0001
FFFE
0000
FFFE
FFF7
0007
FFF9
0007
FFF8
FFF8
FFFA
FFFE
0003
FFF5
FFFA
0005
0003
FFF7
FFFF
0003
FFFB
FFF7
FFFC
FFFD
FFFE
FFFF
FFF9
0004
FFF6
FFF7
FFF5
FFFE
FFF5
FFFE
FFF9
0005
FFFC
FFF8
FFFE
FFF7
0000
FFF5
FFF5
0001
FFFC
0003
0002
0000
0001
0003
0003
0000
0006
FFF4
FFFB
FFFE
FFFE
FFF7
0004
FFFA
FFF5
0005
0005
FFF6
FFFB
FFF8
0005
FFF6
0000
FFFB
FFFD
FFFE
FFFF
0004
FFFD
0003
0000
0003
0006
FFF4
FFFA
0000
0002
FFFA
0002
FFF5
0000
FFEF
FFF6
0000
0000
FFFB
FFF7
FFFC
FFF5
FFFF
FFF2
FFF6
0002
0002
FFF5
FFFD
FFF5
0003
FFF9
0001
0005
FFFA
FFF4
0001
0000
0003
FFF5
FFF8
FFF6
FFF6
FFF7
FFF5
FFF9
FFFA
FFFF
FFED
FFE8
FFF7
FFEE
FFFF
FFF8
0003
FFF7
FFF5
FFF7
FFF5
FFF9
FFFB
FFF7
FFFC
FFFE
FFFA
FFF9
FFFE
0000
FFFF
FFFF
0007
0012
0011
000E
000D
0009
FFF0
0005
FFFE
FFF9
FFF7
FFFA
FFFF
FFF5
FFF6
FFF9
0006
FFFF
FFF4
0002
FFFB
0005
0003
000E
FFFD
FFFE
0000
0004
0000
0005
FFFD
0010
0004
FFF2
0002
FFFF
000B
0004
FFFC
FFF7
FFF9
FFF9
FFF4
0001
0000
FFFA
FFFE
FFF2
FFEF
FFF9
0007
0002
0003
0014
000A
FFF8
0005
FFFA
FFF6
000E
FFF8
FFF3
FFF5
0007
FFFE
0001
FFF7
0001
FFF5
FFF1
FFFC
FFFC
FFFB
FFF8
0001
FFF3
FFF5
000E
0007
0009
0006
0001
0005
FFF7
FFF9
000F
0000
0013
0000
0002
0003
0006
0009
0018
0014
000B
0004
0002
FFF3
FFF9
FFFB
FFF4
FFF4
FFFE
FFFC
0004
FFFD
0009
0000
0007
0006
000F
000E
0014
FFF8
FFF9
0006
0011
000A
0010
0008
FFF9
0008
0006
FFF7
FFF6
0006
0001
0004
FFF4
FFFC
0001
FFFF
0006
FFF3
FFF3
FFF1
FFF7
0000
FFEF
FFF3
FFF4
FFEB
FFF6
0018
FFFA
FFF2
0000
FFFB
FFF1
0008
0009
FFEA
FFFE
FFF9
0003
FFF7
FFF7
FFF7
0002
FFFC
FFFF
FFEE
FFF4
0005
FFFF
FFFB
0001
FFE7
FFEE
0003
0028
0022
0005
0010
0005
FFF0
FFF6
FFF9
FFF7
FFF7
FFF9
FFFD
0006
0001
0001
FFF2
FFEE
FFFD
FFF9
FFF2
000A
000A
0003
0007
FFD9
FFDE
0003
0025
0028
0019
FFF6
FFF3
FFF5
FFFE
FFFB
FFF5
0005
FFFC
0005
FFF6
0000
FFFB
FFF9
FFFE
FFFB
FFFF
FFEB
FFFC
0000
FFF2
FFF1
FFE1
FFCC
FFF2
0029
003A
000A
FFFB
FFED
FFF8
0000
0007
0003
0004
0007
000F
000B
FFFB
0006
FFFF
0002
FFF2
FFF5
FFE8
FFEB
FFE0
FFE9
FFD9
FFEE
FFE5
FFE3
0003
001E
0013
0004
FFFB
0000
0009
0013
0005
000B
0010
0002
0010
000B
000A
0007
FFF9
FFFC
0002
FFED
0002
FFEC
FFF7
FFFD
FFEA
FFE8
FFF1
000C
0021
0029
001A
FFED
FFF7
0009
0006
000E
0011
0014
000A
FFF9
0000
0003
0005
FFF6
FFF5
FFFE
FFFA
FFF2
0002
FFF5
FFFE
FFFC
FFFD
0003
0004
0019
002F
0028
0011
FFED
FFFA
FFF8
FFFC
FFFE
FFFF
0007
0000
FFFC
0002
FFFE
0000
FFF5
0001
0003
FFFF
FFF3
0000
0005
000F
FFF9
0005
0005
0003
001C
002D
001B
000C
FFF9
0015
FFFB
FFFC
FFFB
0003
FFF7
FFF5
0000
0008
000D
0005
0001
FFFB
0006
FFFC
FFF8
000E
0008
0008
000E
0005
0011
0015
0021
0022
0016
0011
000B
0009
FFFC
FFF8
000D
0000
FFFE
0005
0008
000D
0004
0004
0002
FFFC
0004
0001
FFF7
0006
0003
0003
0004
0002
0021
0020
0017
000C
0010
0001
FFFC
FFFD
FFFB
000A
0004
0007
FFE9
FFFB
0008
0009
FFFA
FFFA
FFFD
FFFA
FFFC
FFF3
0007
FFF7
0008
000D
0013
0007
0021
0023
0007
FFFC
0007
0009
0000
000D
FFFA
FFFE
FFF1
FFF4
0002
0009
000D
0004
FFFC
FFF9
0000
0006
0000
0003
FFFB
0009
FFF0
0015
0014
000B
FFF7
0006
0001
FFF5
0008
0000
0002
FFFB
FFFE
FFF8
0000
000A
0008
0015
000B
FFFC
FFFB
FFFB
FFF7
FFF5
FFFA
FFF9
0009
000A
0007
001C
0025
FFFF
FFFD
FFDB
FFE7
FFF5
FFF8
000E
FFFD
FFF8
FFFC
FFE2
0000
0006
FFFD
0000
0002
FFF0
0000
FFF9
0004
0002
0005
FFF8
FFF5
000A
0013
001A
0016
FFFC
FFFF
FFF5
FFF5
FFF3
FFE8
FFFA
FFE6
FFEC
FFF5
FFEE
0000
FFFC
FFF7
000A
FFFC
FFFB
0003
FFF8
FFFA
FFF9
FFFF
0002
FFF3
FFFC
FFFA
FFFB
FFF5
0003
000E
000E
0011
0005
000B
0003
0008
0008
0000
FFF0
0005
FFFB
FFF9
FFF9
FFFE
FFF2
FFF7
FFFD
FFF9
FFF9
FFFD
FFFE
FFFD
FFF1
FFF0
FFE0
FFEF
FFF9
FFF0
FFE7
0003
FFFA
000A
0013
0000
0001
FFF9
0000
FFFC
FFF6
FFF6
FFFB
FFF6
FFFD
0000
0005
FFF6
FFFC
FFFE
FFFA
0000
FFF2
FFFC
FFFE
FFFC
FFF0
FFE4
0004
FFFE
FFE9
FFEC
FFE6
FFEC
FFE0
FFF6
FFF2
FFEC
FFEE
FFEB
FFF8
FFF6
FFF4
FFF9
FFF7
0005
FFFE
0002
FFF6
FFFB
0003
0002
FFF7
FFFB
FFF9
FFF5
FFF2
FFFC
FFFB
FFF9
FFFC
FFF5
FFF1
FFEE
FFF8
FFF4
FFFA
FFFA
FFFB
FFF7
FFFB
0000
FFFC
FFF4
0006
FFF9
FFF4
FFF4
FFF4
0006
FFF5
FFF9
0002
FFF6
FFFE
FFF2
FFF9
FFF8
0001
FFF5
FFF6
FFFC
FFF5
FFFE
0001
0002
FFFB
FFF5
FFFC
FFF6
FFF5
FFF9
FFF6
FFF7
FFFA
FFFE
0000
FFF8
FFF6
0000
FFFC
FFF9
FFF9
0004
FFFC
FFF9
FFFA
0005
FFF3
FFF8
FFFF
FFFE
FFFA
FFFD
FFF8
0001
0001
FFFA
FFFF
FFFC
FFF7
0000
FFF5
FFF4
FFF6
FFFC
0003
FFFE
0004
FFF5
0002
0004
FFFC
0002
0001
FFFA
FFF6
FFF4
FFF7
0004
FFF7
FFFE
FFFE
0002
FFF4
0003
FFF6
0004
FFFB
FFF5
FFF9
FFF5
FFFC
0000
FFF8
0006
0006
0001
0001
FFF8
000B
0000
0000
FFF7
0001
0001
0002
000A
000A
0006
FFFD
FFF9
FFF4
0000
FFF9
0005
FFFE
FFF6
FFFE
FFF5
FFF5
FFF6
FFFA
0001
FFFF
FFF4
FFFE
FFFC
FFF1
FFF1
FFF9
FFFA
FFF8
FFFB
FFF4
000A
0003
0008
000C
0000
0008
FFF8
FFF3
FFFB
FFF5
0000
0001
FFF9
FFF5
0000
FFF7
0002
0002
0008
FFFF
FFED
FFF2
0006
000A
FFF7
FFFB
0001
FFF6
0007
0012
0009
0011
0002
FFF8
FFF6
FFFD
FFF4
0003
0001
0001
FFFD
FFF9
0002
0006
0005
0014
0019
0012
FFF8
FFFE
0004
FFFB
0018
FFF6
0001
FFFE
0008
0002
FFFF
FFF4
FFF2
FFF8
FFF7
0001
FFFF
0002
FFF9
FFFC
FFF7
0000
FFF6
000A
000D
0019
000C
000B
FFFF
FFF4
FFEB
0002
FFFB
0001
0004
0005
FFFD
FFF6
0003
FFFF
FFF2
FFFD
FFFB
FFF2
0005
FFF7
FFF6
FFFD
FFFB
FFFA
0002
FFF4
000F
FFFC
FFF5
FFFB
FFF8
FFF0
FFED
FFEF
0001
0001
0002
000C
0008
000C
FFFC
FFFE
000E
FFFB
FFF5
FFF1
0001
FFF3
0005
FFFE
0007
FFEF
0002
0007
0004
0002
FFFE
FFE4
FFE7
FFFE
0005
0003
FFFD
0013
FFF3
0008
FFEF
FFFF
0007
0000
FFF9
FFF1
FFF1
FFEE
0000
FFF6
0002
FFFA
FFFE
FFF6
0003
0007
FFED
FFEF
FFEF
FFE4
FFF5
FFFB
0000
0006
0000
FFF8
0004
FFF9
0005
0012
0001
FFE6
FFFA
FFF5
FFEE
0000
FFFB
0004
0003
FFF9
FFF1
FFFA
0003
FFF1
FFF5
FFEA
0001
FFF9
FFFB
0003
001F
000D
FFFF
0005
FFFC
0009
000A
000D
0008
FFFE
FFF5
FFE6
FFE3
FFFD
FFF2
FFFA
0001
0002
FFF4
FFF9
FFFA
FFF1
0007
0018
002A
002A
0038
0033
002B
FFF1
FFF5
0016
000B
0007
0008
000A
000A
000A
000B
0004
FFE6
FFF5
FFF7
FFFF
FFFB
FFFA
FFFF
FFFB
000F
0008
0031
0025
0048
0021
0029
001A
FFF8
FFEF
000F
0005
000E
000B
FFFB
FFFC
0014
0029
002A
000F
FFF3
FFF4
0000
FFFD
FFFB
0001
FFFC
0014
001F
002A
0037
002E
002E
0016
FFF2
FFDC
FFDE
FFF4
0015
0012
FFFA
0006
000B
0002
0019
0013
0025
FFF5
FFF0
FFF4
FFEE
FFFE
FFFD
FFF5
0001
000D
002E
002F
0020
0026
0023
0002
FFEF
FFD6
FFE2
FFF6
0002
000B
0004
FFFE
0012
0017
000D
0013
000D
FFE7
FFEA
FFF1
FFFB
0003
0001
FFF4
FFF8
FFF4
001F
0016
002D
0028
0000
FFEF
FFEF
FFDA
FFE8
0000
0002
FFFC
0013
FFF3
FFFE
0011
000D
001D
000E
FFE9
FFDD
FFF2
FFF9
FFF3
FFF3
FFF7
FFEF
FFE4
0017
0022
0032
0035
001B
FFFA
FFE5
FFE0
FFD2
FFE9
FFF1
FFE6
FFEC
FFF2
0001
0012
0008
0009
0000
FFE6
FFD7
FFF4
FFF5
FFF3
FFFB
0000
FFE8
FFDB
0005
000D
0037
003A
0032
0013
0003
FFED
FFEB
FFF8
FFF0
FFF3
0006
FFF8
0004
0017
000B
0007
0005
FFEC
FFEA
FFF1
FFF5
FFFE
FFFA
0000
FFF2
FFDC
FFF2
0009
0012
0020
0035
0028
0025
0016
0001
FFF6
FFFD
0004
FFFD
FFF9
0001
0004
000C
FFFE
FFF1
FFE9
FFEF
FFFB
FFFE
0005
0002
FFF5
FFF8
FFE7
FFF3
0002
FFFD
0005
0013
0017
0034
0018
0000
000E
0000
FFF9
FFFA
0005
0004
000E
0001
FFF5
FFE1
FFEE
FFE3
FFFE
FFFD
FFFE
FFFB
FFFA
FFF1
FFDF
FFDC
FFF4
FFE3
FFF3
FFFE
0005
0001
000D
0006
0009
0011
0009
FFFB
FFFE
0000
000C
FFF9
FFEC
FFE1
FFE7
FFEF
0004
0000
FFF7
0002
FFF4
FFEC
FFE7
FFEA
FFF3
FFE9
FFFE
FFFA
FFEA
FFF8
0003
FFFB
000A
0016
000B
0009
FFF3
0004
FFFF
FFF3
FFE8
FFE5
FFE8
FFEF
0002
FFFD
FFFF
FFFB
FFF5
FFF6
FFEB
FFE3
FFE7
FFE8
FFEC
FFED
FFE9
FFEF
FFFA
0006
0003
000C
0008
0010
FFF3
FFF1
FFFB
FFF4
FFEF
FFEE
FFF0
FFFD
FFF7
FFFF
FFF6
0000
FFFC
FFF6
FFF5
FFF5
FFF9
FFFD
FFEA
FFF0
FFFA
FFF2
FFFB
FFFC
0006
FFF4
FFFF
FFF7
FFFA
FFFB
FFF0
FFF5
FFEE
FFF2
FFF3
FFF2
FFFB
FFFE
FFFE
0003
FFFB
0001
FFFD
000B
0008
0001
0004
FFEF
FFFF
0004
FFFB
FFF8
FFF5
0001
0006
FFF5
FFFD
0001
FFF6
FFF4
FFF3
FFFA
FFF2
FFFE
0004
FFFC
FFFE
FFF9
0002
0003
FFF5
0006
FFFF
000C
FFF9
FFE9
FFFD
FFFF
FFFE
FFFA
0008
FFFD
FFEF
FFF1
000B
FFFF
FFF4
FFF6
FFF7
0000
0003
0001
0002
0002
0003
FFFF
FFF4
FFFE
0001
0006
FFF4
FFF8
FFFC
0004
FFF8
FFF4
FFFF
FFF1
0002
0001
FFFA
0003
0004
0005
FFFD
0006
FFF9
FFFF
FFF4
FFFC
FFF3
FFF6
FFFA
0001
FFFC
0002
0003
FFF9
FFFE
FFF6
0000
FFF4
FFFD
FFFF
FFF3
0006
0001
FFF7
0004
FFF7
FFFA
FFF5
0002
FFFF
FFF6
FFF4
FFF5
0001
FFF6
0002
FFFA
FFF4
FFFD
FFFE
FFFB
FFFD
0005
0000
FFFE
0004
FFF6
FFF4
FFF8
FFFC
FFF7
FFF9
FFFC
FFF6
FFF3
FFFA
0000
0002
0001
FFFB
0004
FFFD
0004
0002
FFF7
FFFF
FFFA
0002
FFF6
0005
0003
FFF9
FFF5
0002
FFF5
0002
0004
FFFF
FFFB
FFF4
FFFB
0004
FFFE
0002
0003
0001
FFFA
0004
0005
FFF9
FFF7
FFF8
0002
0001
FFFB
FFF6
FFF7
0001
FFF8
FFFF
FFF4
FFF7
FFFD
FFFB
FFF9
FFEF
FFF6
FFF5
FFFB
FFF0
FFF4
0002
FFF0
FFF3
0004
FFF3
0002
0001
FFFF
0004
0002
FFFA
FFFD
FFF6
FFF7
FFF4
0001
FFFA
0000
FFFA
FFF5
FFE9
FFED
FFE1
FFE9
FFDF
FFDB
FFEF
FFED
FFEE
0004
FFFA
FFFD
FFFB
FFF8
FFFF
FFF4
FFFA
FFFD
0003
FFF5
FFFF
FFF4
FFFD
FFF8
FFE9
FFE6
FFE7
FFE2
FFDF
FFE8
FFE8
FFF7
FFFC
FFDB
FFF9
FFF6
FFE7
FFF5
0005
FFFC
0001
0004
FFFD
0005
0000
0000
FFF5
FFF7
FFF3
FFF5
FFF1
FFDC
FFE8
FFDE
FFEB
FFF2
0002
FFF9
0008
000D
FFF6
FFF8
0007
FFF2
FFF4
0007
0000
0003
FFFE
0004
0009
FFF8
0002
0000
0005
FFF4
FFF4
FFF6
FFF0
FFE5
FFE7
FFEF
FFFB
FFFC
000B
000F
0019
000E
FFFF
0005
000A
000B
001B
FFFB
FFF5
0006
0000
0003
FFFB
0004
0002
FFFD
FFF9
0005
0003
FFE8
FFF4
FFEE
FFE4
FFFC
000A
0017
0018
001B
001B
FFFF
0006
000B
0001
0001
0007
FFFD
000F
FFFC
0012
0006
000A
FFFF
0004
FFF6
FFFF
FFFE
FFFA
FFF2
FFF0
FFFC
FFF1
0006
001B
001E
0018
0005
0000
FFFA
FFFC
000C
FFFC
000F
0003
0003
0005
0008
0025
0027
0011
0002
FFFE
FFFB
0003
FFF6
FFFD
FFE7
FFED
FFFF
FFFD
0000
FFFE
000C
FFFE
0015
0008
0003
FFF0
FFE9
0009
0013
FFF9
FFF6
FFFD
FFFD
001B
002A
0013
0000
FFF8
0001
0005
0005
FFF6
0002
FFFF
0003
0000
FFFF
0016
0011
000D
0021
0009
000A
FFF4
0004
FFF7
0003
0007
FFF6
0001
0007
0024
002A
0015
FFF8
FFF5
0003
FFFC
FFFD
0003
000D
000A
0021
0021
0014
0002
0009
0017
0021
002B
0015
FFFC
FFF0
FFFF
0005
0004
000D
0018
001B
001A
001B
0006
000A
FFF8
FFF7
0001
FFF6
0001
0019
0020
0028
001E
001C
FFFC
FFFC
0010
0012
000F
FFFF
0004
FFE6
FFF4
FFF4
000D
0017
001C
002C
0019
0008
0004
FFFC
0002
0001
FFFA
FFFE
0005
0014
001C
0011
001A
0019
0018
0011
0012
000E
0000
FFFF
000E
FFE9
FFF0
FFE7
001A
0021
0016
001B
0011
FFF4
FFF9
FFFC
FFF6
0003
0003
FFFF
FFFF
000C
0009
0006
0013
FFFD
0000
0011
000C
0009
FFFE
FFF1
FFFD
FFEB
FFFE
FFFD
FFFF
0016
000D
000A
0002
FFFD
FFF4
FFF8
FFFD
FFF6
FFFE
FFF6
FFFA
0000
FFFE
FFF6
0003
FFED
FFF7
0001
FFFF
0000
FFEF
FFF8
0000
0001
0010
000F
FFFA
FFF8
FFFD
FFF5
0000
FFFA
FFEB
FFFC
FFFC
FFFE
FFF5
FFFA
FFFB
FFF8
FFF4
FFF3
FFF5
0003
FFF1
FFE8
FFE0
FFEE
FFDF
FFF5
000B
0005
000A
FFF3
FFF5
0002
FFFA
FFEE
FFF8
FFEF
FFF1
FFFA
0002
FFFA
FFF7
FFF9
FFF3
FFF8
FFF9
0019
FFF6
FFF7
FFFD
FFED
FFFC
FFEC
FFEF
FFFD
0008
0008
000F
FFF0
FFE7
FFF1
FFF0
FFF5
FFE5
FFF5
FFF1
FFF9
0000
FFFE
0005
FFF7
FFF0
FFF5
FFFE
001A
0010
000C
0003
FFFC
FFFB
FFEC
FFFA
FFFE
FFF8
FFFB
0001
FFF3
FFE3
FFE6
FFE6
FFE7
FFEA
FFF3
FFE5
FFFF
0001
0004
0000
0005
FFE8
FFFD
0009
000C
FFEC
000F
FFFE
0000
FFFF
0001
FFFA
0001
FFFF
FFEA
0001
FFF2
FFF2
FFD4
FFD0
FFF3
FFFC
FFF8
FFF4
FFFD
FFFE
FFF8
FFF5
FFF1
FFF2
FFE9
001A
0010
FFED
0003
FFF8
0004
000C
FFF9
FFFE
FFEF
FFE8
FFF1
0003
FFF9
FFE8
FFDE
FFE0
0000
0002
FFF7
FFF4
FFF5
FFF9
FFFF
0003
FFF3
FFE9
FFF2
000B
0016
0015
0003
0013
0008
0007
0000
FFFC
FFE5
FFDE
FFE7
FFE9
FFDC
FFE6
FFE8
FFE1
FFF7
0002
0000
FFF9
FFF7
0001
FFFC
0000
FFFB
FFF2
FFEB
FFE3
FFF7
001A
000B
0018
0014
0009
0006
FFFC
FFFB
FFF1
FFE0
FFE5
FFEA
FFE3
FFCF
FFEB
FFFA
0000
0007
0009
FFF7
FFFB
FFFE
FFFD
FFF2
FFF6
FFF2
FFF5
FFF1
FFEA
000B
FFFF
000C
0000
0002
FFF8
0009
FFF6
0000
FFE5
FFD4
FFE9
FFE5
FFF6
FFF6
0004
0008
0005
FFF6
FFFC
0002
0003
0001
FFFD
FFFE
0002
FFED
FFF4
FFFC
FFF7
FFFE
FFFF
FFFF
0007
FFFA
0007
000B
FFF2
0002
0009
0004
0003
0009
000B
FFFD
FFF5
0001
0005
0003
0004
FFF6
0002
FFF9
FFF1
FFFE
FFEF
FFEF
FFE9
FFFD
0004
0002
0003
0011
001F
0016
0012
0016
0015
0005
FFFF
0005
FFFC
0007
FFF5
FFF8
FFFB
0000
FFF5
0000
0002
0000
FFFD
FFF8
0003
FFFF
000C
FFFC
000E
0012
0006
0008
0004
0003
0007
0002
FFFE
000C
FFFC
FFFD
FFF7
0003
FFFE
FFF8
0003
FFF8
0000
0002
FFF8
FFF6
FFFB
FFFF
FFF7
FFFF
FFFF
FFF5
FFF8
0000
0005
0002
FFF8
FFF9
FFFC
FFF5
FFFB
FFF4
FFFB
FFFB
FFFF
FFFE
FFF7
0003
0001
FFFA
0006
0005
FFF6
FFF8
FFFB
FFFE
FFFF
FFFD
FFF7
FFF8
0006
0003
FFFD
FFFF
0005
0003
0000
FFFE
FFF9
0000
FFFE
FFF8
0006
0006
FFFF
FFF5
0001
FFFC
FFFA
FFFD
0002
FFFA
FFF6
0000
FFFA
0002
FFFD
0000
0001
FFF7
FFFD
FFFD
FFF8
FFFB
FFFA
FFF5
FFF8
0005
FFF7
FFFC
FFFC
0002
FFF7
0005
0002
FFF8
0000
0000
0001
0003
0006
0002
FFFE
FFFD
0004
FFFC
FFFC
FFF5
FFFB
FFFB
FFF8
FFFD
FFF4
FFF4
FFFC
FFF0
FFEF
FFFC
FFF9
FFFB
0002
FFF8
0006
0000
FFFF
FFFA
0005
FFF7
FFF9
0003
0002
000E
000B
0017
0023
0017
000F
0018
0019
001A
0017
0014
000A
000F
FFFC
FFE9
FFF4
FFFF
FFF8
FFF9
FFFD
0004
0006
FFFB
0006
FFFD
0006
0007
0018
0020
001D
0027
0028
001E
001B
0014
0031
0024
0019
002A
0018
0008
FFFE
FFE5
FFE4
0004
0006
FFF7
FFFC
FFF6
FFFE
0003
0003
0009
0011
0015
0020
001D
0016
0023
0013
0011
001B
0005
000F
0021
000C
001F
001A
000B
FFEB
FFFA
FFFE
FFFD
FFF7
FFF9
FFF8
FFFD
FFFD
FFFF
000B
000B
001B
0023
001E
000B
001A
001B
0024
0021
000F
000F
001B
0018
0018
001F
0006
0008
FFFE
FFF7
FFE9
FFF5
FFF5
0002
0006
FFF8
0001
FFF7
000A
001A
0016
0015
0009
000D
0011
0012
0018
000F
000B
0017
FFFB
0009
FFFD
000F
0002
0001
0002
000A
FFDC
FFE2
FFED
FFF5
0006
0004
FFFB
FFF6
0009
0013
0019
FFFE
FFF9
FFFD
FFE9
FFFF
0001
FFFA
FFEB
0008
FFFD
FFE3
FFF3
FFF4
FFF4
0006
0003
0011
FFEA
FFF4
0001
FFFC
0001
0000
0001
0003
0001
0013
0014
FFF0
FFFB
FFF4
FFE4
FFD0
FFD0
FFDD
FFCD
FFF6
0016
0006
0001
FFFE
FFFD
FFF1
FFF3
000E
FFE1
FFE8
0002
FFFA
0000
0003
FFF6
FFFA
000C
0008
FFF5
FFE7
FFDC
FFCF
FFCA
FFB7
FFC1
FFD0
FFDF
FFE5
000C
0012
000B
FFFB
0008
0000
FFE0
FFEB
FFF6
FFFC
FFFE
0001
FFFA
FFF7
0006
0004
FFFC
FFED
FFDB
FFCA
FFBC
FFAE
FFA9
FFCD
FFE9
FFF6
FFE9
FFEF
0005
0004
0013
000A
000F
FFF4
FFE1
FFF0
FFE2
FFFB
FFFE
0001
FFFA
FFFA
FFFD
0004
FFFD
FFEC
FFCC
FFBB
FFB8
FFBB
FFD5
0007
0009
0005
0004
0006
000D
000E
0006
0005
FFFB
FFED
FFD9
FFE2
FFDC
FFF4
0006
FFFF
FFF7
0003
FFFD
FFF6
0001
FFE6
FFC5
FFB0
FFC0
FFE2
FFE4
0004
0002
0007
0013
0010
0004
000C
000D
FFF9
FFEC
0000
FFF1
FFE7
FFE5
FFFB
FFFD
0003
FFF9
FFF9
FFF5
FFFB
FFFA
FFEB
FFCF
FFDC
FFE9
FFE0
FFEF
FFF1
FFFA
0009
FFFF
000C
0014
000D
0000
FFF5
FFF1
FFFD
0000
0004
FFF7
0006
0012
0001
0001
FFFA
FFF9
FFF8
FFFF
000B
FFF7
FFF5
FFEE
FFD1
FFCE
FFE7
FFED
FFE2
FFF1
FFF1
FFFC
FFFE
FFFC
000B
0008
0013
000B
0007
FFFA
001C
000D
FFFF
0006
FFF8
FFF9
0002
0014
001B
000C
0009
FFF9
FFD7
FFC9
FFCC
FFC0
FFCB
FFE6
FFE6
FFF3
FFF6
0006
0009
0028
0024
001A
000F
0014
0017
0019
FFFD
0000
FFF5
FFF5
0005
0016
001C
001F
0015
0007
FFFD
FFDC
FFD3
FFBA
FFBD
FFD2
FFD8
FFEE
FFFC
0013
0016
0023
0009
0006
FFFD
0000
0004
0014
0002
FFFE
FFF4
0006
FFFA
0012
0022
002E
0021
0015
001C
0006
0005
FFFA
FFE5
FFE6
FFF5
000F
0013
0019
0019
0022
0015
0010
0003
FFF8
0016
0010
0005
0003
FFF5
0003
FFFF
0012
0011
001B
001D
002B
001D
002F
0028
002D
001C
001E
0017
0016
000F
0019
000A
0014
000B
0009
FFFB
FFFF
0004
0009
0008
0005
FFF8
FFFA
FFFB
0018
0017
0019
0024
0024
002D
0030
0026
0028
001B
0024
001B
000F
000F
0000
000F
0018
000F
0005
FFF4
FFFE
0004
FFF8
0001
FFF7
0003
0003
0005
000A
0001
FFFA
0009
FFFD
0006
000A
000E
0015
0012
0011
0003
0006
FFFF
FFFD
001B
0027
0002
FFFB
0009
0006
0001
0006
0001
0006
0002
FFFC
0000
0003
0003
FFFD
FFED
0001
FFFF
FFF1
FFF7
0002
FFFE
FFFB
0002
FFFF
FFFC
0009
0011
0010
0008
FFFA
FFF9
000A
0005
FFFA
FFF8
FFFA
FFFB
FFFA
0003
0008
000F
000F
000D
0009
FFFA
FFF6
0001
FFFC
FFFA
FFF5
0002
000E
FFFE
0004
0004
FFED
0001
FFF1
0008
FFFF
FFFD
FFFB
FFF6
0005
0006
0001
0004
FFF8
000D
000F
0007
001C
0015
000D
0001
000B
0005
0004
0014
000B
0007
0010
FFF8
FFF9
FFFE
FFF7
0008
0006
FFF9
0004
FFFB
FFF5
FFF4
FFF9
0000
0002
FFF9
0000
000C
000D
0018
001A
0022
0021
0025
0017
0004
000F
000B
0001
FFFF
FFFD
0004
FFF8
0002
0001
0002
FFF8
FFFB
0002
FFFE
FFFA
FFFA
FFFA
0005
FFFF
0003
FFFE
FFFB
FFFC
0003
FFFC
FFFD
000B
0006
0001
0009
0001
FFFC
0000
FFFE
FFFD
FFF9
FFFF
FFFB
FFFC
FFFB
FFFA
FFFF
0004
FFFB
FFF7
0000
FFF7
FFFE
FFFD
0003
FFFC
FFFD
0000
0004
FFFD
FFFC
FFF7
0004
FFFD
0006
0004
FFFA
FFFD
FFFE
FFFE
FFF8
0005
0006
0002
0000
0006
0009
FFFA
000B
0006
0009
0006
0003
0005
0006
FFFB
0004
0003
FFFB
0001
000A
FFFB
0008
FFFB
FFFE
0002
FFFF
FFFB
000A
0003
FFFB
FFFB
FFF9
FFFB
FFF9
0004
FFFF
0001
FFFA
FFFE
0003
0001
000B
0001
FFFD
FFFA
0009
FFFC
0006
0003
0001
0002
FFFF
000A
0007
0009
FFFB
FFFB
0006
000A
FFFB
FFFA
FFFF
FFF9
FFFF
000B
0007
0007
0002
0003
FFFE
000B
0000
000F
0001
0002
000C
0009
0004
000A
0004
FFFF
FFFD
0000
0009
0003
FFF9
FFFC
0006
0005
0007
0000
0004
0003
0000
FFFD
0004
0001
0002
FFFD
FFF4
FFF5
0003
FFFA
0007
000B
0014
000C
0018
0017
0003
000F
000C
FFFE
FFFD
FFFB
FFFC
0003
0001
0001
FFFD
000C
FFFF
FFFB
FFF9
FFEF
FFF2
FFF6
FFF1
000A
FFF2
FFFD
FFF3
FFF6
FFFC
000A
FFF5
000C
0002
0008
0000
0003
0000
FFFB
FFFE
0009
FFFB
FFFC
000D
000F
0008
000D
0006
0005
FFF8
FFF6
000C
0006
FFFE
0008
0000
FFEE
FFFB
FFF1
FFF0
FFDA
0002
000C
000C
0003
0000
0000
0006
0005
000A
0002
000E
000E
000B
0011
FFFE
0002
000C
000C
0003
0002
000C
FFFA
FFFF
0008
0002
0004
0004
FFFE
0007
000C
0001
000A
000C
FFFA
FFFD
FFF9
FFFE
FFFF
000E
0000
FFFF
0002
0003
0008
FFF7
0001
0005
0004
0015
FFFD
FFF5
0007
FFFB
0002
0005
FFEB
FFFE
0008
0019
0001
000A
0003
0006
FFFC
0003
FFFD
0004
FFFA
FFEB
0003
FFFB
FFF6
FFEF
FFF7
FFFC
0004
0004
FFF4
FFF5
FFFD
FFED
FFFB
FFF9
FFFD
FFFB
FFFB
0005
0014
0005
FFFE
0000
0007
0002
FFFA
FFFF
FFF0
FFF1
FFFF
FFF9
FFF5
FFEE
FFEC
FFF7
FFF3
0007
FFF9
FFEA
FFF4
FFFA
FFF0
FFF5
0006
FFEA
FFEE
0006
FFF9
000A
0006
FFFD
FFFD
FFFA
FFFF
FFF8
FFE0
FFEA
FFF0
FFF1
FFE2
FFED
FFEE
FFEE
000C
FFFE
FFEA
FFE9
FFE8
FFEB
FFEA
0000
FFF0
FFE4
FFE9
0000
FFFD
0000
0009
0006
0005
FFF2
FFF7
FFF1
FFE0
FFFD
FFFA
0007
FFFD
FFEF
0004
0008
0018
000F
FFF8
000A
0000
FFEC
FFEC
0007
FFFD
FFF7
FFEA
FFEF
0002
FFFD
0008
0005
FFF8
FFF9
FFEC
FFE6
FFF3
FFFA
0006
0002
0001
0017
0017
0021
002E
0013
0009
0013
FFFE
FFF4
FFEB
FFFA
FFFA
0008
FFFD
FFF3
FFFD
FFFF
FFFE
FFFD
FFF8
FFF9
FFF5
FFFD
FFFB
0011
000F
0013
0006
001B
000A
0022
001C
0017
0019
0017
0000
FFE6
FFEC
0007
000C
0005
FFFB
FFEE
FFF8
0000
0006
0003
FFFD
0009
FFF7
0009
000F
0006
0005
002B
002E
001F
0005
001E
0000
000E
0017
0017
0003
FFFB
0007
000B
0008
0008
FFFB
FFFC
FFF9
FFF5
FFFA
FFFA
0004
FFFF
FFFB
0002
0004
FFEB
FFFD
0015
0035
0035
0029
0028
000C
0010
0015
0018
0010
000D
0004
000B
0018
000E
000E
FFFF
FFF4
FFFE
0005
FFFB
0003
0008
0000
FFF0
FFDE
FFCF
FFF6
0011
001D
0033
003F
0028
001B
0013
0003
FFFE
FFF8
0004
FFFE
0007
000E
000C
0010
FFF5
FFEB
0000
0005
FFFC
FFFD
FFFE
0002
FFF0
FFCA
FFCB
FFD3
FFD4
FFDE
FFF6
FFF5
0006
0012
FFFD
FFF1
FFE0
FFE2
FFFE
FFE8
FFE4
0005
0002
0008
FFFD
FFEB
0001
FFFD
0007
FFFF
0002
0005
FFF0
FFCA
FFC2
FFB8
FFAB
FFA3
FFB6
FFD8
FFEA
FFE2
FFF6
FFE3
FFEF
FFE9
FFE8
FFDD
FFFF
0004
FFFB
FFF8
FFF2
FFFC
0007
0009
FFFF
0001
0008
0004
FFEA
FFD8
FFC6
FFC9
FFC7
FFB6
FFBE
FFCA
FFCF
FFD5
FFEE
FFE6
0004
FFE6
FFFA
FFF6
FFF7
000D
FFF5
0002
0000
0001
FFF6
FFFE
0004
FFFF
000A
000E
0004
FFD3
FFD7
FFDB
FFE4
FFEF
FFEA
FFE3
FFE7
FFED
0015
FFFD
0008
000A
0004
FFFB
FFF3
FFF6
FFF2
FFFA
FFF8
FFFC
FFF9
FFFD
0002
FFFD
0006
000B
0003
FFF5
FFEB
0004
001E
001A
0020
0013
0018
0008
0002
0009
FFFE
0007
0002
0002
FFFA
FFED
FFFE
0000
0000
FFFC
0001
FFFA
0006
0005
FFFE
0003
000E
0013
FFF9
0012
0022
0017
0028
0025
0007
FFF7
FFF6
FFFC
FFFD
FFFD
FFFB
FFFB
0009
FFE9
FFF6
0004
FFFA
0009
0003
FFFC
FFFF
FFFE
0006
000C
0011
0014
0015
001E
0017
0014
0019
001A
000C
0001
0005
0007
FFF3
FFF7
FFF6
0002
FFFD
FFEC
FFF6
0001
0002
0007
FFFD
0009
000A
0007
FFF9
0002
000B
0014
0014
002E
001B
001D
001C
0003
FFEE
FFF6
FFF6
FFF5
FFF3
FFFB
FFEB
FFEF
000C
000A
FFFC
0005
FFFF
0004
0001
FFFE
0008
FFFB
FFFF
0002
0007
000C
0011
0010
0013
0021
0015
000D
0013
0014
0004
FFF7
FFFB
FFF9
FFF4
FFFF
0007
0003
FFFE
0009
FFFF
0004
FFF9
FFF9
0007
FFFF
0002
0002
0007
0006
FFFE
0008
0007
0005
000B
FFFE
FFFE
FFFD
FFFB
0006
0004
FFFE
FFFD
FFF8
000B
000B
0003
0004
FFFF
0007
FFFE
FFFF
0003
FFFE
0006
FFF9
FFFA
0004
FFFD
0009
FFFD
0000
FFFB
FFFD
0003
FFFA
FFFC
FFFF
FFFA
0004
FFF8
FFFC
0001
0009
0009
0002
FFFF
0007
FFFA
FFFE
0001
000A
0004
0004
FFFD
0000
FFFE
FFFF
000E
000B
0003
0009
000B
FFFC
000C
000E
FFFD
FFFD
0009
000E
0004
0005
FFFE
000B
0000
0006
0007
000A
0009
0004
000F
0000
000C
0001
000D
0005
FFFF
0001
000C
FFFC
FFF9
000A
000C
0008
0005
0000
0009
0002
FFFE
FFFE
0001
000C
000C
0005
0002
000E
0003
0006
0000
0004
0008
0005
0002
0001
FFFF
FFFF
FFF9
0009
FFFF
FFF8
0006
0001
000A
0005
FFF1
FFF3
0002
0004
0008
FFFF
0005
FFFF
0009
0007
000B
0009
000E
0001
0009
0002
0005
000B
0001
0005
FFFE
0008
0003
0010
FFFE
0003
FFFB
FFE5
FFE3
FFE7
FFF2
FFE8
0002
0006
FFFE
0004
0000
FFFF
000B
0009
000E
000C
FFFF
000E
000D
000A
0007
0008
FFFF
0009
0010
001B
0011
FFF7
FFF4
FFEC
FFD2
FFE8
FFED
FFE6
FFEF
FFEC
FFF2
FFFA
0006
000C
0006
FFFE
0001
FFFE
0012
000D
0018
0011
0003
FFFC
FFFE
0007
001E
0009
0014
0009
FFF9
FFE5
FFEF
FFE6
FFE6
FFD9
FFF8
FFE8
FFF8
0005
0004
0001
0009
0001
0006
0012
0006
0000
0006
000A
FFF8
FFF7
FFFA
FFFB
0009
0008
000B
0003
000E
000A
FFF8
FFDD
FFDA
FFDE
FFDE
FFDC
FFF0
FFFD
FFF9
0007
0003
0002
0006
0003
0008
FFFB
0004
FFDF
FFF5
FFFB
FFEE
FFEF
FFEB
0000
001B
000A
001C
0016
0004
FFE9
FFE7
FFCD
FFCF
FFC7
FFE1
FFF1
0002
FFFD
0004
000D
0009
000A
0013
0000
FFF0
FFE6
FFE9
FFE9
FFF8
FFD7
FFE2
0006
001C
0017
001A
0012
001A
FFF9
FFCC
FFC5
FFBC
FFD0
FFDC
FFFA
0000
FFFE
000A
000C
0007
0008
FFFE
FFFF
FFD5
FFD6
FFD3
FFE0
FFE8
FFE3
FFF5
000E
001A
0033
0040
0044
002E
FFF2
FFBA
FFBE
FFC5
FFC9
FFE1
FFFC
FFFC
000C
0006
0003
0001
000A
0001
0001
FFE6
FFDE
FFD1
FFE2
FFF0
FFFC
000E
FFFD
0009
003F
0047
0059
0019
FFE1
FFA8
FFC4
FFC3
FFCF
FFEA
FFF0
FFFD
000C
000B
0009
000A
0005
0009
FFF9
FFEB
FFEB
FFF8
FFF5
001E
001D
0023
0018
000F
002F
0031
003C
001B
FFE0
FFC1
FFCE
FFD0
FFCE
FFE9
0002
000F
000B
0000
000D
FFFE
0007
0005
FFFB
FFDF
FFF8
0000
0009
0016
0011
0028
0004
0012
0022
003A
0047
0023
FFDC
FFCB
FFE2
FFE5
FFE6
FFFB
FFFB
0007
0003
000D
0003
FFFD
FFFD
000C
FFF5
FFD8
FFF5
FFF3
0005
000E
0005
FFFD
0006
000B
001F
0040
0041
001A
FFC0
FFCF
FFDA
FFE9
FFE9
000F
000B
0005
000D
FFFD
000A
FFFF
0009
0013
FFFC
FFE7
FFFD
0001
0008
FFE2
FFE6
FFF9
FFFA
0007
0010
002F
002E
FFE7
FFC6
FFCA
FFF1
FFEB
0007
FFFE
000E
000B
0000
000F
000D
0001
0010
0011
FFF5
FFE8
FFF5
000B
0005
FFE6
FFF4
FFF6
0002
FFFE
0032
003F
0007
FFC5
FFCA
FFD0
FFEF
FFEC
0003
FFFC
0009
0010
0008
FFFD
000A
0007
0000
0010
0000
FFED
0010
0017
0023
0009
0000
0009
0000
0021
002C
0014
FFDE
FFC1
FFCA
FFEA
FFFC
0002
000E
FFFF
0011
0008
000C
0008
0005
000E
0003
0003
FFFE
FFE4
FFF4
FFFF
0004
0011
000A
0014
0015
0017
0018
FFE5
FFCB
FFEC
FFE8
FFF2
0003
000D
FFF9
0007
0014
0010
000F
FFFE
FFFE
0001
000B
000B
FFF8
FFEF
FFE9
FFE8
FFFB
0004
0003
0004
0002
FFED
FFD0
FFD2
FFEB
FFED
FFFE
000B
0006
000C
000A
000A
001A
0009
000E
0002
000A
0008
0012
000A
FFF0
FFEE
FFFA
FFDF
FFFC
FFF8
FFF2
FFF9
0002
FFE7
FFDB
000D
0002
0010
0019
0013
0000
0002
FFFC
0012
0011
0007
0002
FFFD
000F
0006
0004
000B
FFE4
FFDB
FFF9
FFF9
FFFC
FFFC
0010
000B
FFEF
FFF5
FFF1
0019
0009
0021
000A
0013
000F
FFFF
FFF4
000D
000B
000E
0009
000E
000D
0003
0001
FFF7
FFFD
FFE7
FFEA
FFF6
FFFF
0001
FFF9
FFEB
FFE0
FFEA
FFF4
FFF1
FFFB
001B
000B
000D
0017
0009
0002
0005
0009
000D
000D
0003
0005
000B
000C
0001
000A
FFF9
FFF3
000B
0011
0000
FFF6
FFE9
FFE6
FFF3
FFD4
FFE9
FFEF
0010
000A
000F
001A
FFFB
0001
FFFA
0008
FFFF
0009
0004
000B
0009
000C
FFFD
FFF3
0001
0012
0007
0008
FFF5
0001
0009
FFFF
FFE3
FFE3
FFE8
0009
0010
0018
000D
001A
0005
FFF5
0000
000F
000F
FFFF
0005
FFFF
0007
0001
000B
0009
0009
FFFA
FFF6
FFE4
FFEC
FFF3
FFE5
FFE5
FFEE
FFEC
FFF1
FFFE
0005
000C
0012
0019
000A
FFFC
0006
0000
FFFD
0006
0000
000A
0004
0007
0002
000F
0006
0002
000A
FFF0
FFED
FFEC
FFE8
FFE0
FFEE
FFDF
FFE0
FFED
FFFD
FFF6
0008
0003
FFFE
0002
0002
FFFF
000B
0005
000A
000E
0002
0007
FFFF
000C
0011
0005
0002
0000
000D
0000
0001
FFFD
FFF8
FFF7
FFFA
FFFB
0001
FFFF
000C
000A
FFFD
0008
000B
0004
0001
FFFE
0003
FFFD
0008
000E
FFFD
0003
FFFF
FFFD
0005
0009
0008
000C
0009
0003
000D
0002
0000
0008
0008
0001
000B
000B
0009
0004
0000
0008
0009
FFFF
0004
0004
0000
0008
0005
0001
000F
0002
0002
0000
0005
FFFE
0008
0005
0004
FFFF
000D
FFFD
FFFE
0006
FFFF
0004
FFFD
0004
0007
0000
000A
0008
000A
000E
0000
0003
0009
000A
000E
0005
0001
0003
0001
0003
0003
0009
0006
0000
FFFA
0008
0005
0007
000C
000A
0004
000A
0001
0007
0004
000D
0008
000E
0009
0009
FFFF
0006
0009
0007
0009
0006
0004
0008
0001
FFFE
FFFF
FFF6
FFF6
FFFD
FFFA
FFFB
0004
FFFB
FFFD
FFFE
0008
000A
0005
0001
0003
000F
0007
000B
000D
000A
0003
FFFB
FFFB
FFFC
FFF8
FFFD
FFFA
FFF8
FFEB
FFEB
FFF1
FFFF
FFFE
FFF7
FFF6
FFFF
000C
0005
FFFC
0001
FFFD
0009
000C
000A
0002
000C
000A
0003
FFFE
0000
FFFF
FFF9
FFEE
FFDF
FFE4
FFE6
FFD9
FFDC
FFF0
FFEE
FFEA
FFE9
FFEF
FFF0
FFF8
FFFA
0000
FFFF
000B
0004
000F
0001
FFFF
FFFF
FFFD
0004
FFFE
FFF4
FFF1
FFE7
FFDA
FFDF
FFE0
FFDB
FFE6
FFE6
FFE9
FFED
FFED
FFEB
FFF2
0004
0000
0001
0002
FFFC
FFFB
0003
000A
0009
0006
0003
0001
FFFA
FFF8
FFEC
FFE7
FFE2
FFEA
FFE2
FFF1
FFF6
000C
0005
000E
001D
001F
0010
0018
0012
0009
0004
0002
FFF7
000C
FFFD
0006
000D
000A
0009
0008
FFE8
FFDC
FFDD
FFD4
FFE8
FFE2
FFEC
000F
001F
0018
0019
0025
0024
001F
001F
0027
0012
000D
0008
FFF9
FFFA
FFFE
000E
000E
0001
0000
FFFE
FFF6
FFF3
FFEB
FFE0
FFE6
FFF9
FFF0
FFFA
0006
0011
0016
001B
000A
000E
0017
0009
0006
0006
0006
0012
0000
000C
000E
0006
000D
0002
0006
0005
FFFC
0000
FFF1
FFDA
FFF2
FFE9
FFFC
FFFD
000C
001F
0023
0019
0000
FFFC
0009
FFF4
FFE5
FFE7
FFF0
0000
0007
0004
000C
000F
0007
0009
0006
0007
FFFB
FFF8
FFE6
FFD5
FFF0
FFF5
FFF5
FFFA
000B
001D
0030
0017
001A
FFF1
FFF3
FFFC
FFEB
FFF6
FFF3
000A
001E
000A
0003
0001
0003
FFFF
0003
0010
0004
FFF5
FFF0
FFE0
000A
FFFF
0010
0012
000A
0023
002C
002B
0014
0008
0003
FFF4
FFFB
0009
0006
001C
0016
0011
000F
FFFE
000B
0004
0010
0012
0011
0009
FFEE
FFF6
0012
0012
0003
0004
FFE7
FFF7
0026
0029
0024
FFFE
FFF2
FFEC
FFF8
FFF5
FFFA
0008
FFFE
000A
0008
0002
0002
000E
0003
0018
000E
0008
FFF8
0002
000A
000A
0006
FFE8
FFD5
FFFF
0028
0037
0010
FFF2
FFD7
FFDB
FFDF
FFF3
FFEB
FFE5
FFF7
0009
0009
0003
0004
000D
0005
0011
000E
0006
FFFE
FFF0
0002
0006
0005
FFED
FFDD
0005
0021
0031
001B
FFF1
FFE7
FFE4
FFE8
FFE1
FFE7
FFE7
FFEE
0009
0000
FFFE
000A
0001
000E
0000
0009
FFF4
0001
FFF0
0006
0000
0009
FFEF
FFEB
0008
0027
0032
001B
000D
FFF1
FFD8
FFE6
FFE5
FFF5
FFFB
FFF8
FFF9
0002
0004
000C
0000
0003
FFFC
FFFB
FFF9
FFF6
FFFD
000E
0013
000F
0002
0001
000E
0014
0014
0014
0002
FFD8
FFD1
FFE1
FFE9
FFF3
FFEA
FFFA
FFF1
0006
000F
FFFD
FFFD
000B
FFFC
FFF5
FFF9
FFE8
0004
0009
0011
0002
0003
0013
001C
000F
000F
FFF5
FFE9
FFCD
FFD8
FFE5
FFDF
FFF1
FFFC
0006
0005
0000
0005
000D
000D
0004
FFF6
FFF3
FFE6
FFDA
FFF7
0006
FFF7
0001
FFFF
FFF1
0015
000F
FFED
FFD5
FFDB
FFD0
FFD2
FFE6
FFE5
FFE0
FFF2
FFED
FFFE
0008
FFFE
0006
000B
0007
FFFF
FFF8
FFE9
FFE4
FFEA
FFE8
FFD7
FFDA
FFE5
FFF1
0008
0002
FFEE
FFDA
FFD2
FFC6
FFD6
FFE3
FFE2
FFEF
FFF6
FFF9
0002
0001
000A
000A
0000
000B
FFFB
FFEF
FFDF
FFF1
FFEB
FFE1
FFDF
FFE0
FFDD
FFF4
0009
FFEF
FFF8
FFE5
FFDD
FFBB
FFC3
FFD7
FFEC
FFFC
0001
000A
000A
FFFE
000D
0003
000C
0008
FFF7
FFEE
FFEB
FFEF
FFFF
FFF2
FFFF
FFFD
FFEE
FFF5
FFF8
FFFA
FFFB
FFD5
FFD1
FFC9
FFD5
FFE3
FFF4
FFED
0004
0001
FFFE
0003
000E
FFFF
000C
0007
FFF9
FFFC
FFFD
FFFB
0011
001B
000E
000A
FFFC
0006
FFFA
000B
FFEA
FFE5
FFE0
FFD8
FFCE
FFF7
FFFA
FFF9
FFFF
0006
000D
0007
000E
0008
000A
FFFC
0001
FFF3
FFFC
0005
0016
0010
0014
0006
FFFB
0002
FFF5
FFF9
FFFB
FFF0
FFE3
FFD6
FFD7
FFE7
0000
0008
000D
FFFF
FFFC
0001
000D
0002
000E
000C
000B
0008
0016
0010
0016
0022
0008
000C
0001
FFF4
FFE2
FFDA
FFF4
FFE3
FFEC
FFF0
FFEA
0004
000D
0001
0005
FFFE
FFFC
0002
000C
0000
0006
000C
0009
0011
000C
0006
0007
0009
0000
FFF3
0005
FFFF
FFF3
0010
0007
000D
000A
000D
000B
0016
000F
000F
000A
0008
FFFE
000B
0001
000B
0005
FFFD
0005
000C
0007
0003
0010
000F
001B
0018
0019
0016
0017
002A
0017
0022
0013
001B
0011
000B
0016
0001
FFFF
000A
FFFF
000B
FFFF
0009
000C
0005
FFFF
0006
0000
0007
0002
0003
FFFF
0005
0009
000F
FFFE
0009
0004
0006
FFFF
000D
0009
000E
0010
0010
000B
0007
FFFD
000D
FFFE
0004
FFFE
FFFD
FFFC
FFF4
FFFF
FFF4
FFFE
FFF8
0000
FFFC
FFF5
FFFB
FFFF
FFFD
FFF9
FFF6
0005
0004
0005
0001
0002
FFFD
FFF4
0005
0000
FFF5
FFF9
FFFA
FFF5
FFF5
FFF9
0000
0004
0004
FFF2
0003
FFFE
FFF6
0002
FFFE
0003
FFFC
0003
0004
0005
FFF4
FFFB
FFFC
FFF3
0000
FFFA
FFF8
FFFD
0003
0002
0005
FFF6
0005
0002
0005
FFF7
FFF4
0002
0001
FFF6
FFF1
FFFB
FFFB
FFFA
FFFE
FFF8
FFFE
FFFB
FFEE
0001
FFFD
FFF9
FFF2
FFF7
FFF4
FFFD
0001
FFF9
FFFF
0004
FFFD
FFF8
FFFE
0003
FFFD
FFF5
FFF4
FFEF
FFF3
FFF3
FFFC
FFF9
0013
000F
0017
0006
0006
0008
0006
FFEF
FFEE
FFF4
FFF4
0002
0003
FFFE
FFF6
FFFA
0002
FFF4
FFFA
FFFF
0003
0007
FFFF
0004
000D
0017
0001
0003
0008
0005
0002
0013
0015
0007
0004
FFFD
0006
FFF2
0001
FFFD
0001
0002
FFF5
FFF8
0002
FFF9
0006
0003
0018
0017
0013
0006
000E
FFFF
0000
FFF6
FFF1
FFFE
FFFA
FFFA
FFFD
0006
FFF8
FFFE
FFF6
FFFB
FFFE
FFFC
FFFE
FFFF
FFF7
FFF6
FFFB
FFFD
0004
0017
0010
0004
FFFF
FFFD
FFED
FFEB
FFFC
0003
FFFD
FFF9
FFED
0004
0009
0013
000C
0008
0002
FFFD
FFF8
FFF8
FFF8
0002
FFF9
FFF6
0002
FFFE
000B
001E
000E
FFFF
FFEF
FFF1
FFED
FFFB
FFFB
FFF2
FFEF
FFED
FFF9
FFF7
000C
0010
000F
FFF8
0004
0007
000B
FFFE
0003
0004
FFF6
FFF4
FFF2
FFFF
0019
0019
0000
0004
FFF7
FFF8
FFFA
FFF8
FFFF
FFEA
FFF1
0006
0007
0001
FFFF
FFFF
000C
0014
0007
0000
FFF5
FFFC
FFFC
FFF5
FFFA
0001
FFF3
000B
000D
FFFA
FFEE
FFFE
FFE8
FFF6
FFE8
FFE6
FFEC
FFF4
FFFF
0008
001E
0009
000C
0006
000F
0017
0016
FFF5
FFFC
FFF4
FFFB
0006
FFF7
FFFE
FFF5
FFFF
FFF6
FFE4
FFE2
FFE7
FFDA
FFD4
FFD7
FFDC
FFE4
FFF6
0008
000C
0016
000C
0004
0005
0009
000A
000D
0002
0002
FFF5
FFF9
0003
FFF8
FFF7
FFFD
0004
FFE8
FFE4
FFE2
FFD8
FFE3
FFDE
FFF1
FFFA
000C
0002
0004
000A
FFFE
0009
FFFD
0005
FFFD
FFF3
FFF7
FFFD
FFED
0000
FFFB
FFF7
FFFE
0000
FFF9
FFF6
FFE7
FFDC
FFFA
FFEB
FFF2
0019
002F
0023
0037
0023
000F
FFF8
0007
FFEF
FFFC
0005
FFED
FFEF
0006
FFF8
FFFA
0000
FFFF
FFFC
0002
0002
FFF9
FFF0
FFEC
FFF8
0009
0000
0007
001F
0025
001A
0023
FFF9
FFF6
FFFC
FFF9
FFFF
0016
FFF5
FFE8
FFF8
FFFA
FFF7
FFFB
FFFC
FFF8
FFFC
0002
FFFA
0005
FFF5
0007
0015
0022
0029
001F
0023
0010
0000
0004
FFF5
0007
FFF4
FFF2
0007
0004
0009
0004
FFFD
0000
FFF7
0003
0001
FFFD
0004
FFFD
0005
FFFE
0007
0014
0023
0019
001E
0027
000F
FFFF
FFF8
FFF3
FFEE
0005
FFFE
FFF0
000D
0003
0009
0010
0014
000F
0010
0003
FFF6
0001
0000
FFFC
0001
0004
FFFF
0012
001F
000F
001E
0022
0011
FFFF
FFFD
FFFF
FFFA
FFFF
FFF8
0001
0008
0007
0011
0014
0022
0019
0012
FFFC
FFFC
FFFC
FFFA
FFF4
0000
FFFD
0006
0013
0015
0008
0013
000C
FFFE
FFF1
FFF1
FFFB
FFFA
FFF2
FFFF
0014
0018
0001
000F
000D
0019
0015
0004
FFE7
FFED
0003
FFF7
FFF6
0005
0000
0004
0015
0010
000F
FFFF
0009
0001
FFFE
0002
FFE7
FFF3
FFF4
FFFF
0013
FFFF
FFFE
0001
000C
0014
FFFF
FFFD
FFF2
FFFA
FFF3
FFFF
FFF9
FFF5
FFFE
000D
0011
000E
0007
FFFB
FFFB
FFFE
FFEB
FFF8
FFF7
FFFA
0009
FFFC
0003
0007
0007
FFF3
FFFA
0005
FFFB
FFEB
FFF2
FFF1
FFFE
FFFA
FFF6
0003
FFF9
0004
0004
FFFE
0003
FFF6
0010
000D
FFFA
FFF6
0004
FFFE
0000
FFF2
0008
FFFB
FFF7
0000
FFFF
FFFC
FFE9
FFE8
FFEC
FFFF
FFFE
0002
FFFD
FFF3
FFFA
0000
0003
FFEE
FFF6
FFF2
FFF4
FFEA
FFF5
0005
000E
FFFB
0007
0015
0008
0004
FFF4
0010
FFEC
FFEE
FFF8
FFEE
FFF8
FFF8
0003
FFFD
0003
0004
FFF7
000C
FFF7
FFF1
FFF1
FFFA
FFFB
FFF7
FFF5
0010
0009
0009
0009
0007
0002
FFFC
FFFA
0017
FFF5
FFED
FFF4
FFFD
FFF8
FFFF
FFF4
0001
FFF8
FFFB
0004
0003
0006
0003
FFFB
0002
0005
0005
0016
0011
0003
0007
000E
FFFC
FFFA
FFF4
0004
FFF5
FFEC
FFEF
FFF4
FFFF
0001
0006
FFFD
FFFD
FFF5
0001
0007
0000
000A
0011
0019
001D
0005
0004
0004
0004
FFFC
0009
000C
FFF3
FFFB
FFEF
FFF1
FFF3
FFEC
FFFB
FFF9
FFFB
FFFC
FFF5
FFF8
FFF8
FFFC
FFFC
0003
FFF6
0000
0000
0007
0005
0008
0006
0010
0008
FFF1
0000
FFF2
FFE6
FFE4
FFE8
FFF8
FFF9
FFF1
FFFC
FFFA
FFF8
FFF3
FFFE
FFF6
FFFA
0004
FFFF
0002
FFF7
FFFF
FFF6
FFFC
FFF9
FFF9
FFF6
FFF3
FFF4
FFFC
FFFD
FFEB
FFFB
FFFB
FFFE
FFF2
FFF5
FFF4
FFF6
FFFD
FFF4
0002
0001
0002
FFFC
FFFC
0001
FFFA
FFFE
FFFB
FFF5
FFFF
FFF8
FFFC
0001
FFF5
0004
FFF4
FFFA
0001
0000
FFFE
FFFC
FFF8
0004
0004
FFFC
0003
0000
FFF7
FFF4
0002
0001
FFFB
0007
0005
0004
FFFB
0000
0007
FFFA
0006
FFFE
0004
0000
FFFD
0004
FFF9
0003
0003
FFF7
0003
0005
0002
0007
FFFE
FFFA
FFFE
0000
0007
0003
FFFA
0001
FFFE
0001
0006
0003
0008
0005
0000
0006
0007
FFFF
FFF8
FFF7
0002
0007
0006
0003
FFFC
FFF8
0006
0005
FFF8
FFFD
FFFD
FFFC
0002
0002
0004
FFF7
0008
FFFC
0008
0002
0008
0000
FFF9
0005
FFF9
0004
0003
FFF6
FFFB
FFFB
000B
000A
0004
FFF6
FFF6
FFF9
FFF5
FFF8
0009
FFFD
0001
0002
FFF9
0008
FFFE
FFFF
FFFB
0008
FFFC
0006
0002
000C
000A
0005
FFF9
FFF7
FFF4
FFEC
FFEF
FFEA
FFF6
0000
0000
FFF4
0001
FFF5
0000
0007
0003
FFF8
0007
FFFB
0005
0003
FFF7
0004
0001
FFFE
0005
FFF4
FFFC
FFF0
FFF4
FFFD
FFF8
FFF2
FFF2
FFE2
FFF1
0005
0010
FFF7
FFFF
FFF2
FFF8
0003
FFFB
0004
FFFB
FFF9
FFFD
0001
0006
0009
000A
0002
FFFD
0001
FFFA
FFFE
0004
0005
0004
0004
FFFC
FFEB
FFF2
FFEC
FFEC
0004
000C
0006
FFF8
FFFB
0000
0002
FFF8
FFFD
FFF7
0009
000E
000D
0012
0015
0005
000C
0000
FFF8
FFF8
0003
0006
FFF5
FFF4
0008
000F
000B
0008
0010
0000
FFF7
FFFE
FFFB
0006
0004
FFF8
FFFE
0009
0002
000B
0010
0007
0002
0001
000F
0003
FFE7
FFF7
FFFA
FFF6
FFEB
FFFE
000E
001D
0026
0023
0023
0016
FFF1
FFE0
FFFE
0001
FFF7
0000
0004
FFFE
0004
0015
0012
0007
001B
0007
000E
0012
0007
0003
0004
0019
0007
FFF6
000E
0016
0019
0012
0011
0017
FFF6
FFEF
FFFD
0000
FFFD
0000
0004
0009
0002
0019
0019
001B
001B
0014
0010
0012
0018
002E
0033
0030
0025
0005
0004
000C
0004
FFFE
0001
0004
FFEF
FFF3
FFF7
0001
FFFA
FFFA
FFFF
FFFE
0002
0018
0023
0025
0025
001E
0035
0040
003D
0037
0043
0035
002E
0014
000A
FFFB
0012
000B
FFF3
FFFD
FFE5
FFF3
0008
000B
FFF9
FFFE
FFFA
000A
0010
0017
001A
000E
001C
0029
0034
003D
003D
0020
0012
0020
000A
FFFB
FFF4
0003
0003
FFF5
FFF4
FFEA
FFEE
FFF1
0002
FFFC
0004
0000
0004
FFFD
0009
0001
0001
FFF7
000A
0009
0009
FFF0
FFD9
FFC4
FFBE
FFF5
FFF7
FFEB
FFF7
0005
FFE2
FFDD
FFDD
FFD4
FFDD
FFE6
0002
0009
FFF9
FFFF
FFFD
0009
FFF2
FFE2
FFE2
FFD8
FFD3
FFC4
FFC0
FFB3
FFA3
FF96
FFB6
FFEA
FFEE
FFE7
FFFE
FFE8
FFD8
FFDA
FFE2
FFE2
FFE1
FFF5
0008
0001
FFFC
0001
0001
0008
FFF8
FFD6
FFC0
FFB1
FFB2
FFA4
FF9D
FFB2
FFAD
FFB1
FFE4
FFFA
FFF1
0005
FFFA
FFF4
FFF4
FFF1
FFF8
FFF3
FFEA
FFF6
FFFE
0008
FFFB
0005
FFF7
FFFF
0000
FFD8
FFB8
FFBE
FF9D
FFBD
FFC0
FFD1
FFD7
FFF5
0008
001F
0002
FFF4
FFFA
0002
FFFA
FFFE
0003
FFF0
FFF7
FFFA
000C
0010
0000
0005
0002
FFFD
FFF7
FFD2
FFCA
FFD7
FFD1
FFE9
FFF7
FFF6
FFF3
0012
001D
0017
0005
0005
FFFB
FFFB
0010
FFEF
000D
0005
FFF4
0003
000A
000B
FFFD
0002
FFF7
FFF9
0003
FFE6
FFD5
FFEB
FFFF
0010
0009
000C
0007
0015
0019
0017
000C
FFF5
0001
0002
FFF9
FFF4
FFFF
0009
FFF3
0007
001E
0002
FFF8
0009
FFFB
FFF8
0005
0005
0004
000A
0015
0029
000A
000C
0016
000D
0023
0010
FFFB
000B
0010
0008
FFF7
FFF7
FFFC
FFFF
0012
0018
0010
000C
FFFD
0001
0008
FFFC
0006
0015
0006
0004
0016
0023
0014
000F
000A
0008
001B
0014
0018
0021
0000
000A
000B
FFF3
FFF1
FFFB
000A
0012
0012
000A
0007
FFFC
FFFD
0002
000D
0016
0012
0011
001C
0030
0021
000E
000D
0007
000D
000E
000E
0007
0005
0007
FFF2
FFF1
FFF1
0002
0018
001C
0003
FFF9
0008
FFFB
0004
FFFA
0015
0012
001D
0019
0016
000F
001B
0010
FFFB
FFFF
000B
0009
0010
0007
000E
001B
FFFC
FFF7
FFFF
FFFE
0009
0010
000D
FFFF
0005
FFF9
FFF8
0000
0008
0011
0028
002B
0022
001C
001B
0009
FFFB
FFF7
FFFC
FFFD
000B
000B
0009
000E
0000
FFFC
FFF9
FFFA
0009
FFFF
0002
FFF8
0003
0004
FFF7
0006
FFFD
FFF9
0002
001D
001B
000C
0007
0009
0006
000C
FFF4
FFEF
000C
0009
0007
0003
FFF9
FFFA
FFF8
FFF8
FFF6
000C
000B
0004
FFFF
0002
FFFB
0001
FFFF
0007
000E
0002
000A
FFF9
FFFA
FFED
FFF4
FFF1
FFED
FFF7
FFF4
FFE9
0001
000D
0002
0000
FFFF
FFF1
0001
FFFE
FFFA
FFFD
0002
0000
0004
FFFC
FFF8
0006
000A
0004
0002
0006
000B
FFE6
FFFA
0012
0003
0007
0006
000C
0011
0007
0002
FFF3
FFF9
FFFF
FFF7
0001
FFFD
FFFF
FFFA
FFFC
FFF8
FFF9
0009
FFF7
FFF9
0003
000A
000B
0005
0004
0001
0005
000D
0004
FFFD
0000
0000
000F
0008
FFFB
0008
0009
0005
0000
0002
FFFE
0006
0008
FFF9
FFF8
0001
FFF8
FFFF
FFF8
0002
0002
FFFA
0004
FFFF
FFF8
FFFC
0004
0008
0006
0006
FFFB
0009
0001
FFFC
FFFA
FFFE
0008
FFFD
0008
0002
0004
0004
FFFF
0004
0004
000A
FFFD
FFFE
0004
0002
0007
FFFC
FFFB
0004
000C
FFFC
FFFD
FFFC
0003
0006
000B
000A
0003
000C
0001
0006
0004
0005
0005
0005
0003
0006
0007
0008
FFFE
000A
FFFD
000A
0005
0003
0002
FFFF
0004
FFFD
FFFD
000B
0005
0007
000A
0002
0002
FFFC
FFFC
0005
0000
0004
FFFD
0008
0008
0001
0001
FFFF
FFFF
FFFC
0007
000A
FFF9
FFFD
0005
0001
0000
FFEF
FFF5
0001
0006
FFFD
FFFB
0004
0005
0002
0007
FFFB
0007
000B
0007
000C
000B
0004
0003
000B
000A
FFFD
0006
FFF1
FFFA
FFF7
FFFB
FFF7
FFF8
FFF0
FFF1
0004
FFFA
FFFE
0015
FFFD
FFFC
FFF8
0000
0000
0003
0003
0002
000C
000B
FFFC
0007
FFFE
FFFA
0000
FFF3
FFE2
FFE1
FFEB
FFF9
0003
FFFB
0008
FFF9
000E
0003
0008
0008
0010
0017
0015
000C
0005
000A
0006
0004
0008
0000
0008
FFFD
0002
0001
FFF6
FFE8
FFF2
FFEB
FFFB
FFFA
000F
0010
0003
FFF7
000E
FFFE
FFED
FFFD
0005
0008
000D
0006
FFFE
0007
FFFD
0005
0002
FFFC
000A
FFF9
FFFB
FFFC
FFF5
FFED
FFE2
0002
001C
0004
000F
000F
0003
0000
0008
000B
000B
0010
0016
0010
000C
000F
000C
FFFC
0009
FFFE
FFFF
0007
000C
FFF9
FFF1
FFE2
FFED
FFD6
FFF6
000C
0025
001C
000D
0016
001B
0014
001D
0012
000C
001D
000A
0018
0020
000F
0000
0009
FFFD
0004
000C
FFFD
FFFE
FFF1
FFE9
FFDB
FFEA
FFF0
FFF8
000B
0009
0002
0012
0027
0022
0019
0002
0011
0004
0013
0012
0018
0019
0023
0004
0000
FFFC
0005
0001
FFFD
0005
FFFD
FFE7
FFDE
FFE5
FFF6
0004
FFF6
0009
0011
001D
002B
0011
FFF4
000E
000B
0011
0004
FFF4
FFFC
001B
0018
0006
000A
000E
0002
0006
FFFE
0001
0002
FFEC
FFE8
FFEC
FFEB
0001
FFF6
FFF6
000C
0011
0011
0006
000D
FFFC
000B
0001
0007
0003
0006
0016
0015
0008
0000
0007
0000
000D
000D
0005
0003
FFF5
FFF0
FFF1
0002
FFF7
FFFD
0005
0018
0022
0020
000E
0000
0026
0009
FFF8
0002
FFF8
000C
000D
0008
0005
0004
000B
0007
0007
0000
000A
0004
0001
FFEA
FFEE
FFFB
FFE7
FFF9
001C
001F
0012
001B
002B
0009
000B
0007
FFF3
FFF4
FFEE
0002
FFFB
FFF6
FFFF
0008
0006
0003
0001
0009
0010
000A
000A
FFEE
FFF8
FFFC
FFF6
000C
0013
0016
0009
0013
0021
001E
000E
FFF8
FFF4
FFF6
FFEF
FFFD
FFF0
FFE9
FFFD
FFFB
FFFE
0003
0000
0006
000C
0002
0003
FFE9
FFF8
0007
000A
001C
0011
0018
0011
0005
0009
0004
000D
0000
FFF6
FFFC
FFFC
FFE7
FFE2
FFEF
FFF3
FFFB
0002
000A
0002
0008
0005
FFF4
FFF2
FFDF
FFFD
FFEB
FFE5
000F
0017
000F
FFFA
FFEF
0006
0011
0024
000D
FFEE
FFF9
FFE7
FFF3
FFF0
FFE1
FFE4
FFF7
0007
0002
000C
0003
FFEE
FFF6
FFFD
FFDE
FFDE
FFF7
FFE7
FFF4
0001
FFFA
FFFE
FFF8
000A
0016
001D
000A
FFED
FFFC
FFD4
FFD2
FFD4
FFE5
FFEB
FFF6
FFF9
0009
0000
0006
FFF9
FFF4
FFEB
FFE2
FFE5
FFE2
FFEB
FFF5
FFF3
FFF5
FFF6
FFF8
0018
0029
0036
000D
FFF1
FFEB
FFCC
FFD4
FFDB
FFE9
FFF2
FFFB
FFFB
FFFB
0002
0000
FFF5
FFEB
FFEF
FFF6
FFF7
FFEC
FFF5
FFF7
0016
0002
0002
0015
001D
0032
0024
000A
FFFA
FFDC
FFC8
FFCE
FFCA
FFE9
FFFF
0004
000A
0002
0003
FFFE
0006
FFF1
0004
FFFD
FFF3
0002
FFF3
FFEA
FFE9
FFFA
0006
001B
001A
0021
0024
0006
FFD5
FFCD
FFC5
FFCD
FFD2
FFF9
FFF7
FFFC
FFFE
FFFB
0004
FFFF
FFF0
FFEF
FFFC
0001
FFED
FFFF
0002
FFF5
FFEE
FFFB
FFFB
0014
001D
001C
001D
FFE1
FFCE
FFC2
FFD0
FFE2
FFDB
FFF3
FFFF
FFFA
000B
FFFE
000C
0001
FFEE
FFEA
FFFB
0007
0000
000C
FFFC
FFF9
FFF9
0005
0000
FFFC
000E
0005
FFF6
FFC4
FFC5
FFD5
FFD7
FFE7
FFF4
FFF8
0007
FFFC
000C
000A
0005
0003
FFFF
FFFB
FFEB
0005
0009
0010
0005
000D
0004
000C
0003
000C
0002
FFF7
FFE3
FFC5
FFC8
FFDA
FFE7
FFEF
0000
FFF9
0006
FFFC
0006
FFFB
FFFC
0006
0006
FFF8
0004
FFF9
0003
0009
FFFF
FFFF
FFFC
FFF4
FFF9
0008
FFEF
FFDB
FFD7
FFCE
FFD2
FFDF
FFEC
FFFE
FFFB
FFF7
FFF7
000C
FFFF
FFFD
FFFB
0001
0001
000D
0014
0012
0008
0010
0013
0018
0008
FFFE
000A
FFF0
FFF3
FFFF
FFEB
FFE6
FFEE
FFF8
FFFB
FFFB
000E
0009
FFFC
FFFC
FFFE
0005
FFFF
FFFC
000A
0000
0009
0003
0010
000B
0015
0018
0018
0015
0015
0017
0003
000A
0013
0009
0012
0010
0005
0010
0010
0001
FFFD
0006
000A
000B
000B
0009
0005
0007
0003
0002
0011
0009
0008
0019
000A
001E
001A
001A
0010
0012
0012
0011
0014
0006
000B
FFFE
0009
FFFD
000A
0001
0004
0004
000A
FFFD
FFFD
0003
FFFE
FFFF
0004
000D
FFFE
0002
0004
000D
0005
000C
0004
FFFD
0008
0005
FFFC
0000
000A
000C
0000
0000
000C
0009
FFFF
FFFD
FFF9
FFFF
0000
FFF5
FFF9
FFF9
FFF6
FFF9
FFFF
FFF2
FFF2
0000
FFF5
FFF3
FFF7
FFFB
FFF2
FFF6
FFF1
FFF0
FFFF
FFF0
FFF8
FFFC
FFF3
FFF0
FFFC
FFF7
FFF9
FFFD
FFF2
FFF4
FFF4
FFF0
FFFA
FFF2
FFF9
FFF1
FFF4
FFFC
FFFA
FFF9
FFF7
FFF9
FFF9
FFF1
FFF3
FFF7
FFF7
FFFB
FFFE
FFF0
FFFE
FFF6
FFFB
FFEF
0001
FFF8
FFFD
FFF4
0000
FFF8
FFF2
0000
0001
FFF9
FFFB
0002
FFF4
FFF5
0004
0006
FFF7
0005
FFF3
FFF7
FFF2
FFF4
FFEF
FFF3
FFFF
FFF9
FFF0
FFFD
FFF0
FFF9
FFF6
FFF6
0002
0000
FFFF
0005
000A
FFFF
0016
0018
000D
0007
0015
000B
0007
0002
0007
FFFE
FFF5
FFF5
FFFA
FFFF
FFFB
FFFB
FFFC
FFFC
FFF8
FFF9
FFF7
FFFC
0002
0007
000D
000E
0019
001A
001E
001A
000D
000E
0015
0025
000A
000E
0003
FFF3
FFEA
FFE3
FFEF
FFEE
0000
FFF2
FFFA
FFF9
FFFF
FFF4
FFFE
FFF8
FFFB
0000
0012
000A
0002
FFFA
0002
0007
FFFF
0000
0005
0015
0004
FFFC
000C
FFF7
FFFC
FFEB
FFEE
FFF5
FFF8
FFF7
FFF5
FFFE
FFF9
FFFD
0002
0003
FFF2
0001
FFFC
FFEE
0004
0004
0005
FFF9
FFFE
FFF8
0011
0018
000D
FFFC
0003
0009
FFFF
FFF9
FFF6
FFF8
FFFF
FFFE
0000
FFFD
FFF9
FFFE
0000
0002
0007
0001
0000
FFF1
FFF8
FFFB
FFFA
FFFF
FFFC
0003
0013
0007
FFF7
FFF8
FFFE
FFFA
0004
0003
FFEA
0000
FFF1
FFED
FFEF
FFF3
FFF4
FFED
FFF1
0014
0009
FFFD
0001
FFF5
FFF9
FFEA
FFEE
FFF8
0007
FFF5
FFF2
FFFE
0003
FFFB
0006
FFFE
0013
0004
FFEC
FFE6
FFF5
FFFB
FFF5
FFEF
FFEE
FFFE
0004
0011
0001
0000
0006
0002
FFFD
FFF2
FFED
FFF4
0005
0014
FFFD
0003
FFF7
FFF7
000A
0010
000B
0019
FFF3
FFF7
FFFB
FFFE
FFF1
FFFB
FFFE
FFF6
0002
FFFB
FFF6
0001
0000
FFFE
FFEF
FFF5
FFE6
FFEA
0015
0030
0008
0000
0003
0008
0001
0007
FFFF
0006
000A
FFFD
FFFE
FFF3
FFFE
FFFA
FFF0
FFF5
FFFA
0009
0003
FFFB
FFFF
FFF5
FFF8
FFE4
FFE1
FFFB
0028
0035
0005
FFEE
FFFE
0004
000C
0009
0006
0003
0010
0019
FFFF
FFFC
FFF1
FFFB
FFF5
FFFD
FFF9
FFF7
FFFA
FFEB
FFEB
FFE7
FFF5
FFEB
FFF0
0005
0025
0031
FFFB
FFF8
FFFA
FFEF
FFF7
FFFC
0005
0005
0004
0005
FFFB
FFFF
FFF1
FFFE
FFF6
FFF1
0005
FFF0
FFE9
FFDB
FFE2
FFF6
FFE9
FFE6
FFF9
0017
002B
001D
0000
FFFA
FFFF
FFF4
FFF4
FFF7
FFE2
FFF1
0006
000E
FFF6
0000
FFFD
FFEF
FFF0
FFF1
FFF6
FFE8
FFE3
FFEE
FFED
FFEB
FFEA
FFF2
000F
0010
0023
0018
FFFF
0003
FFF5
FFEF
FFFA
FFF8
0001
FFF1
FFEE
FFFC
0007
FFFB
0000
FFFB
0001
FFF1
FFEF
0003
FFF1
FFF8
0000
FFEC
FFF4
FFF0
0007
0020
0038
001E
0001
FFFB
FFFA
FFFF
0006
0006
0006
FFFB
0002
0002
0005
FFFC
FFF5
FFFC
FFFA
0001
FFFA
0000
FFFF
0007
FFF9
FFF0
FFFA
000F
0016
002C
002F
0025
FFF9
FFF3
FFEF
000B
0008
FFE6
FFFA
0002
0005
0003
0002
FFF8
FFFF
FFEF
FFFF
0003
000B
000A
FFF2
0008
FFFB
000D
000E
0006
001C
0029
0016
0002
FFF6
0004
0009
FFF9
0002
FFEF
FFED
FFFC
0004
0003
FFF7
0000
FFF8
FFF5
FFFF
FFFE
0007
FFFF
0003
000C
0002
0006
0011
000F
0007
000C
FFFD
FFEE
FFFE
FFFF
000E
000A
000A
FFFC
FFF8
0009
0008
FFFF
FFFF
FFEF
FFF3
FFF3
FFEE
FFEF
0000
FFFE
000A
000E
000F
0007
001D
0028
0011
0008
0007
FFF7
000B
0010
0013
001D
0006
FFFC
0008
0019
0011
FFF7
FFF0
FFF4
FFFD
FFF4
FFF1
0000
FFFD
FFFE
000F
0012
0013
0019
0019
001B
FFFB
FFF6
0012
0015
0010
0007
FFFC
FFFF
FFF3
0010
0001
000F
0009
FFF7
FFFD
FFF8
FFEF
FFF3
FFFF
0001
0003
000A
FFF8
0018
001A
FFFF
FFFD
FFEB
FFF7
FFF2
FFF4
FFFE
0002
FFF9
FFFA
FFFC
0000
FFEC
FFF0
0000
FFFA
FFF9
FFF5
FFF3
FFFA
FFF9
FFF7
FFF1
0004
FFFE
0000
000E
0000
FFFB
FFFB
FFF7
0008
0004
FFFB
0000
0005
FFF4
FFF6
FFEE
FFF2
0001
FFFF
FFFE
FFFF
FFFD
FFFD
FFF8
FFF9
FFF4
FFF0
FFF6
FFFF
000B
0000
FFFC
0004
FFF9
FFFA
0008
0009
0001
FFFB
FFF1
0005
000B
FFFC
0006
000D
0009
0008
0001
0007
FFFE
FFF0
FFFF
FFFF
FFF9
FFFD
FFFB
FFF3
FFF8
FFF8
FFFB
0005
FFFB
0000
000E
000A
0000
FFF5
0009
000F
0020
0001
0003
000A
000B
0009
FFF8
0003
FFF3
FFFB
FFF5
FFF0
FFFA
FFF3
FFEF
FFF5
FFF4
FFFB
0006
FFFC
0002
0005
000F
0009
FFFB
FFF8
FFF5
0000
000A
000E
0002
0004
0006
FFED
FFFC
0004
FFFC
FFFA
FFFF
FFF4
FFFE
FFFC
FFF1
FFF0
FFFD
FFFB
FFF9
FFFE
FFF7
FFFA
FFFE
0007
FFF0
FFF3
0009
0000
0004
0004
0003
FFF5
FFF4
FFF5
FFFC
FFF0
FFFC
FFFE
FFF9
FFF3
FFF0
FFF3
FFF2
FFF5
FFF2
FFF7
FFF2
FFFB
FFF8
FFF3
FFFB
FFF2
FFFC
FFFD
FFF6
FFF6
FFFB
FFF0
FFFD
FFFB
FFFB
FFF0
FFFC
FFFD
FFFD
FFF3
FFFB
FFF7
FFF9
FFFF
0006
0002
FFFC
FFF5
0005
FFFA
0006
FFF6
FFFF
FFFD
FFF9
0001
FFFC
FFFB
FFF9
0001
0002
0002
0000
0005
FFF8
0002
0004
FFF8
FFF8
FFFA
FFF8
FFFC
FFFE
0005
0002
FFFC
FFFC
0001
0001
0007
0004
FFFE
0004
FFF7
FFFA
0000
0000
0001
0005
0004
0001
0006
FFFB
0002
FFF7
FFFC
FFF5
0004
0005
0006
FFFD
FFF6
FFF9
0006
0004
FFFE
0000
0001
0004
0009
000A
0008
FFFE
FFFF
0008
0006
000E
0013
0012
0006
0002
0003
0004
0003
FFFA
0002
FFF8
0004
FFFF
FFFE
FFF6
FFFC
0004
0001
FFFB
000A
000E
000D
0002
FFFA
0001
FFF9
FFF4
0009
0025
0016
0012
001B
000B
000B
FFFD
FFFC
0004
0004
0006
FFFD
0002
FFFF
FFF7
FFF4
FFF1
FFF3
FFF6
FFFD
0006
0003
FFFE
FFEF
FFFB
0008
000B
0010
000A
0006
000F
0017
001E
001D
0013
0007
0003
FFFA
FFF4
FFF8
FFFC
FFF9
FFF5
FFDF
FFD8
FFE9
FFF8
0011
0011
000F
0002
FFEF
0006
FFEA
0006
0006
0010
0008
000C
0021
001C
0021
0012
0007
FFF9
0003
0001
FFFC
FFF8
FFF5
FFF8
FFDD
FFD2
FFE8
0005
0007
0001
0002
0003
FFEC
FFF4
0002
FFEC
FFF9
FFF4
0001
0000
FFF8
000F
0026
0027
000A
0008
0002
FFFE
FFFB
FFFD
FFF7
FFF2
FFE6
FFE9
FFF0
001E
0015
0016
000E
FFE7
FFE2
FFF9
FFF5
FFFE
FFF7
FFEA
FFE0
FFEB
0000
FFF7
0003
001B
0011
FFFB
FFFE
FFFE
FFF9
FFF4
FFFB
FFE0
FFDA
FFEC
FFF1
001B
0021
0014
FFFE
FFEB
FFE5
FFE4
FFD7
FFF8
FFF8
FFE9
FFF3
FFE7
FFEE
FFED
FFF2
000A
000D
0005
FFF6
FFFD
FFFD
FFF4
FFF5
FFEF
FFE4
FFEF
0002
001C
000D
0002
FFF1
FFE1
FFD9
FFC3
FFCD
FFE0
FFE9
FFDF
FFE4
FFCF
FFDB
FFD7
FFF4
0015
0012
0007
FFF5
FFF5
FFF9
0003
FFEE
FFE6
FFEA
0005
000B
001B
0014
000B
FFEA
FFEA
FFD0
FFBD
FFD7
FFE5
FFD7
FFD8
FFD8
FFDB
FFD6
FFD9
000B
0013
000B
FFF9
FFF4
FFFF
0001
FFF8
FFED
FFF0
FFEF
000A
0014
001B
002B
0002
000B
0001
FFE4
FFDD
FFE7
FFEB
FFD9
FFE4
FFE6
FFD7
FFD9
FFE1
0007
0006
0005
0002
FFF9
0004
FFFB
FFF4
FFF3
FFED
FFF6
0003
0019
001C
001D
000F
0013
0005
FFF9
FFD9
FFEA
FFF0
FFED
FFDC
FFDD
FFDF
FFE2
FFE8
FFFC
0002
FFFF
FFFC
FFFE
0005
FFFE
FFF5
FFFE
FFF2
FFF7
0002
0017
0010
0019
0023
0026
0012
000B
0002
FFFD
FFF9
FFF4
FFFF
0012
000D
0007
0003
0010
0000
FFEE
FFF1
FFFF
0002
FFF8
0006
FFFD
FFFB
FFFE
0016
0005
0001
000B
001E
001C
0000
0013
0011
0012
FFFF
FFF5
0002
FFF8
000E
0006
0008
0005
FFFB
FFF0
FFF6
0005
FFFE
0003
0000
0000
FFED
0000
000A
0007
0011
0010
000D
0010
0011
001F
0017
FFFF
0007
FFEB
FFF2
FFFA
000C
0006
FFFC
FFFD
0000
FFFF
FFF8
FFFE
FFF6
0001
0000
FFFB
FFEC
FFF9
FFFE
FFF4
FFF3
FFE8
FFED
0015
0021
0010
0015
0011
001B
FFF8
FFEC
FFF4
0002
FFFE
0002
0007
FFFC
0001
FFFD
FFF8
0002
0000
0002
FFF8
FFE8
FFE9
0002
FFF1
0001
FFE9
FFF0
0016
0017
001B
0014
0008
0011
FFF4
FFF9
FFFB
000A
0000
FFF3
FFF9
0007
0002
0001
FFFD
FFFE
FFF9
FFFE
FFF9
FFF7
FFEC
0008
0003
FFFF
FFFC
0001
FFF9
0028
002A
0015
0006
000D
000E
0000
FFE7
FFF4
FFFB
FFF6
0006
0010
FFFE
0000
FFFA
FFFE
FFFC
0007
FFF5
FFFA
FFEF
FFF3
FFF8
000E
0006
0009
001D
0024
001E
0018
000A
FFFF
0002
FFF5
FFF8
0007
0006
000A
0009
0003
FFFB
FFF8
FFF7
0001
0003
FFFD
FFF2
FFF1
FFF3
FFDE
FFF6
000F
0015
0018
001E
0025
0026
000D
000C
FFF8
FFF6
0005
FFF9
FFFC
000C
0012
0007
FFFF
0005
0004
FFFE
FFFF
0001
FFF4
FFF3
FFFB
FFE9
FFE5
FFEF
0009
002A
0017
0017
0020
002C
0029
000E
0011
0023
000E
FFF4
0008
001B
0019
0006
0004
0003
FFFD
FFF8
0003
FFFD
FFFC
0003
0001
FFF1
FFE4
FFE2
FFF4
FFFB
000E
FFFD
000C
000B
FFFF
0005
0005
0005
FFFE
FFFC
0006
0006
0001
0005
FFFD
0005
0005
0005
FFFD
0004
FFFE
FFF9
FFFE
FFFC
FFEE
FFE6
FFE9
FFF1
FFDC
FFD1
FFDB
FFEB
FFF1
FFF0
000C
FFFC
0004
FFFA
0008
FFFC
FFFA
FFFB
FFFE
FFFE
0003
FFFE
FFFB
FFF8
FFF7
FFFE
FFFA
FFF9
FFE7
FFE1
FFE2
FFE1
FFD5
FFF0
FFEB
0000
0003
0001
0008
0009
0016
0008
0001
FFFC
0009
FFF9
FFFA
FFF5
0002
FFF6
FFFF
FFF6
FFF7
FFFE
FFF5
FFF7
FFF9
FFF9
FFE8
FFF3
FFF4
0001
0008
0002
0006
000E
000D
000B
000F
0005
FFFE
FFFB
FFFC
FFF6
0005
0002
FFF9
0004
FFFD
FFFC
FFF5
FFFF
0002
0003
FFF5
FFFF
FFFF
FFF3
0000
FFFE
0008
FFFA
0000
0002
FFFF
FFF2
FFFB
FFF9
FFFD
0002
FFF8
0000
0006
FFFA
FFF9
0006
FFF6
FFFD
FFF4
FFFD
FFF7
0005
0005
FFFA
FFF5
FFFC
FFFE
0001
0003
FFF7
FFF6
0004
FFF8
FFF7
FFFA
FFFA
0004
FFFE
0004
FFF8
FFF5
0004
FFF5
0004
FFFD
FFFA
FFFF
000B
0008
0000
0002
0005
0008
FFFA
0004
0003
0005
FFFB
FFFB
FFFD
0000
FFFF
0009
0003
0008
0007
FFFA
0005
FFFD
0005
000B
0008
0006
FFFA
FFF9
FFFD
FFFC
FFFE
0002
0002
0002
0002
0001
0003
0003
0009
0002
FFFE
0004
0004
0009
0001
0003
0004
000A
FFFC
0000
000B
0009
0009
0006
000B
0005
0001
0008
0002
0009
0007
0000
FFFE
0001
FFFE
FFFC
FFF4
FFFD
FFF6
0004
FFF3
FFFB
0005
FFFC
0002
FFF8
0003
FFFD
000B
0001
0003
FFFE
FFFA
FFFA
0002
FFFC
FFF9
FFF6
0004
FFF4
FFFC
FFF8
FFFB
FFFA
FFF8
FFF1
FFEE
FFF7
FFFA
FFF8
FFEC
0002
0004
FFFB
FFFE
0003
0006
0002
FFFF
FFFF
FFFA
FFFF
FFFE
0000
0001
FFF3
FFED
FFEF
FFF3
FFF4
FFEE
FFFC
FFED
FFE2
FFD8
FFDD
FFE4
FFE1
FFEF
FFEB
FFE9
FFFC
FFFA
0003
FFFF
FFFF
000B
000A
0005
FFFD
000B
0002
0009
FFF5
FFFC
FFEA
FFF5
FFDF
FFE0
FFDC
FFD1
FFF2
FFEE
FFF4
FFF6
FFE1
FFD4
FFE0
FFEC
0005
FFFA
0001
0002
0008
0009
FFF9
FFFF
0000
FFFB
FFFB
000C
FFF4
FFF5
FFF2
FFFC
FFE3
FFE0
FFE2
FFE9
FFF2
FFEB
FFEC
FFE1
FFCF
FFD6
FFD4
FFE8
000A
FFF1
0003
FFF9
0008
0007
0006
0006
FFFC
0006
FFFC
FFFF
0001
FFF5
FFF0
FFF1
FFE5
FFEA
FFE2
FFDD
FFE8
FFDE
FFE5
FFF9
FFE8
FFF0
0000
0004
000B
FFFC
FFF8
0004
FFFF
0005
0007
FFFA
0002
FFFC
FFF9
0001
FFFD
FFEE
FFE0
FFEA
0004
000E
FFDB
FFEB
FFEB
FFFA
FFFC
0017
000E
000E
0023
000B
0010
001A
0015
0015
FFFD
0004
0006
0005
FFFE
0001
FFF8
FFF3
FFE4
FFE6
FFEC
FFFA
000D
000B
0012
0020
001E
0028
001B
001B
002D
000D
0018
0011
0018
0008
0008
000B
FFFE
FFFD
0009
FFFC
0007
000B
FFF7
FFEE
FFE7
FFFC
0006
0008
0009
0015
0020
002D
002E
0038
0021
0024
0012
0026
0011
0013
0013
FFF4
0010
0009
000C
0002
FFFA
0005
0007
FFFF
FFEF
FFE5
FFF4
FFF3
0002
0005
0002
0015
0028
0014
FFFD
0014
0006
FFEB
FFF9
000A
0009
FFF8
FFFD
FFEA
FFF8
0002
0006
FFF9
0000
FFFE
000B
FFF8
FFF7
FFE2
FFF1
000F
0021
0015
0007
0029
0027
0025
0008
FFF6
FFF5
FFF2
FFFA
FFF2
FFF9
FFE8
FFEE
FFDE
FFEA
0003
0008
0002
000A
FFFD
0009
0004
FFFC
FFF3
0001
0010
0021
000B
001C
002A
0023
0016
0013
FFFF
0019
0020
0005
FFF2
FFEE
FFEA
FFEB
FFE4
0005
0016
0001
0006
0002
0000
000A
FFFF
0001
0017
001F
0026
0016
001C
0021
0020
0017
0002
0002
0014
0019
0016
000F
FFFB
FFEC
FFF7
0006
001A
001D
0017
FFFF
000A
0002
0002
0008
000B
0012
0021
0028
001F
0017
001F
0022
0003
0008
0005
000A
0025
0013
0018
001B
0003
FFF7
000C
000B
0012
001A
0009
0003
0004
0008
FFFB
FFFE
0007
001A
001D
0022
002E
000F
0002
FFFE
000C
000D
000A
000F
0030
001F
0023
0018
0008
000D
0021
0017
000A
0009
0009
0001
FFFA
000A
0006
0003
000A
0019
0025
0026
002F
001A
0000
0005
0001
FFF7
FFFD
0015
0029
0016
0009
0029
0009
0009
0016
000E
0009
0002
0006
0008
0001
FFFF
0002
FFFD
FFF8
001B
002E
001F
001C
0014
0006
0002
000E
FFF5
0007
001A
001E
0016
FFF6
FFF5
FFFB
FFFE
FFF3
FFEE
0005
0019
0003
FFFB
FFFD
0006
0004
FFF8
000C
0016
000B
0004
0015
0006
FFFF
0008
0004
FFF3
0000
0010
000E
0004
FFE6
FFF6
FFDC
FFF1
FFE4
FFE0
0003
0013
000A
0003
000A
0006
FFFB
0003
FFFD
0000
0002
FFFE
FFFE
FFF7
FFFC
FFF9
FFFA
FFFC
FFDD
FFE1
FFE2
FFE2
FFE4
FFF2
FFDD
FFDC
FFEA
FFE2
FFF2
000D
0008
0001
0007
000B
0006
0005
FFFF
000D
0000
FFF0
FFE1
FFE7
FFE5
FFE1
FFE1
FFD9
FFD3
FFC9
FFCC
FFE4
FFD0
FFD8
FFDE
FFE6
FFE9
FFF1
FFF8
0010
0008
FFFC
0003
FFFD
FFFB
0005
0007
FFFC
0000
FFF7
FFFB
FFF1
FFEA
FFE0
FFD6
FFE7
FFD7
FFDC
FFEC
FFE2
FFDB
FFE6
FFF1
FFE5
FFF4
FFF3
FFF5
000C
000B
0002
FFFB
FFFA
0001
0002
FFFE
0002
FFEE
FFFC
FFF6
FFED
0000
FFEA
FFF2
FFF3
FFE5
FFF5
FFED
FFE4
FFE4
FFE2
FFE6
FFE2
FFF7
FFF6
FFF9
000D
FFFE
FFFF
0006
0006
FFFE
0001
0005
0005
FFF6
FFED
FFF1
FFE1
0001
FFF0
FFEE
FFF3
FFF6
FFFA
FFDE
FFDB
FFF2
FFF6
FFF9
FFE9
0003
FFFA
FFFB
FFFA
0003
FFFB
0000
000A
FFFD
0000
0003
0006
0001
FFEC
FFE9
FFED
FFF2
FFE7
FFE5
FFE9
FFE5
FFE0
FFEB
FFE1
FFF1
FFEC
FFEB
FFEC
FFF4
FFFC
FFFC
FFFE
FFFB
000B
0002
0008
FFFB
0000
FFFC
000A
0007
FFF7
FFF5
FFFD
FFF3
FFF8
FFF2
FFF1
FFEA
FFE0
FFF3
FFE8
FFE8
FFE8
FFED
FFF7
FFFB
0001
000A
FFFE
FFFB
000A
0007
FFFE
FFFD
0008
0006
FFFD
0007
FFFF
FFFA
0006
0001
0000
FFFB
0000
000B
FFFF
0003
0004
FFFA
0004
FFFE
0004
FFFB
0005
0008
0004
0004
000A
000B
FFFE
FFFE
0006
FFFF
FFF9
FFFA
0007
FFF7
0007
0004
FFF9
FFFB
FFFC
FFFC
FFFF
0004
0003
0007
FFF7
FFF6
FFF7
FFF9
FFF9
FFF9
0005
FFFC
0005
FFF8
FFF8
0007
FFF7
FFF9
0004
FFF6
FFFA
0005
FFFA
FFFC
0002
FFFC
0009
FFFA
FFFF
0000
0003
FFFA
0001
FFFB
FFF7
FFFC
FFFF
FFFC
0002
FFFD
0003
FFFC
0001
0002
0001
FFFD
0000
FFFE
FFFF
FFFF
0001
0003
FFFE
0002
0005
000A
0008
0000
0002
FFFE
FFFE
000A
FFFD
FFFF
0003
0001
FFFE
0002
0008
0000
FFFA
0000
FFF7
0004
0000
0002
FFFA
0007
000D
000A
0005
0016
0017
000F
0014
0016
0012
FFFC
0001
0002
FFFB
FFF8
0006
FFFD
000C
0001
0006
0001
FFFC
0002
FFF7
FFF8
0006
0008
000B
FFFA
0000
000B
0014
0015
FFFD
FFFC
FFF6
FFF8
FFFA
FFFF
0006
FFFA
FFFA
FFEB
FFED
FFF8
FFEE
FFF7
0001
FFFD
0004
0000
FFF6
0004
FFFC
FFF8
0003
0006
0010
000F
0013
0003
0004
FFF4
FFF8
FFFD
FFF1
FFE9
0007
FFEA
FFE4
FFE8
FFEF
FFF6
FFF9
0003
FFFB
FFF7
FFFE
0005
FFFD
0007
0007
000A
0008
0010
0009
0003
0010
000C
0014
0005
0007
0005
FFF4
FFF0
FFF4
FFE3
FFE0
FFF7
FFFC
FFE9
FFFD
FFFD
FFFA
FFF7
FFFF
0006
0004
0008
0001
FFFF
000B
000B
FFF0
000F
001A
0023
0019
0005
000D
FFF4
000E
0015
FFFC
FFF3
FFEF
FFEE
FFF8
FFE9
FFEC
FFF9
FFFD
FFF9
FFFF
0004
0002
FFFB
0007
000D
FFED
FFF4
FFF0
000D
0014
000F
0012
0004
001C
000E
0013
0018
FFF2
FFF9
FFE9
FFEF
FFE9
FFEB
FFDC
FFF7
0003
0007
0008
FFFF
0004
0009
0006
FFF9
FFE4
FFE6
FFEB
FFF0
FFF9
FFF4
0004
000B
0016
0015
0018
0004
FFFB
FFEC
FFEB
FFF2
FFEC
FFF0
FFE9
FFF3
FFFC
0005
0002
FFF9
FFFE
FFF8
FFFC
FFF7
FFD7
FFE0
FFD4
FFE8
FFE5
FFED
FFE5
0011
FFF1
0009
0002
000B
FFF7
FFEB
000B
FFF8
FFF6
FFEB
FFF0
FFEE
0004
FFFC
0007
0002
0009
FFFE
FFEA
FFDE
FFCD
FFC3
FFD1
FFE2
FFE9
FFF3
FFF8
FFFB
FFE2
FFE7
FFE5
FFEC
FFFA
0000
FFFF
FFF9
FFF6
FFE7
FFE4
FFE4
FFF7
FFFC
0005
0000
0006
FFF9
FFDD
FFC3
FFCC
FFC9
FFF6
FFF8
FFF9
000C
000A
0008
FFEE
FFD1
FFF1
FFEF
FFEF
FFED
FFF9
FFEC
FFF6
FFF0
0002
FFF3
0001
FFFD
0008
FFFB
FFF8
FFF8
FFDB
FFCB
FFE7
FFE5
FFFC
0005
0012
0006
0001
0000
FFEA
FFD4
FFE4
FFED
FFE8
FFD8
FFD8
FFF9
0008
0018
000F
0009
0009
FFFC
0005
0007
FFF8
FFFB
FFE2
FFF6
000A
001E
001B
0021
000F
0008
000B
FFF2
FFF1
FFE6
FFEE
FFE8
FFEC
FFE0
FFE8
FFFF
000B
0024
0023
0007
0002
0008
FFFA
0006
0007
FFFD
FFF2
000E
001D
0025
0030
0022
0017
000A
000E
FFEE
FFE7
FFE2
FFE7
FFFC
FFE6
FFE9
000C
0015
000C
001F
0018
000B
0007
FFFE
FFFE
0000
0004
0000
0000
000B
0010
0024
0024
0019
0011
0003
FFF7
FFE8
FFEE
FFFB
FFF8
0001
0003
000F
0013
0025
0016
0011
0016
0006
0000
0004
FFF7
FFF9
FFFF
FFFF
FFFB
0002
FFF6
0007
001B
0012
0018
FFF3
FFEE
0002
FFF9
FFF3
FFFA
0004
0016
000D
FFFE
002A
001D
0012
0015
0019
FFFB
FFFE
FFFD
0000
FFFA
0006
0007
FFF9
FFE9
FFF1
000A
000B
FFFB
FFDF
FFFC
000D
0002
000E
0008
000C
0017
000A
0005
0017
0026
0014
0009
0006
0000
FFFF
0004
FFFC
FFFE
FFFF
0002
FFEF
FFDE
FFFA
FFF5
FFF9
FFF7
0005
000F
0016
0021
0017
0013
000F
0005
0008
0010
0014
0012
0001
FFFE
FFFE
FFFB
0000
FFFF
0005
0006
000C
0006
FFEF
FFE2
FFEA
FFFF
0003
0001
0003
0028
0024
0021
0009
FFFC
0000
FFFC
0010
0001
000D
FFFB
FFED
0003
0001
0003
FFFF
0004
FFFB
0005
0000
0006
FFF5
FFDD
FFDC
FFE7
FFF4
0001
000A
0013
0010
0016
0010
000E
0005
FFFA
FFFB
FFF5
FFFB
FFF4
FFF6
FFFF
0005
0008
0006
FFFE
0001
0006
0008
FFF9
0004
FFFB
FFEA
FFF3
FFFC
0010
FFFF
0015
0014
0006
0011
FFFA
FFE8
FFEB
FFFE
FFE9
FFFB
FFEE
FFF2
FFF1
FFF5
0005
0000
0003
FFFD
0006
0004
0009
0004
0008
000E
0000
0004
000F
0015
0003
0008
FFFB
0009
FFF9
FFFF
FFE5
FFF4
FFE1
FFEF
FFF1
FFF5
FFF0
FFFC
0003
FFFD
FFFB
FFF8
0003
FFF7
0006
000B
000C
000B
0005
0006
FFFA
FFF3
FFE8
FFFE
000E
0004
FFFF
0003
FFEC
FFE0
FFE4
FFF7
FFF3
FFF4
0000
0007
FFFD
0003
FFFB
0004
0001
0007
0008
0001
0002
000D
0003
FFF9
FFF7
FFF6
FFF7
FFEE
FFF1
FFF5
FFF5
FFF8
FFEC
FFEC
FFF6
FFF6
FFF7
0004
0001
0001
FFFA
0006
0001
FFFF
0000
FFFF
FFFA
FFF6
FFFB
FFF7
0007
000B
0008
FFFA
0000
FFF1
FFF7
0007
0009
0006
FFFC
FFF8
FFFE
0006
0000
0001
FFF8
FFFC
0001
FFFB
0004
0005
FFF8
FFFA
FFFE
FFFF
FFFE
FFFA
0003
0007
0005
0001
0002
0000
FFFE
0005
FFFE
0006
FFFD
FFFB
FFF8
0008
0002
0000
0004
0001
0002
FFF7
FFFA
FFF6
FFF8
FFFA
FFF6
FFFD
0002
FFF5
FFFB
0000
FFF2
FFF9
FFF4
0002
0000
0001
FFF4
FFFF
FFFB
FFFD
FFF2
0002
FFF9
FFF6
FFFF
FFF9
FFFE
FFF4
FFF3
FFFE
FFFB
0002
FFF9
0002
FFFA
FFF8
FFFF
FFF3
FFFF
FFF4
FFFA
FFFD
FFF8
FFF3
FFFB
FFFC
FFFF
FFF4
FFF8
FFF6
0001
FFFF
FFFD
FFF8
0003
FFF2
FFFE
FFF4
FFF4
0003
0001
FFFA
0001
FFF0
FFF5
FFF8
FFEE
FFF7
FFF1
FFF5
FFF9
FFF4
FFF4
FFF1
FFF2
FFF2
FFF0
FFF2
FFF1
FFFC
FFFE
FFFC
FFF2
0004
FFF5
FFF5
FFFD
FFF4
FFFD
FFFF
FFF8
FFF7
FFF1
FFEA
FFFC
FFEF
FFE6
FFF8
FFEF
FFF8
0000
FFF4
FFFD
0002
FFFF
FFF9
FFF8
FFF3
FFF7
FFFC
FFF4
FFF7
FFFF
FFF2
FFFE
FFF6
FFFF
FFF4
FFFE
FFFF
FFEE
FFF3
FFF6
0005
FFFD
000B
0002
000A
0009
0017
0011
001E
0007
0012
0008
0009
0008
0005
FFFA
0002
0004
FFF3
0000
0004
FFF3
FFFE
FFFA
0002
FFF2
0001
000A
0003
FFFC
FFF1
FFF2
0009
0019
0016
0015
0025
001C
001F
0031
0015
000C
FFFC
FFF3
0000
FFFD
FFFE
0003
0000
0000
0009
000C
0003
0008
0010
FFFC
FFF1
FFF7
FFF8
0008
FFF4
FFE8
FFED
000E
0010
001D
001B
001F
0022
0011
0005
FFFD
FFF3
FFFB
0001
FFF1
FFEE
FFF8
000D
0017
0009
0001
FFF2
FFE8
FFF3
FFF8
0001
0014
FFEC
FFF6
FFFE
0004
0015
0006
000E
000B
001B
0002
000D
FFFC
0004
FFFA
FFFF
FFF5
FFFF
FFF4
FFFF
FFFD
FFF6
FFE6
FFE7
FFF0
FFED
0006
0003
FFFF
0003
FFFB
0004
0008
FFFB
001C
0012
000D
000B
0015
0008
0000
FFFE
FFFE
FFF4
0002
FFED
FFEF
0003
FFEE
FFF8
FFF0
FFFF
FFF5
FFF5
000C
000A
FFEC
FFF4
000E
0002
0001
FFE9
FFFE
FFFC
000A
FFFA
0015
000A
FFFB
FFF9
FFF7
FFF2
FFFA
FFF9
FFEB
FFE8
FFDF
FFF5
FFF8
FFEE
FFF6
FFFC
0012
FFF4
FFD8
FFF5
FFEF
0010
FFF2
FFEF
FFE8
FFED
FFE4
FFEE
0010
0008
FFFB
FFF6
FFF9
FFF8
FFF1
FFF7
FFF0
FFE3
FFEE
FFE2
FFE4
FFEC
FFF5
FFFC
0006
FFD2
FFC4
0002
0001
0006
FFFF
FFEC
FFDA
FFCD
FFDF
FFDF
FFF3
FFFF
0001
FFFA
0000
FFFB
FFFE
FFE6
FFE4
FFDF
FFF9
FFF4
FFF0
FFF7
0010
0007
0027
0001
FFE1
FFED
FFEB
FFF2
FFFF
FFF2
FFEA
FFDC
FFD4
FFD1
FFEB
FFF2
FFF4
FFF6
FFF3
FFF8
FFFF
FFF1
FFF1
FFF0
0006
000A
0009
0006
FFFB
000F
0022
0004
FFFB
FFF8
FFFD
0015
FFF3
FFE8
FFEA
FFE8
FFE8
FFDC
FFEB
FFF7
FFF7
FFFA
FFF4
FFF4
0002
FFFD
FFF9
0009
FFF5
0015
FFFD
0005
FFED
FFEC
0003
FFEE
000B
000E
0009
0003
FFE5
FFE7
FFEE
FFF2
FFF2
FFE9
FFFD
FFF0
FFF9
FFF7
FFF9
FFF4
FFFB
FFFF
000F
FFFC
FFFA
000A
000A
FFF7
FFEE
FFF3
FFF7
FFF8
0005
000E
000E
FFE8
FFFA
FFEB
FFEF
FFFC
FFFC
0003
FFF9
FFFD
FFFB
FFFD
0004
FFF5
FFF9
0000
FFFF
FFF5
FFFE
FFFD
FFFB
FFF6
FFF3
FFEE
0001
0005
0000
0010
FFFD
FFF8
FFF8
000A
001D
001A
000A
0018
0002
0003
FFFF
0000
FFFE
FFF9
FFF8
0006
0009
0006
0007
000C
FFFD
FFFA
0001
FFF3
FFE9
FFEF
FFF5
FFFC
0007
000A
0011
000C
000E
0013
0004
0011
FFFB
FFF1
0002
0003
FFFF
FFF6
0001
FFFD
001E
0021
0011
000E
000C
000A
0003
0005
FFF4
FFF4
FFF4
0011
0010
0002
0007
000B
0020
0012
0004
0004
000B
0001
FFFC
FFF7
FFFF
FFFA
FFFC
000C
001A
0016
000F
0019
0006
0012
FFEE
FFEB
FFE5
FFF0
0009
001A
0018
0008
0010
FFF6
0022
001F
0008
0004
000A
0007
0001
FFF2
FFF9
0000
FFF5
FFFF
000E
0014
001B
0018
001C
0012
FFFF
FFFC
FFFC
FFF5
FFFB
0003
000E
0022
0022
0020
0023
0028
0015
001A
FFFE
FFFA
0000
FFFE
0000
FFF4
FFFA
FFFD
0013
000A
000C
0006
0007
0011
FFF3
0003
FFFE
FFFE
0001
0006
0004
000D
0019
0018
0032
002F
0020
0010
FFFE
0003
FFF9
FFFD
FFFF
FFFB
0000
0006
0002
000A
FFFD
FFFD
0003
0003
FFFE
0011
FFFC
FFFF
0000
FFFE
FFFB
0007
0023
002D
002B
001E
0016
0007
0003
0006
FFFC
0002
FFF8
0000
FFF6
0005
FFFB
000C
0008
FFFD
FFFD
0015
0025
0024
0010
000A
0016
000D
FFF6
000E
001A
0007
0012
0007
FFFF
FFFE
0000
FFF5
0001
FFF5
0003
FFFE
0002
FFFE
FFF6
FFED
FFEF
FFF0
FFFF
0014
0008
000B
0008
0018
000F
FFFA
FFF6
0008
0000
FFFF
FFF9
FFFF
FFF7
FFF2
0001
FFF6
FFFE
0002
0000
0000
FFF4
0000
FFF6
FFF9
FFF6
FFF3
FFF5
FFF0
FFF3
FFED
FFF0
0011
FFF1
FFE7
FFE3
FFED
FFF7
FFEB
FFF2
FFF5
0003
0004
FFFA
0001
FFFA
0002
FFF5
FFFC
FFFF
0002
FFFE
FFF0
FFFA
FFF0
FFE5
FFE1
FFE3
FFE2
FFEA
FFE0
FFD5
FFED
FFEC
FFED
FFE6
FFE8
FFEC
FFEA
FFF5
0003
0004
0002
FFF2
FFFA
FFFD
FFF3
FFF7
FFFE
FFF3
0001
FFFE
FFFB
0001
FFF9
FFF7
FFFC
FFF1
FFFE
FFF5
FFF0
0001
FFF8
FFEE
FFFA
FFF8
FFF9
0000
FFFD
FFF4
FFF7
FFFC
FFF8
FFFA
FFF5
FFF7
FFF9
FFF4
FFF9
0002
FFFC
FFF9
FFF6
FFFA
FFFB
0000
FFFD
FFF3
FFFF
FFFE
FFF9
FFF3
FFFB
0000
FFFD
FFF2
FFF2
0001
0000
FFFE
FFF7
FFF2
FFFA
FFF4
0003
FFFC
0000
FFFD
0001
FFFB
FFFB
0001
0002
FFF5
FFFA
FFF9
FFF3
FFF7
FFFD
0000
FFF7
FFFA
FFF8
FFF9
0003
FFF9
FFF5
FFF9
FFF7
FFFE
FFFF
FFF2
0002
FFFD
FFFD
FFF5
FFF2
FFFB
FFF3
FFFA
FFFE
FFFD
FFF2
FFEA
FFF9
FFFA
FFF9
FFFA
FFFE
FFFD
FFF8
FFF1
FFF3
FFFC
0000
FFF3
FFF5
FFFB
FFFE
0000
FFFB
FFF6
FFF4
FFF6
FFFC
0002
FFF9
FFFD
FFFA
0001
FFEF
FFFF
FFF7
0005
FFFA
FFF9
FFE8
FFF0
FFF3
FFED
FFF7
FFF9
FFF2
0001
FFF4
FFF5
0000
FFFA
FFF4
0000
FFFA
FFFB
FFEE
FFF7
FFFD
FFF9
0002
FFFC
FFDB
FFE5
FFF3
FFE4
FFEE
FFFF
FFF0
FFE9
FFDD
FFF7
FFF3
FFF2
0001
FFF6
0000
FFF3
FFFE
FFF6
FFFD
0002
0003
0009
0009
FFFB
0008
0014
000F
FFFE
FFF2
FFEB
FFDF
FFDF
FFDF
FFE1
FFF0
FFD9
FFD7
FFE4
FFE5
FFF2
0003
FFF5
FFF5
FFFD
FFF8
0000
0002
FFF7
000A
000E
000F
000B
000E
001A
0018
000D
0018
0022
000D
000C
000B
0009
FFF9
FFFC
FFFA
FFF1
FFE7
FFFF
FFF6
0002
FFFF
0002
FFFD
FFF9
0002
FFF8
0005
000C
000A
0011
0021
001E
000B
001F
0029
0015
0017
000A
001F
0012
0006
000B
FFF4
FFF1
FFE9
FFED
FFF1
FFF4
0001
FFFC
FFF9
FFFB
FFF7
FFFB
0008
0013
0011
001B
000D
0013
000A
0025
0015
001D
0020
0020
0008
001C
000E
000C
FFF3
000F
FFFC
FFFB
FFFC
FFFC
FFFE
FFF1
FFFC
FFF9
FFFB
FFFD
0005
0015
001A
0010
000F
001D
0020
001A
001D
0029
002A
001F
0025
0007
000B
0000
0000
0007
0006
000B
FFFC
FFFF
FFFC
0000
FFF7
FFFA
0005
0006
0003
0017
0019
0006
000E
0004
0006
FFFF
0001
0010
0018
0030
0012
FFFC
0003
0007
0011
0011
000C
FFFB
0003
FFFD
FFF4
FFF8
FFF4
0002
0003
0017
0010
0012
0002
000D
FFFB
0007
FFF9
FFEB
0005
FFF6
000A
0005
0025
0005
0001
0019
0009
0013
FFFA
FFFA
0006
0003
FFFF
0001
FFF4
FFF9
FFFF
001A
000B
000A
0006
FFFE
FFEC
FFFA
FFF5
FFE7
FFE6
FFFE
FFF9
0002
000E
0017
0006
000F
FFF7
0009
FFFA
FFE9
0001
FFFD
FFFB
FFF3
FFF3
FFFF
0007
0015
0002
0001
0008
FFEE
FFE1
FFEC
FFEE
FFF7
0001
FFE9
FFE6
FFF2
FFFC
0003
FFF9
000A
0003
FFF7
FFE2
FFEB
FFFA
FFFB
FFFB
FFF1
FFF7
FFF8
000B
000F
FFF3
FFFB
FFFA
0001
FFF5
FFE6
FFEA
0002
FFF8
FFF9
FFF0
FFF8
FFF8
0001
0004
0014
0006
FFFC
FFFC
FFF4
FFED
FFF6
FFFE
FFF2
FFF9
0002
FFFC
0001
FFF5
FFF6
0002
FFFA
FFF0
0009
0006
FFFF
0003
FFF4
FFF1
FFF0
FFFB
000E
0020
002F
0017
0014
0007
0003
FFF5
FFF0
FFF1
0000
FFFA
0003
0000
0005
0003
FFEE
FFF3
0006
FFED
FFFD
0000
000D
0008
FFF4
FFD8
FFD8
FFFC
0014
0011
0012
000E
001E
0014
FFFD
FFE4
FFFD
FFF6
FFF3
FFFE
0000
FFFC
0004
FFF0
FFEF
FFF8
FFEB
FFEC
FFF0
FFFA
0004
FFF5
FFE5
FFDE
FFE3
0001
FFEC
0017
0000
FFFF
0009
0014
FFF9
FFE8
FFF4
FFF6
FFF8
FFF4
FFF5
0008
0000
FFF3
FFEF
FFE1
FFEC
FFF3
FFFA
0008
FFF6
FFDE
FFD5
FFD7
FFE7
FFF7
FFFB
0020
001B
0011
0015
FFF4
FFE6
FFEF
FFFE
FFF1
FFFF
FFFC
FFFF
FFFA
0000
0007
FFE8
FFEA
FFDB
FFEB
FFE8
FFEB
FFEE
FFE2
FFDB
FFD3
FFE8
FFF3
0003
0015
0017
0012
0008
FFFB
FFF4
FFF8
FFF1
FFF2
0002
FFFE
FFF9
FFFA
0005
000A
FFF5
FFE0
FFEA
FFDA
FFCF
FFCF
FFD4
FFE6
FFDE
FFDB
0002
0000
0003
001C
0004
FFFF
FFF8
0001
FFFD
FFF9
FFF5
FFF6
FFF5
FFF3
0000
FFF1
FFF6
FFF6
FFF7
FFF1
FFEF
FFD7
FFD8
FFDB
FFE3
FFEC
FFE4
FFFE
0008
0005
0002
0007
FFF8
FFF7
FFEE
FFE4
FFF6
FFF4
FFF7
FFFD
FFF8
FFF6
FFF4
0003
FFFD
0009
0000
0000
FFE8
FFE2
FFEA
FFE1
FFE8
FFE8
0006
0006
0013
0015
FFF7
FFF3
FFF0
FFF0
FFFE
FFFE
FFF4
FFFC
FFF9
FFF2
FFF5
FFF5
0002
FFF7
0003
0008
0018
0006
FFFB
FFE7
FFF3
000A
0003
0006
000B
000C
FFF7
FFFD
FFF5
FFE0
FFE2
FFE9
FFFE
FFF6
FFFF
FFF5
FFFD
FFF1
FFF3
FFF2
FFFC
FFFB
000F
0012
0028
0021
0016
000C
0024
001A
0017
0020
0002
000F
0013
000E
FFFE
FFF0
0000
0001
FFFD
0005
FFF8
FFF0
FFF6
0001
0000
FFF1
FFF4
FFFA
0006
0000
000E
001D
0023
001D
0022
0035
002D
0028
0018
000D
001F
0011
001B
0018
0014
0011
FFF7
0002
0004
0001
0003
FFF2
FFF4
0000
FFF2
FFF5
FFF7
FFFA
0002
000B
FFFE
0005
000B
0014
000D
0010
0017
0015
001C
0011
0013
0010
000A
000A
0005
FFF5
FFF6
FFF4
FFFB
0003
0002
0001
FFFC
FFF6
FFF8
FFF9
FFFF
FFFA
FFFA
FFFD
FFF5
FFF4
FFFE
0002
0003
0000
FFF6
FFFD
FFFF
FFFD
FFFB
FFF6
FFF4
FFFA
FFF3
FFFD
0000
FFFD
FFF7
FFF8
FFFD
0006
FFFE
0008
FFFA
0001
0002
FFF9
0005
FFF9
FFF9
FFFB
0001
FFFA
FFF9
FFFC
0007
FFFA
FFF7
FFF7
0006
0006
FFF9
FFFF
FFFB
0009
0001
0000
0006
0005
0003
FFFC
0004
FFFE
FFFE
FFFC
FFFD
0003
FFFE
0004
FFFD
FFFA
FFF4
0006
0000
FFF9
0000
FFF8
FFF7
FFFE
FFFA
FFF8
FFFA
FFFA
FFFD
FFFB
0009
0001
FFFC
FFFE
FFFD
0002
FFFA
0003
FFFF
0005
0002
0001
0002
0005
0003
FFFD
000A
FFF7
0000
0009
FFFC
0004
FFFB
0007
FFFF
FFFE
0000
FFFA
FFFD
FFFC
FFF9
FFFF
FFFF
FFF8
FFFC
0004
FFFB
0005
FFF0
FFF7
FFE6
FFED
FFEE
FFF7
0001
FFFB
0006
FFFB
FFFB
0009
FFFA
FFFE
0001
0006
FFFB
FFF9
FFF8
FFFD
0001
FFFF
000C
FFFD
0001
FFFA
FFFC
FFF0
FFE6
FFE6
FFE8
FFDC
FFE9
FFF1
FFE9
FFF9
0000
FFFB
FFFC
FFFF
FFFC
0007
0004
0008
FFFA
0004
FFFC
FFF9
0007
0005
FFFF
0004
000D
FFF6
FFF4
FFE7
0009
FFEE
FFDD
FFD7
FFEB
FFF2
FFF7
FFFB
FFFA
FFF9
FFF4
FFF9
FFF3
0005
FFFB
0001
FFFB
0004
FFFD
000A
000A
FFFC
0005
0013
000F
0014
FFF4
FFF2
000C
FFF8
FFE0
FFED
FFF9
000C
FFFC
0015
0008
000B
0007
0003
FFF7
0002
FFF5
0007
0002
0009
0002
0003
0006
0000
0008
0018
001A
0009
FFFB
FFFA
0005
0005
FFEF
FFF8
FFEF
FFEB
0004
0013
000C
0016
0009
FFFF
0001
FFFC
FFFE
FFFB
FFFC
FFFD
FFFC
0000
0004
000C
001E
0021
001F
0006
FFF7
000C
0002
000E
FFFE
FFF3
FFF0
FFEA
FFFA
FFFB
FFF6
0003
000A
000C
FFF2
FFFD
0003
0002
0000
FFFD
FFFD
0003
0005
0017
0015
0000
0002
0005
FFFC
FFF8
0002
0002
0000
FFFC
0005
FFEF
FFE2
FFED
0000
0011
0010
000B
0002
FFF6
0007
0005
FFFC
FFF9
000C
FFFD
000D
001A
0025
0008
000D
0013
000B
0018
0001
FFED
FFF3
0002
FFF7
FFEE
FFEE
FFE7
FFF0
000A
0012
000D
FFF8
FFF7
0000
FFF7
FFFE
0003
0000
000D
001C
0025
000A
0023
000E
001C
000E
0010
0006
FFEB
FFF6
FFFB
0004
FFDF
FFEE
FFF8
0001
FFF8
000B
FFF6
0000
FFFD
FFF8
FFF8
0001
0001
0005
0013
0009
0018
FFFB
0007
0011
FFFB
FFF8
0007
FFE0
FFD3
FFE2
0003
FFF7
FFE8
FFFE
FFFE
FFFE
000B
FFFA
FFF8
FFFE
0004
FFFA
FFF9
0006
FFF9
0007
0008
FFFE
0011
0006
0008
0013
000A
FFF3
FFF5
FFC3
FFD9
FFE9
000B
0011
FFF1
0004
0010
000F
0008
FFFC
FFEC
0000
FFFA
0006
FFFF
0007
FFF9
FFFA
0005
FFFA
000F
0004
0007
0008
FFED
FFF7
FFDE
FFCD
FFFD
000D
000A
0003
0014
0014
001F
0000
FFE7
FFEF
FFF4
FFEB
0000
0009
FFF8
0008
FFF8
0004
0009
0002
FFF3
FFFE
FFF2
FFFC
FFF1
FFD6
FFCC
FFED
0020
0027
0014
0011
0023
000B
0010
FFF2
FFDD
FFE6
FFE9
FFF3
0000
FFFB
FFFC
0008
FFFD
0000
0007
FFEC
FFE3
FFF8
FFE1
FFCC
FFC9
FFB9
FFCD
FFF6
001B
0024
001A
001F
0028
0017
0004
FFF0
FFDE
FFEF
FFE6
FFF5
000A
0002
0000
FFF9
0003
0004
FFF8
FFF9
FFD4
FFDB
FFCF
FFCD
FFC7
FFB4
FFFA
001D
002B
0018
000F
0012
001C
000E
FFEE
FFE6
FFED
FFE9
FFF5
0007
FFFF
0009
FFF8
FFFA
0000
FFFF
0004
FFE9
FFD6
FFCA
FFD0
FFD9
FFE0
FFE3
FFFC
0032
002B
001A
0007
0006
FFFA
FFF2
FFE8
FFEE
FFDE
FFE1
FFEA
0009
0002
0009
FFF9
0002
FFFB
FFFE
FFFC
FFEB
FFC1
FFC7
FFC4
FFE8
FFF4
0005
0011
002B
002C
0013
0019
0014
0005
FFEB
FFE6
FFF1
FFDF
FFDD
FFF4
0003
FFFD
0002
0007
0007
0001
FFFC
FFF4
FFDF
FFD5
FFD8
FFD3
FFD7
FFF2
0013
0009
0003
0008
0004
0017
0016
FFFC
FFEE
FFD8
FFED
FFE4
FFE1
FFFD
FFFF
FFFC
FFFD
FFF9
FFFD
0009
0004
0001
FFF6
FFEC
FFFC
FFE3
FFF8
000B
000D
FFFB
FFF4
000E
000C
000E
0013
0009
FFFD
FFFB
FFF9
FFFD
FFF4
0008
FFFC
FFFC
FFFF
0002
FFFB
FFFD
FFF5
0003
0002
0002
FFF7
FFFB
FFF7
0002
0001
000E
0004
FFFE
0005
FFFE
0000
000A
0015
0019
FFFD
FFFB
FFFD
0001
000B
0007
0001
FFFC
FFF8
FFFC
FFF9
0003
0003
FFFD
FFF9
000C
FFF9
FFF8
FFEE
0002
0011
FFFE
FFEF
000A
0014
0009
0010
0017
000D
0016
0011
000B
0007
FFFB
FFFC
0004
FFF8
0009
0007
FFF6
0001
FFF3
FFF2
FFF6
0007
0003
0002
001A
0001
FFFC
0010
000F
000D
FFF7
0011
0016
0012
0008
FFFA
FFF9
0002
0005
0008
0006
0003
FFF9
FFFB
0008
FFF8
0003
0004
0005
FFEB
FFF2
0003
0009
FFEF
FFE5
0012
0006
000C
0002
000A
FFF1
FFFC
FFF8
FFF6
FFFB
FFFD
FFF8
0004
FFF8
FFFE
0002
FFFF
FFFF
0007
FFFF
FFFF
0004
0006
0007
0000
FFF7
FFF2
FFF9
FFFE
FFF3
FFF6
0001
000B
0006
FFFA
FFF9
0004
0001
0008
FFFD
FFFF
0004
0009
FFFC
0008
0008
0005
0008
0001
FFF8
0003
FFF8
FFFD
0008
FFFB
FFFB
0000
FFF9
FFFE
0006
0005
0007
FFFC
FFFF
FFFF
0008
0000
0002
0003
FFFE
0001
FFFD
0007
0001
0000
FFFE
FFF8
FFF9
0004
FFFE
0004
0000
FFFE
0005
FFFF
0000
0007
0005
FFFC
0001
FFF9
0009
0008
FFFF
0000
0008
0002
FFF9
0007
FFF9
0004
0009
FFFE
0007
FFFF
0001
0002
0001
0004
0007
0003
0000
0006
FFFE
FFF9
FFFE
FFFA
0005
FFFD
FFFF
0002
FFFB
0003
FFFC
0003
FFF8
0004
FFFE
FFFE
0007
0000
0004
0006
0002
FFFC
000A
0001
FFFC
FFFC
FFFC
0009
0002
0001
FFFA
FFF5
FFFA
0000
0001
FFFE
0009
0004
0008
0000
0002
FFFE
FFFD
0009
0004
FFFA
0006
0007
FFF7
0007
FFFE
0001
0003
0003
FFFE
FFFC
FFFC
FFF7
FFF9
FFF0
FFE7
FFF3
FFFB
0006
FFFD
0000
FFFF
FFF9
FFFA
FFFD
FFFA
FFFB
FFFA
FFF7
0007
0007
0014
0002
0008
0012
0002
FFFA
FFF4
FFDC
FFE7
FFE4
FFF7
FFF4
FFEF
FFEC
FFEE
FFFD
0005
FFF6
0006
FFFA
FFFA
FFFE
0008
0002
0008
000A
0009
000F
000E
0027
0008
000C
FFFC
FFF2
FFD8
FFD7
FFDF
FFEE
FFFB
000C
0001
FFF3
FFEA
FFF6
FFF4
FFFA
0004
0006
FFF8
0001
0002
0004
000A
0006
0018
0012
001D
000C
0009
0001
FFF1
FFF6
FFE6
FFD9
FFD7
FFF2
0004
FFFB
FFF4
FFF1
FFF6
FFF3
FFEA
FFE9
FFE9
0003
FFFD
FFFC
0004
FFFB
000E
0009
0012
001C
0015
0008
0002
FFEE
FFF7
FFEE
FFED
FFE6
FFD6
FFDC
0002
FFFF
FFFA
FFFB
0000
FFFB
FFEC
FFEB
FFEC
FFF7
FFFD
FFFD
FFF9
0009
0001
001B
001E
0020
0009
FFFA
0008
0007
FFF7
FFE0
FFDF
FFDB
FFE7
FFF7
FFFA
0005
0000
0008
FFE5
FFDD
FFEA
FFE8
FFEB
0002
0005
0003
0004
0007
000F
0013
0018
0009
FFFC
FFF2
FFF0
0004
FFEA
FFD1
FFD4
FFE0
FFE9
0009
0006
0015
000D
0017
0003
FFF4
FFE2
FFD8
FFEB
0000
FFFC
FFFD
0004
0004
000D
FFFA
0001
FFF0
FFEF
FFEF
FFFC
FFF0
FFF5
FFE2
FFED
FFE6
FFF3
FFF9
0002
0014
0024
0025
0013
000A
FFDB
FFD8
FFE9
FFF9
FFFE
0003
0008
000C
0002
FFEE
FFF9
FFE4
FFDD
FFF4
FFFF
FFFB
FFF9
0009
0005
FFF7
FFE4
FFDF
FFFE
0024
002D
0020
0011
0007
FFE4
FFD6
FFF1
FFF3
FFF9
FFF9
0005
0006
FFFA
FFF5
FFE7
FFD5
FFE2
FFF8
0002
FFFF
000B
0013
0010
FFE6
FFD3
FFEC
FFFC
001E
0015
000C
0013
0003
FFE2
FFF7
FFFA
FFF8
0005
FFFB
0007
000A
FFFF
FFFD
FFE2
FFF8
0000
0017
0005
0005
0011
0008
FFEA
FFE7
FFD1
FFEB
FFFC
0010
FFFC
0001
001F
000A
FFF5
FFFE
000B
FFFE
FFFF
0004
0009
0001
FFF8
FFFD
FFFF
0015
002B
0023
0012
000A
0004
FFF0
FFEC
FFEF
FFF2
FFFF
0022
0014
001E
001D
001F
0011
0015
0008
0008
0005
0001
FFFE
0000
0008
000B
FFF7
0002
0013
0017
0015
000B
0006
FFEE
FFF9
FFED
FFEB
000F
0019
0024
0015
0036
0032
002B
0015
0007
0007
0009
000D
FFFE
0005
0000
0003
FFFC
0002
0004
0016
0027
000E
0009
FFEF
FFEF
FFDB
FFD6
000A
0034
0032
0041
003D
003B
0031
0025
0011
000F
0004
0005
0005
000A
FFF8
0008
0007
0001
000C
0004
FFF2
000E
0011
0000
FFED
FFDF
FFC8
FFE6
001E
0040
003B
003B
004E
0016
001B
0035
0015
FFF3
0003
0015
000C
FFFD
FFFD
0008
0009
FFFA
000A
0006
FFED
0005
0005
FFF2
FFCE
FFAF
FFBE
FFE5
0019
0033
0047
003F
0025
0010
0005
0001
FFFE
FFED
0005
0013
FFFB
FFFD
0008
FFFE
FFFA
FFF7
FFFB
FFFD
FFF0
0007
0001
FFE6
FFCE
FFD0
FFCB
FFE1
0013
001D
0022
0012
FFF8
FFF0
FFE8
FFDF
FFF3
FFF7
FFFF
000D
0008
0006
0001
0000
0001
0009
0003
FFF6
FFE4
FFFD
FFFE
FFEC
FFD7
FFDE
FFE1
FFF2
0008
0002
0005
FFD9
FFE5
FFF0
FFE8
FFEA
FFDA
FFE9
FFF8
FFFF
FFFE
FFFD
FFF9
0004
0009
0001
0000
FFE3
FFD7
FFDA
FFF4
FFEC
FFEB
FFF3
FFEF
0008
FFEC
FFF7
FFFF
FFF4
FFDC
FFE7
FFD1
FFDC
FFDD
FFE6
FFFF
FFFB
FFFE
FFF9
FFFE
0006
FFFA
FFFA
FFF4
FFEC
FFE5
FFEF
FFFB
FFF2
0003
000A
000D
FFFD
FFF4
0003
0004
FFEA
FFD1
FFE0
FFDA
FFD3
FFE0
FFE6
FFF5
FFFC
FFF9
FFFC
0002
0006
0004
FFFE
FFF4
FFF1
0006
0013
0006
FFFF
FFF4
0004
0005
FFEE
0000
FFF9
FFEE
FFF7
FFEA
FFE8
FFD3
FFE3
FFEB
FFDB
FFF9
FFF1
0008
FFFF
0001
0007
FFFB
FFFB
FFF8
FFFC
0009
000F
0006
0003
FFF6
FFF0
FFEF
FFEB
FFF8
FFF1
FFFA
000F
FFED
FFEB
FFEF
FFF6
FFEF
FFE8
FFFF
0009
0002
0005
0001
0005
0000
0005
0009
FFFC
FFF5
FFF9
FFF5
FFF2
FFF3
0004
0005
FFFD
000A
0004
000E
0009
FFF6
FFF4
FFE7
FFEB
FFF2
FFF6
FFF9
FFF8
0007
FFF9
FFF7
FFFD
FFFD
0008
FFF9
FFFC
FFF5
0007
0009
0000
0009
FFF4
FFFB
0002
0005
0006
0005
0006
FFFD
0002
0001
0005
FFFD
FFFF
0005
FFF9
FFFB
0006
0001
0003
0000
FFFD
0006
FFFA
FFF9
0001
FFFA
0000
0004
FFFC
0004
FFFF
0005
0005
0000
000B
0004
000A
0009
FFFC
0007
FFFA
0005
FFFB
FFFC
0006
0005
FFF8
0008
FFFE
FFF9
0002
0002
0006
0004
0005
0004
0005
0004
FFF7
0000
FFF9
0004
0002
0000
0005
0007
0006
FFFF
0003
FFFF
0009
0003
0009
FFFE
0003
0000
0001
0002
FFFE
FFF8
0000
FFFF
0007
FFFB
FFFB
0003
0002
FFF7
0007
0003
FFFB
0005
FFFA
FFFA
0005
0008
0008
0001
FFFA
FFFD
FFFD
FFF8
FFF8
0006
FFFB
0004
FFFF
0004
FFFE
0001
FFFE
0001
0003
0004
0001
0008
FFFD
000B
0010
000C
0006
0004
0005
000D
FFFA
FFF9
0000
0005
0008
FFF8
0005
FFFA
FFFD
0001
FFFB
FFFC
FFF5
0003
FFF8
FFFD
FFF8
FFFC
FFF8
FFFA
FFF1
FFE8
FFF6
0008
0004
FFFD
0013
0016
0010
FFFE
FFF7
0002
0005
0008
FFF7
0005
FFFE
FFF9
FFFC
FFF7
FFF8
FFED
FFE1
FFEE
FFE3
FFE7
FFDE
FFF3
FFEB
FFF0
FFFD
FFF3
FFF6
000B
000F
000D
0008
0009
FFF9
0007
FFFD
0007
FFF7
0001
FFF7
FFFB
FFF2
FFDB
FFE3
FFE3
FFD9
FFE3
FFFB
FFE6
FFEF
0004
FFFF
FFF4
0008
0015
0011
0018
0017
FFFF
FFFE
0004
FFFE
000A
FFFE
FFF9
FFFC
FFFF
0006
FFFC
FFE3
FFE3
FFF8
FFEE
FFE6
FFE4
FFFC
0004
0008
0012
0015
FFFA
0012
0020
002A
0011
0001
FFF9
FFFD
0004
FFFF
0009
FFFE
0003
0006
FFFD
FFF4
FFF3
FFE8
FFEF
FFED
FFDF
FFE4
0003
000A
0006
000F
0006
001A
0003
001C
0022
0017
0008
0022
000A
0007
0001
FFFF
0003
FFFA
FFF8
FFF9
0007
FFFB
FFFB
FFF4
FFE9
FFDD
FFE4
FFF7
0006
0018
001E
0029
0009
FFF2
000A
0028
0002
0003
FFFD
0006
FFED
000F
0005
FFFC
0005
0001
0006
0007
FFF8
0002
FFEC
FFE3
FFE4
FFE2
FFDB
FFEF
0000
0018
001C
0025
000E
FFEB
FFEC
0001
FFE6
FFDF
FFE6
FFEA
FFE6
000E
001C
000A
0005
FFF6
0001
0003
0006
FFFF
FFFA
FFF6
FFF4
FFF2
FFF5
FFF4
0011
000D
0023
001F
0029
FFE7
FFE0
FFF1
FFF6
FFE0
FFF3
0001
0000
0014
0009
0001
FFFC
0001
FFFA
0009
FFFD
FFFD
FFEF
FFF3
0000
0018
FFF5
FFF3
FFEB
000C
000B
0028
001A
FFF0
FFF0
FFE1
FFE9
FFDC
FFF2
0009
FFFD
0021
0016
FFF8
0005
FFFB
0009
0003
FFFA
0003
FFF8
FFEE
0015
0012
FFF3
FFEF
FFDE
FFF6
0008
001C
FFFF
FFF0
FFF4
FFF3
FFE8
FFDD
FFF1
0001
0010
0027
0019
FFFA
FFFC
FFF7
FFFD
FFF8
0004
FFFD
FFF4
FFFB
000B
0002
FFFD
FFFF
FFEF
0000
0017
001E
0005
FFFC
0005
FFE1
FFE0
FFE5
FFE2
FFFD
0011
0020
0016
FFFD
FFFD
0006
FFF8
0000
FFFE
FFFC
FFF7
0000
FFF7
FFE7
