0023
0026
0041
003A
FFEC
FFBA
0047
000B
0024
0025
FF97
FF82
0012
FFD4
000E
FF76
0021
FFDC
FFF4
0022
0026
FFF1
000A
FFA4
0006
0012
FFED
003D
FF7A
FFF3
FFB5
002F
FFC7
FFF1
000D
FFE6
FFB1
0015
0024
000D
0026
0045
FFD4
003A
0021
002C
FFE9
FFE8
FFB8
FFDC
FFFB
FFC9
FFF0
FFF9
FFF0
FFE4
FF9C
002D
FFB8
0005
003B
FFD5
FFFC
FFEC
FFF4
FFDD
FFDE
FFC4
0020
FFEC
000B
0019
FFE6
FFA1
FFF4
0023
0032
0016
FFC7
0031
FFE1
0000
FFD2
0012
0020
0030
FFAA
0002
FFF7
FFE7
FFDC
FFA3
003E
FFAF
FFD0
FFE5
0006
001D
FFB5
002E
FFFC
FFEA
FFB5
FFE8
FFBC
003A
0029
FFB3
FFE2
FFDB
FFF1
0025
FF96
0053
FFDF
FFBD
001D
0034
0028
0040
FFB3
0027
001B
FFCF
FFD1
FFD7
000D
FFEC
FFC7
0015
0027
003D
FF90
FF90
0014
0005
FFAE
FFEF
0014
FFC7
0039
FFB7
FFFA
0041
FF96
000C
0008
004E
0024
FFF2
FFC8
0033
004D
0000
004D
0029
FFBC
FFE1
FFFD
0001
FFD5
FFE6
FFC5
0039
FFD9
003D
FFE3
0031
FFD8
FFAC
000B
0002
FFE1
004B
FFCC
FFC4
0019
003A
0006
0019
0015
002B
0008
0012
0005
FFD0
0016
0014
0008
FFF3
0016
0025
0025
002E
FFB5
0007
0036
FFC7
FFD4
FFF5
0008
FFCA
0028
003B
FFEA
FFC7
0036
000E
0001
0031
FFBB
FFD9
0009
000E
002D
FFE5
FFC6
FF87
FFFD
0000
0031
FFC6
0020
FFE5
0006
FFE0
FFDF
FFA2
FFD6
000F
0024
FFE7
FFD1
FFDB
FFD8
FFCD
FFEA
FFF3
0004
003F
FFCE
0026
002E
0022
0008
FFAF
0015
000F
0025
FFE9
FFD1
0003
0013
0012
FFEA
002C
FFC0
FF8C
FFFE
FFA8
0008
FFF0
001D
0009
0023
FFEC
FFF6
0021
003D
FFFA
0019
FFC9
000A
FFE1
FFEA
0019
000C
0036
FFD1
001D
0020
FFE3
0003
FFCB
002D
002A
FFD2
FFDB
FFD2
0033
0033
0014
001C
0025
FFEC
003F
003E
FF80
FFEF
0025
FFB2
FFCF
0025
FFBD
001B
FFDD
FFC3
0013
FFF8
FFD8
FFF4
FFD8
0028
0018
002F
FFF6
FFBA
FFF1
FFA6
FFFD
0017
002F
FF8E
FFB6
0008
0058
001D
FFE1
FFE9
0027
0018
0020
FF55
001B
FFEB
0003
002A
FFF5
0023
003F
FFF3
0027
000B
FFB6
FF94
FFF5
002A
FF7F
0004
0000
FFE8
FFDC
0022
FFC2
FFC7
FFD2
FFF6
000A
0021
FFCF
003D
0015
0017
0015
0025
FFFF
0024
0046
0009
FFD4
FFD9
FFC5
FFF6
003B
FF85
0010
FFAB
0009
0045
FFCA
FFB6
002E
002E
000C
FFC8
FFE6
0030
FF81
FFFD
0034
FFD9
FFDD
0035
FFCD
FF92
0012
FF7F
FF9D
FFEA
FF9D
FFEE
000C
0034
FFDC
002D
FFDD
FFA1
0014
0013
0033
0026
0014
FF6A
FFE3
0010
002B
FFDE
FFEF
002F
0039
0021
0012
001E
FFD6
FFD5
FFDC
FFE3
0034
001D
0006
FF7D
002A
0006
FFFC
FF60
0018
0007
0044
FFB8
0017
0008
002D
FFA3
FF91
FFD9
FFC4
FFF8
001D
0008
FFEF
FFF1
0030
0038
FFED
000A
FFFE
0023
0008
0008
0000
000A
002A
0007
0034
0018
FFEE
FFCF
0028
0020
FFCD
0009
0020
0049
FFDF
FF8D
0032
FFF5
002F
FFD9
FFF5
000D
0017
FFE7
FFC9
FFEC
FFDD
FF9E
FFD5
000B
0039
FFD0
0006
002A
002A
0033
FFCF
FFCA
0064
001C
0004
FFD2
0027
FFCF
FFD6
002A
FFF0
0024
0003
FFDB
FFA7
FFB9
FFC2
FFFF
000D
0034
FFB9
FFDE
FFE0
FF77
0034
0005
0032
FFD9
FF90
FFD0
FFDA
FFE6
FFC1
0001
0033
0023
FF7B
FFB0
FFE8
FFEC
0046
FFB5
0026
FFDF
0001
FFCA
FFD7
0003
FFCA
0012
0029
001A
FFFB
0031
FFFE
0026
FFC8
0035
0037
001F
FF9E
000B
0003
0014
FFB2
003F
FF9C
000E
003C
0019
FFCF
0034
FFD3
FFF2
0004
0011
0018
0038
0004
0027
0025
0039
0001
0037
0003
001E
0036
0019
FFB6
0017
0021
FFFB
001E
001C
004E
FFE1
FFC5
002B
FFF2
FFEA
FFD7
FFAF
FFCF
0021
FFFB
FFFB
FFB2
003F
FFFD
0001
0033
FFD7
FFEE
FFD3
001C
0002
FFFB
0000
FF77
0000
FFEC
FFC4
FFF5
002E
0025
0005
FF7C
002B
FFDF
002F
FF5D
0038
FFD6
000F
FFB0
003D
FFEE
000B
FFAE
FFE4
0025
0003
FFF7
FFEB
FFEF