FFFE
0000
0002
FFFF
FFFE
FFFF
FFFF
0003
0003
FFFF
0000
FFFE
FFFD
FFFD
0002
0002
0000
FFFF
FFFF
FFFE
FFFF
FFFE
FFFE
FFFE
0000
0000
0001
FFFF
FFFF
0000
FFFE
0000
FFFC
0001
0000
FFFF
FFFE
0003
0002
0002
0003
FFFF
0000
0003
FFFF
0002
FFFF
FFFF
FFFF
0000
0001
FFFF
FFFD
0002
0001
FFFD
0000
0001
FFFD
0003
0002
0000
FFFF
FFFF
0001
FFFF
0002
FFFD
0001
0002
FFFD
FFFE
0000
0000
0000
0001
0003
FFFE
0002
0003
0000
0000
0000
0002
0000
0002
FFFF
0003
0002
0000
FFFF
FFFD
0003
0003
0000
0002
FFFD
0000
0001
0003
0005
FFFE
0001
0003
0001
FFFF
0004
FFFD
FFFE
0001
0000
0002
0002
0000
FFFE
FFFE
0000
0001
FFFF
FFFF
0002
0000
0000
0001
0001
0002
FFFF
FFFE
FFFF
0001
FFFE
FFFF
0000
0001
FFFD
0000
0002
0000
FFFF
0002
FFFE
FFFF
0000
0002
FFFC
0002
FFFD
0000
FFFE
FFFF
FFFE
0002
0002
0000
FFFE
FFFD
0002
FFFD
FFFE
0000
0000
0000
0000
FFFD
FFFE
FFFD
0001
FFFF
0001
0000
FFFD
0002
FFFF
0002
0002
FFFF
0000
0001
FFFD
FFFE
0002
FFFD
0001
0001
FFFF
FFFF
0004
0000
FFFD
FFFE
FFFF
FFFD
0000
0001
0001
FFFD
FFFF
FFFE
0000
FFFF
0001
FFFF
0000
0002
0001
0001
FFFE
0000
0001
0000
FFFE
0001
0001
FFFD
FFFE
FFFD
FFFE
0000
0000
0002
FFFE
0000
FFFE
FFFE
0004
FFFF
0001
FFFF
0001
0000
FFFD
0000
0000
0000
0002
0002
FFFF
0002
0001
FFFF
FFFD
0001
0001
FFFF
0000
0000
FFFD
0000
0002
0000
FFFE
FFFD
FFFD
FFFE
FFFD
0001
0001
0000
0000
FFFF
0001
FFFF
FFFF
0001
0004
0000
FFFE
FFFF
0003
FFFE
FFFD
0001
FFFF
0000
0001
000E
000A
0000
0000
FFFD
0000
FFFF
0005
FFFA
FFF3
FFF0
FFFA
0003
FFFD
0000
0001
0002
0003
0003
FFFA
FFFF
0003
FFFF
FFFF
0002
0001
0000
FFFC
FFFD
0000
0000
0001
0003
0000
0002
0003
0002
FFFF
0000
0000
000B
0009
FFFB
FFFD
0000
FFFF
0001
FFFE
0003
0004
0001
FFF9
FFFE
0001
FFFF
0002
0009
0001
FFFD
FFFF
FFFD
FFFF
0000
0002
0006
0003
FFFE
FFFC
0002
FFFD
0001
FFFE
FFFC
FFFC
FFFD
0003
0006
0000
0000
FFFF
000A
001E
0004
FFF8
FFF7
FFFD
0001
FFFF
FFFE
0000
FFF5
FFFE
FFFE
0001
FFFF
0003
0008
0000
000C
0004
0003
FFFF
0000
0002
FFF0
FFEE
FFF4
0000
0003
0001
0000
0000
FFFC
0006
000A
0008
0000
FFFF
0000
0000
0000
0000
0000
0000
0002
FFFC
0000
0002
0003
0000
0000
0001
0001
FFFD
0001
FFFD
0004
FFFC
FFFE
FFFE
FFFE
0000
0001
0001
0000
0002
0003
0000
FFFF
FFFF
0000
0001
0001
0001
0000
FFFE
0002
0004
FFFE
0002
0003
0000
0002
FFFD
0003
FFFF
0000
0002
0002
0001
0001
FFFF
0000
FFFE
0001
0000
0003
FFFD
FFFD
0002
0001
FFFF
0000
0001
FFFE
0001
0002
0003
0001
0003
0001
FFFD
FFFF
FFFF
0001
0000
FFFF
FFFF
0000
0003
FFF4
0003
0003
0000
0001
0000
0000
0000
FFFE
0002
0003
0002
0000
FFFD
0000
0003
0009
FFFF
FFFF
0002
0001
FFFE
0002
FFFC
FFF3
FFEE
FFEE
FFF0
FFF9
0002
FFFF
0001
FFFF
0001
0001
0005
FFFF
FFFE
0001
FFFD
0012
000E
0009
0007
0001
FFFF
FFFF
0002
0041
0031
0034
002F
0026
FFFD
0001
FFFE
0010
0011
0017
000A
0004
0000
0000
FFFD
000B
0017
000C
0004
FFFF
FFFE
0003
FFFA
FFE1
FFD4
FFEF
FFFD
FFFF
0003
FFFF
FFFF
FFF8
0007
0006
FFFD
FFFE
FFFF
FFFC
FFF8
0006
0017
002E
002A
0027
0003
0007
0001
FFE1
FFAD
FFC4
0004
0005
FFFD
FFFF
FFFE
0011
0020
0008
0008
FFFE
FFFD
0000
0002
002A
0023
0013
0012
000D
FFFE
0002
FFFF
FFD0
FFC6
FFDD
FFD6
FFEA
0001
0000
0002
FFDE
FFB4
FFD4
FFEF
FFEC
0003
0002
FFFD
FFEE
FFCF
FFCC
FFE0
FFE8
0002
FFFE
0004
003C
0012
0010
0028
0023
0002
0000
FFFF
0007
FFFE
0003
0009
0004
FFFC
0001
0000
0002
0005
0005
FFFF
FFFD
FFFF
FFFF
0003
FFF4
FFF6
FFFE
FFFD
FFFB
0001
0001
FFFD
0000
0003
0005
0003
FFFF
0002
FFFF
0003
0001
0002
FFFE
0001
0001
FFFF
0000
0001
FFFE
0001
FFFD
FFFE
FFFD
0000
0001
FFFE
0000
0002
0002
0002
FFFF
FFFF
FFFF
0000
FFFE
0001
FFFE
FFFD
0001
FFFC
0001
FFFE
0004
0001
0003
FFFE
FFFD
FFFE
0001
FFFF
FFF3
FFF9
0000
0002
0000
0002
FFFF
0001
0005
FFFD
FFFD
0003
0001
0000
0001
FFFE
FFDF
FFFE
0014
0015
0015
0001
FFFE
0003
000F
001A
001E
000A
FFF9
0002
FFFF
0001
0008
000E
000A
0008
000C
0004
FFFF
0001
0003
FFFE
FFFA
0000
0000
FFFD
FFFE
0007
0016
0027
FFCB
FFBE
FFCC
0001
FFFF
0000
0026
0017
FFE8
FFF1
FFFF
FFFF
0000
FFFF
FFFB
FFE9
000A
0009
0006
FFFD
FFFF
FFFB
0014
0022
0016
0002
FFFD
0000
0003
FFFC
FFFC
0007
FFFA
0011
0021
0000
0001
FFFC
FFF0
0014
000F
0002
0001
0002
FFFF
FFFA
FFFB
0020
000B
FFC7
FFB9
0001
0003
0000
FFFC
0006
FFF9
FFD6
FFD7
0000
0002
0006
FFFA
0002
FFFB
FFD5
FFD7
0003
FFFF
0001
FFE9
FFEF
0019
FFF0
FFEB
FFFD
FFF8
0001
0038
0030
0005
FFF0
FFE9
FFFE
0001
FFFD
FFF6
FFFE
FFF8
FFFD
0001
FFFD
FFFA
FFF7
FFEE
000E
004B
0031
001A
FFFF
FFFB
0000
001A
0031
0023
0028
0025
FFFF
0002
FFFF
FFD3
FFE0
FFC8
FFDF
FFEA
0000
0001
FFFF
000E
FFFF
FFEA
FFE8
FFEE
0000
FFFF
0003
000C
0001
FFF7
FFF9
FFFD
FFFF
0001
FFFF
0000
FFF6
FFFD
0000
0003
0000
0000
0000
FFFE
FFFF
0002
FFFD
0003
0000
0000
FFFF
0001
0000
0002
0003
0000
0000
0000
0001
FFFF
0003
0001
0002
FFFF
0000
FFFF
0004
0001
0000
FFFF
FFFE
0002
0003
FFFF
FFFF
FFF3
FFF9
FFFE
FFFE
FFFD
0002
FFFF
0002
FFFA
0004
0004
FFFE
0000
FFFE
0001
FFFC
0000
FFFE
0000
0008
0003
FFFC
0001
0001
FFFF
0007
0005
0005
0009
0001
FFFE
0002
0001
FFFB
0009
0008
0005
0004
0003
FFFF
FFDA
FFD2
0011
0017
000A
0008
0006
FFFD
FFE2
FFB8
FFFD
0018
0011
0001
0000
FFFE
FFFC
FFFF
FFFD
0002
FFFF
FFFE
FFFC
0002
000F
0025
0011
0000
FFFE
0002
0002
000B
FFFC
0021
FFFE
FFCE
FFC9
FFFA
0000
0012
FFF5
001D
0001
FFE4
FFDE
0000
FFFD
FFF5
FFED
0023
0024
FFE9
FFDC
0000
0002
FFF9
FFFB
FFF9
FFFD
0008
0006
0003
0001
FFF1
0010
001C
0009
FFF2
FFEC
0005
0008
FFF7
FFEA
FFEE
FFF0
0005
000C
0004
0002
FFF4
FFFF
FFD7
0011
0012
000F
000A
0007
0008
FFFB
FFEB
FFD7
FFFC
000E
FFF1
FFF2
FFFE
0049
0033
0026
0007
FFF9
FFFF
0002
FFFD
FFEA
0010
FFDE
FFE8
FFE9
0004
0001
0007
0010
FFFD
FFEF
FFD1
FFCD
FFFF
0000
0002
FFE1
0010
FFED
FFCC
FFD4
FFFF
0000
0002
0003
0001
0007
FFFA
FFF4
FFFE
0001
FFFD
FFFE
0004
FFF9
FFFB
FFFA
0002
0001
FFFD
0001
0003
0000
FFFF
0002
0002
FFFE
0002
0002
0003
0002
FFFE
FFFF
0001
FFFF
0001
0002
0000
FFFE
0002
0002
0002
FFFF
0001
0000
0001
FFFF
0001
FFFF
FFFF
0001
FFFF
0000
FFFE
0002
0002
0003
FFFD
0001
0001
0013
FFFD
0006
000D
000D
0002
FFFF
0004
FFFD
0002
0009
0004
FFFD
0001
0000
FFF9
0003
000C
000D
0024
0025
0003
0000
FFFA
0011
0012
0015
0008
0004
FFFD
0000
0004
0011
0013
0015
FFF0
FFF1
FFFC
0002
FFFF
FFF5
000B
0003
FFF5
FFF5
FFF5
FFF0
000C
004A
0023
FFE9
FFFE
0002
000A
000E
FFFD
FFD1
FFD2
FFF1
0007
0007
0004
0002
FFF2
000D
0012
FFF1
FFFB
0002
FFFF
0002
FFFA
FFFB
0002
0000
0004
0009
FFF0
FFF4
000A
0011
0007
0002
FFFE
FFF9
FFEF
FFF2
0000
FFF9
0009
0029
0006
FFF9
FFDB
FFEB
002F
001B
0004
0002
0004
FFFF
FFC9
FFD3
0024
003C
0025
0015
0012
000B
FFCE
FFD9
0010
002A
0034
002C
000F
0003
FFDC
FFE4
000A
0017
0025
0046
000B
0000
FFEE
FFF0
FFFB
0023
0026
FFFA
0019
0022
FFF5
FFF4
FFF7
FFF4
FFFB
0015
0028
0023
0011
000F
0007
FFFE
FFF4
FFC4
FFDA
FFEC
000C
000A
0006
FFFA
FFE2
FFCB
FFED
FFEB
FFF8
FFFA
FFF0
0029
0036
0013
0026
0034
0004
0004
0005
FFFB
FFC9
FFBD
FFF3
0006
0001
0000
FFFF
000D
000E
0004
000D
0012
FFFE
0001
FFFD
FFFE
0003
0002
0001
0000
FFFF
0001
0001
FFF9
FFFB
0003
0000
0002
FFFF
0000
FFFF
0002
0003
0001
FFFE
0003
FFFF
0001
FFFE
FFFD
0000
FFFF
0002
0000
0000
FFFF
0002
000B
0003
FFF3
FFF4
FFFF
FFFD
0000
0002
0000
FFFC
FFF7
FFF2
FFF6
0003
FFFD
0004
0038
FFD3
FFC1
FFF8
0005
0001
0000
0000
0011
0016
0002
FFF9
FFFE
FFFC
FFFF
0004
000A
002C
000F
FFCE
FFCE
0006
0000
0007
0001
FFDF
FFD5
FFFC
0008
0009
000E
0000
FFCF
0015
FFF7
FFEA
FFEC
0009
0009
000D
0019
FFF0
FFE8
FFEF
FFED
FFFF
FFFE
FFFE
000B
0001
FFFF
0002
0008
FFEB
FFF1
0024
0045
FFF0
FFE8
FFFF
000A
0008
0004
0004
0006
001F
0003
FFE6
FFE6
0002
FFFF
FFF9
0009
0015
001E
FFF8
FFEA
001A
0011
FFD7
0003
0013
FFEF
0005
0013
0011
0012
0010
FFE7
FFDC
FFF3
FFFA
FFF4
0020
001B
FFF4
FFEB
FFEC
FFF9
0002
0007
0012
0006
FFF8
FFF7
0004
000B
FFF9
0002
FFD5
FFE7
004C
001C
FFF3
FFF8
FFF9
FFFB
0016
0012
FFF6
FFE0
FFEF
FFD6
0004
0015
0020
0012
FFD8
FFB6
FFE2
001C
0014
0011
FFED
FFF2
0018
003C
001B
0007
FFE0
FFD7
000B
000B
FFF0
FFD8
FFFE
0008
FFF8
FFF7
0007
000B
000A
FFDC
FFD2
FFED
FFDE
FFD2
FFF7
FFF6
0009
0020
0025
0009
001A
0020
0004
0000
FFFE
FFEC
FFF1
FFFA
0001
0000
FFFF
0001
FFFF
FFFB
FFFE
FFFF
0006
0003
0002
FFFF
0002
0004
0006
0009
0005
0004
0004
FFFF
0001
0001
0000
FFFE
0001
0001
FFFC
0001
0000
0000
FFFA
FFFE
0002
0000
0002
FFFF
0002
0002
FFFD
FFF8
FFFC
0003
FFFF
FFFE
0005
0008
FFFB
FFF4
FFED
FFF8
0001
0000
FFFF
0002
000C
0005
0002
0003
FFFF
FFFF
000A
0001
FFFC
FFF8
FFF1
FFEA
0007
0008
FFFE
FFFF
0007
FFF2
FFE5
FFEA
0010
000A
FFEE
FFC2
000B
FFFD
FFF2
FFED
FFFA
FFF6
FFF2
0001
0006
000D
0011
000F
FFFC
FFFA
FFF6
000D
001C
FFFB
FFFD
0000
FFFC
0000
0001
0003
0003
FFFF
0000
0002
FFFD
FFF8
0002
001B
FFEB
FFF7
0009
0008
0009
000E
000E
FFF7
FFC5
FFDC
000B
000E
FFE2
FFE4
FFFE
0027
0028
0018
0005
FFFE
002B
001D
0004
FFF3
FFE3
FFD3
FFFA
FFFE
FFD3
FFE0
001F
0029
0011
001B
FFFE
FFF2
FFD3
FFE3
0003
0021
000C
001A
000C
0003
FFD9
FFE4
0001
0002
0012
0027
0010
0005
0008
0006
FFFA
0008
0011
000D
FFE1
FFD9
000D
FFFD
FFD4
000E
0015
000E
000F
0012
000B
0006
FFCD
FFF9
000C
FFED
001A
0032
0008
0001
FFDB
002E
0033
FFF4
FFF7
0004
FFF6
FFF7
000E
0011
0012
0001
FFF6
FFF1
0008
0002
FFFB
FFEC
0005
0001
FFF3
FFF8
FFF6
FFF7
FFFF
0000
0003
001D
002B
0027
FFFF
FFFF
FFFE
0001
0009
0007
FFFE
0004
FFFF
0000
FFFF
0001
FFFF
0006
0008
0006
FFFF
0000
0000
0009
0006
0002
0002
0000
0001
0001
FFFC
0007
0001
0001
0002
FFFF
FFFD
0001
0000
0003
0002
0004
0005
0001
FFFD
FFFD
0001
001B
002C
0020
0012
0007
FFFF
FFFF
0001
FFF3
FFF7
FFFB
0009
000D
FFFD
0004
0008
0010
000D
FFD5
FFDE
FFEA
0000
0006
0014
000F
FFF8
FFD6
FFD5
FFD6
0006
0006
000C
0008
FFFE
FFD9
FFEB
FFE7
FFF4
FFF4
0000
0022
001B
0011
FFFB
FFFA
000B
0009
FFF3
FFDA
FFC7
0008
001B
0011
0006
0003
FFFB
FFF7
000E
0005
FFF6
FFFC
FFFC
0003
0005
FFF4
FFDC
FFFD
000B
0010
000E
000C
0001
FFD1
FFC2
FFFA
0015
0008
FFE3
FFEB
000D
0006
FFDA
0024
001C
000C
FFD1
FFDE
001D
0026
000D
0013
0008
0003
002F
0026
FFFE
FFE0
FFD1
FFE1
FFF1
FFF4
003A
002F
FFEE
FFCA
FFFB
FFFC
FFD8
FFD4
FFCC
FFC8
FFE4
0011
0027
003A
0024
001A
004D
0043
FFEA
FFC8
FFC3
FFC8
FFF5
FFFE
0041
003C
0008
FFB1
FFAB
FFD6
FFF3
0001
FFE3
FFE7
0013
0020
0013
000A
000E
0017
0008
0006
FFF6
FFE9
001A
0018
FFF0
FFED
FFFD
FFFE
FFF2
000B
000E
0016
0001
FFF9
0002
0008
001D
000B
FFEB
FFCE
FFE5
FFE7
0001
FFFF
FFFE
FFFE
0002
0003
0000
0000
0004
0002
FFFA
FFEC
FFFF
0021
FFF8
FFEA
0001
0000
0003
0005
0006
FFFA
FFF6
FFF5
FFFE
0002
FFFC
0002
000D
000C
FFFF
FFFC
FFFE
0001
FFFE
0008
0005
0005
FFFB
FFFE
FFFE
0000
0002
FFFC
0003
0003
0001
0000
0002
0000
FFFE
000B
0008
0000
0001
0001
0001
0001
FFFE
FFF9
FFF8
FFEE
FFDE
FFE7
0001
0000
FFFF
FFF0
FFF8
FFF9
FFFE
0000
FFFF
0000
FFFE
FFFA
FFF7
000B
0002
0004
0002
FFFD
FFF1
000D
0018
0006
0015
0014
FFFE
0000
FFFF
0000
FFF7
FFFE
0002
0000
FFFB
0000
0016
FFD3
FFC8
0013
001B
000F
FFF1
FFF8
0005
FFFD
FFC0
FFFA
0036
0039
FFE7
FFEA
0018
000F
0002
0009
0017
0012
001D
001E
0035
FFDB
FFA2
FFD1
FFFC
0004
000F
000E
FFFF
000A
0000
FFE4
FFF4
FFFF
FFD2
FFDF
0018
001E
0021
001E
0005
000F
FFD6
FFD4
FFF4
002F
002F
0037
000F
FFFE
002D
0023
0006
0003
FFE9
FFC6
FFD8
FFDD
0021
0019
000A
0010
FFFC
FFEF
FFC6
FFC0
0040
0033
FFED
FFCA
FFF3
FFE3
FFE1
FFE7
0033
0025
000D
FFF1
FFF1
FFD5
FFDC
FFEE
FFD5
FFDB
0003
0013
0031
0025
0013
000F
FFE1
FFDE
FFFD
001A
0019
003B
0010
0007
0015
0013
FFF0
FFD4
0004
0004
FFE8
FFE5
0004
0002
FFF8
FFE6
FFFF
0001
FFFA
FFFF
FFF4
FFF4
FFEE
000D
0045
002C
000F
0007
000A
0006
FFF1
FFD4
0008
FFF4
FFFC
FFFB
0001
0001
0005
000B
0000
FFC3
FFC5
FFBF
FFFE
0000
0006
FFD5
FFB7
FFC7
FFFC
0011
FFFE
0001
FFFF
000C
FFFE
0005
0000
0001
0001
0000
FFFF
FFFF
FFFE
FFFE
0003
0000
0002
0000
0000
FFFE
FFFF
0003
FFFD
0002
0003
FFFF
0001
FFFD
0006
0004
000D
000A
0002
0000
FFFF
FFF9
0002
FFFA
FFFF
0002
0001
FFFF
0004
0016
0013
001E
0016
0007
FFFF
FFFF
000A
FFFE
FFD5
FFEF
0005
FFFA
FFFA
0000
0008
000C
FFF8
FFFC
FFFA
FFFF
0001
0001
0003
FFE8
FFE7
FFF6
0006
0005
0003
0004
0002
FFFC
FFED
FFF9
0000
0001
FFEA
FFF5
0014
0003
0005
0005
0011
000E
FFD6
FFE2
0015
000D
FFD9
0022
002B
0023
0023
0010
FFEE
FFFA
FFCE
FFE5
000D
0001
0020
0016
FFFE
FFE0
FFBC
FFE4
0006
000F
FFFF
0002
0002
FFFE
FFF7
0002
0001
0000
0029
001F
FFF0
FFFC
FFFB
FFDA
FFDE
FFDA
0020
0020
001A
0003
FFF6
FFD3
FFB9
FFBA
002E
0026
FFFF
FFE6
FFE7
FFF2
FFCE
FFCD
0024
0021
0014
FFF7
0000
FFD6
FFD4
FFED
0023
0017
FFF6
FFE8
FFE1
FFF4
FFFC
FFFA
FFD8
FFE3
FFF7
0005
0040
0036
0003
FFF8
FFDE
FFE3
0025
0015
FFF0
0026
000E
0004
FFE5
FFEC
FFEF
0002
0025
0034
001A
0009
FFF4
FFF6
0014
0009
FFF2
0004
0024
001F
FFEA
FFED
0001
001A
0025
0047
0022
0013
FFEE
FFF0
FFFF
0013
0069
005C
0012
0002
0006
0001
0000
0006
FFDC
FFD7
FFCA
FFD0
0000
0001
FFFE
FFDC
FFE1
FFDF
FFDD
FFE8
FFFE
0000
0001
0002
0008
000B
0000
0000
0002
0000
FFFF
0004
0002
FFFF
FFFF
FFFF
FFFE
0000
0001
FFFD
0000
FFFD
FFFE
0001
FFFD
0002
FFFD
FFFC
FFFA
0003
0001
0000
0000
0000
0001
0011
FFF4
0016
0014
000D
0000
0000
0000
FFF4
FFF4
FFFE
FFEB
FFEC
0003
0001
FFF7
FFF9
000F
FFEB
FFF8
FFFD
0001
FFFE
0000
FFFC
FFF5
001C
000B
FFFE
0005
0001
0009
0005
FFF6
FFED
FFF5
0001
0003
0000
FFFF
0000
0003
FFFF
FFFD
0001
FFFC
FFFD
FFF2
FFFD
0015
001C
0004
FFF4
FFF1
FFF9
001F
0010
000A
0004
FFF9
0000
0005
FFFE
FFF8
001E
FFEE
0002
0002
FFF7
0002
0003
0005
0008
FFF8
FFF3
0000
0001
000B
0008
FFEA
FFF2
FFEF
000B
0008
0009
000A
0014
001F
0019
FFEB
FFB1
FFD8
FFE2
FFDB
FFD5
FFF9
0034
0013
001F
0038
0040
0020
0020
000E
FFCC
FFEB
FFE3
FFE1
FFEA
0005
0001
0009
FFFF
FFF7
0000
FFFF
FFF9
FFE9
FFE2
FFD6
0003
0026
0020
0012
000C
0023
001D
0011
FFF1
FFDE
FFF7
FFE7
FFDF
0027
0023
FFE0
FFD0
FFFC
0004
FFEC
FFD7
0020
0025
0017
FFCD
FFCD
FFCD
FFD8
FFE6
000C
000A
0007
FFF1
FFDE
FFEC
FFE3
FFDE
FFF5
FFF1
FFED
001F
0019
002D
0036
0035
FFF8
FFF6
FFFE
001C
0021
0048
0024
0017
0000
0003
FFF7
FFEB
001A
FFF5
FFD7
FFD7
FFFF
0000
0003
FFF7
FFFE
0004
0002
FFFC
FFFF
0000
0000
0002
FFF9
FFF1
FFF0
FFF9
0000
0001
FFFD
FFFF
FFFB
0000
0000
0002
FFFE
0001
FFFE
FFF8
FFF9
FFFB
FFFF
0003
0005
FFFF
0000
FFFD
0000
0002
FFFE
FFFE
0000
0000
0002
0003
FFFD
FFF7
FFF2
FFFD
0000
FFFF
FFFE
0016
0028
002F
0019
000C
0005
000A
0003
FF9D
FFC5
FFD7
FFDE
FFD3
FFFC
FFFD
0008
000F
0013
0010
0010
0011
FFFD
FFFE
FFFC
0020
000C
000E
000C
0004
FFF9
FFFC
001A
001D
FFF6
FFFD
FFF0
FFF7
FFF9
0000
001E
0017
FFD7
FFEB
0004
0008
0009
0002
FFF0
001C
005E
FFFA
FFDD
FFED
FFF9
FFFA
FFFC
0017
0010
0014
FFF3
FFEA
0005
FFFE
FFE9
000C
0022
0003
FFFC
FFFA
0003
0000
0000
0000
FFFE
0004
FFFE
0003
FFFC
0004
0006
FFF2
0006
0005
0009
000C
FFED
FFF5
0007
FFCB
0007
0037
001F
0018
0013
0011
FFF4
FFE8
FFED
FFEE
FFFE
0006
FFF1
FFF7
000A
FFFE
0013
0005
FFFA
FFF9
0009
0008
000A
FFF3
000D
0000
FFF0
FFF1
FFF6
FFF1
0003
0010
0018
FFFA
000D
000E
FFFA
0004
001A
FFE2
FFDF
FFE3
001F
0033
FFFE
FFFF
0003
0011
FFF1
0002
0002
0003
0002
0001
FFFB
FFFF
0010
FFF8
0002
000C
FFF8
FFFC
0011
001C
0035
001D
FFBC
FFA9
0003
0003
0005
FFDB
FFFF
FFF4
FFDC
FFE6
FFFF
FFFD
0008
FFFC
FFF1
FFFA
0025
0023
FFFA
FFFC
0003
002E
002B
0023
0003
FFFC
0001
0002
FFFF
FFE9
FFF3
000A
001A
001D
0001
FFFF
0002
FFFA
FFFC
0003
0001
FFFD
0003
FFFF
0001
0002
FFFE
0003
FFFF
0003
0003
FFFF
0002
FFFA
FFFB
FFF8
FFFB
FFF6
FFFF
0000
0002
FFFA
0006
0000
FFFF
FFFB
0005
0000
FFFF
0019
0015
0007
0002
0009
FFF4
FFF5
0000
0044
0033
0017
0052
0062
0000
0002
0002
FFF3
FFE9
000D
FFDB
FFCF
0004
0004
FFFB
FFFF
000D
FFFB
FFEC
FFF1
FFFF
0001
FFFC
FFFE
0004
0005
FFFE
FFFF
0000
0001
FFF4
001C
0023
FFF1
FFF6
0000
000A
000B
000E
FFEF
FFF8
FFFB
FFF4
FFF6
FFE6
FFF0
0009
000A
0006
FFFE
0005
000A
FFEA
FFED
FFE9
FFF7
FFDA
001C
0027
0024
0020
0015
0002
0017
0004
FFC9
FFF3
FFF3
FFFF
0005
0014
0016
0029
FFD8
FFF1
0002
FFE7
FFFC
0042
001D
FFF9
000B
FFE4
FFDB
0004
0000
FFF4
FFF0
FFE0
0006
000F
0014
FFEC
FFEE
000C
0013
FFF6
0002
0004
000E
0023
0024
FFF2
FFDB
FFEE
0011
FFFB
FFFC
FFF2
FFF7
FFF4
FFE4
0003
0032
0004
FFF2
0000
FFFF
0003
FFFA
0003
000B
FFFC
FFF8
FFFA
FFF6
FFF6
0023
0023
000A
FFED
FFF7
0001
0005
FFEF
FFEA
0000
000C
000A
0005
FFF7
FFF9
000E
0025
0029
FFFC
FFE7
FFE1
FFFD
FFFB
0003
0007
0024
0026
FFF1
FFE3
FFF9
FFF9
FFFD
002E
0037
003C
000B
FFE5
FFFF
FFFD
0005
0012
0007
0035
0026
0023
FFF9
FFF9
FFFE
003A
0047
003D
0036
0012
0003
FFFE
0000
000C
0010
001D
0022
0020
FFFE
0000
0001
FFFE
0002
FFFE
FFFD
0002
0000
0000
0002
FFF9
FFF6
FFF7
FFF7
0002
0002
FFFF
0004
0003
FFF9
FFFB
0000
FFFF
0001
0003
FFF8
FFDB
0004
0015
0031
0032
0002
FFFD
0000
001D
0025
001F
0011
0018
FFFB
FFFD
0013
004D
0010
FFEB
FFFA
000A
0003
FFFD
000D
000F
FFFD
0003
FFF6
FFF6
0001
0003
0000
FFF8
FFF2
0001
0000
FFF9
0003
0002
FFFA
FFFA
FFF9
FFFA
0006
0004
FFF7
0001
FFEE
FFE2
FFFD
FFFD
000D
000B
001F
001B
FFF5
FFE2
0008
FFF0
FFF7
FFFD
001F
001E
000D
FFFD
FFF8
FFFE
FFE1
FFDA
001C
001A
0003
FFF5
FFF9
FFDF
FFF6
0002
0020
001B
0008
FFDC
FFEC
FFF3
FFFD
0001
FFEA
FFF0
FFEA
FFF3
0004
0017
0011
0014
001E
0018
0002
000A
0007
FFF3
FFEF
FFEB
0039
0033
0013
FFFE
FFBB
FFD1
0003
000A
FFF4
FFFC
0000
FFF3
0015
000D
FFFB
FFFB
0004
FFFC
FFFE
0002
0005
0001
0002
0000
FFFE
0000
FFFB
0003
000B
0005
FFFF
FFFD
0002
0000
FFFE
0000
FFFD
0001
0002
0002
FFFE
FFFF
0005
000C
FFF6
0003
0001
0006
0000
0002
FFFB
FFFE
FFEB
0000
0007
000A
FFFC
0001
FFFD
0000
0005
0003
0001
0001
0007
0004
FFF4
FFD5
0001
FFFF
FFF6
FFF9
FFF9
FFFB
000B
0051
002E
000C
004B
004D
FFFD
FFFC
0003
0041
0041
0035
001B
000E
0000
0000
0000
000A
FFFF
0001
0001
0003
0002
FFFF
0002
0008
0000
0003
0003
FFFD
0000
0000
FFFF
0000
0005
000C
000C
000A
0003
FFFF
0002
FFF6
FFF7
FFF6
FFFD
0000
FFFB
FFFF
0000
0016
001B
001A
0009
0009
0002
0000
0000
0013
002D
000B
FFED
FFF4
FFFF
FFFE
FFF2
FFFA
0026
0028
FFFD
FFEF
FFFD
0001
FFFE
FFFB
FFFD
0008
FFFE
FFF5
0005
0001
000E
FFF6
FFE0
FFF7
0003
FFFC
FFFC
FFF9
FFF9
0006
FFFE
FFFC
0008
0009
0003
FFFC
FFEB
FFF0
FFEA
FFEC
001A
0021
000F
0012
0010
FFEC
FFDB
FFF4
0005
000A
0025
0025
0001
FFF7
FFD6
FFC0
0007
001F
0021
0014
FFFD
FFEA
FFEC
FFF4
FFFB
FFFA
FFD9
FFDA
FFF5
000F
0020
0019
0013
000A
FFBD
FFC4
FFF7
002B
002D
0020
0011
000B
0045
0038
FFF7
FFDE
FFDD
FFDA
0000
FFF8
0047
003C
0009
FFCB
FFBE
FFD3
000D
001A
FFFC
FFF4
FFF6
FFF0
0028
0005
FFF9
FFFB
0003
0002
FFFE
0010
FFFA
0003
FFFB
FFF2
0000
0002
0005
FFF8
FFDD
FFFE
0013
0013
0004
FFFF
FFE9
FFD9
FFF0
0006
002E
0035
0001
FFFF
0002
FFFD
FFFF
0001
FFFE
0004
000D
0004
FFE9
FFF6
0001
0008
0012
0008
FFFA
FFFE
0010
0035
0015
FFF8
FFD4
FFD7
FFFB
FFFC
0016
001E
FFED
FFFA
FFEE
FFDF
FFFB
FFF9
0003
0049
003F
0065
003B
001C
0004
0004
0001
FFC6
FFBC
FFCA
FFCB
FFE0
0003
FFFF
0000
FFEF
FFF1
FFF4
FFFF
FFFE
0004
FFFF
0000
FFFF
0002
FFFD
0003
FFFE
0001
0000
0001
0005
0003
0002
0001
0001
0000
0000
0000
0001
FFF0
FFEC
FFE9
FFEC
FFFF
FFFE
FFFB
FFF8
0017
0018
0005
000A
0002
0001
0002
FFE1
FFD6
FFE1
FFFA
0003
FFF7
FFF9
FFF9
0021
0021
001E
0009
0003
0001
0000
0001
0002
FFFE
0001
FFFE
FFFD
FFF2
FFF5
0008
002A
001A
0006
FFFC
FFFD
FFF8
FFF5
FFE5
001C
0012
FFFE
0017
001A
FFFF
0004
FFF6
FFF9
0017
FFFC
0000
000A
FFFF
0001
0020
FFF2
FFD7
FFE4
0012
0022
FFEE
FFED
0002
000F
0019
0015
FFFD
FFF1
0016
0012
0017
FFF3
FFE0
FFDA
FFFC
0007
FFC3
FFCE
0006
003B
001D
0020
0014
0014
FFBD
FFCA
FFF6
0010
0028
002F
001D
0016
003D
002E
0013
FFE2
FFD6
FFF1
FFEE
FFE8
0032
0025
FFE5
FFE5
001E
000B
FFE7
FFE6
0003
FFF2
FFF4
000B
FFEB
FFFE
000B
0007
0005
0001
FFF9
FFEE
FFF4
0004
0009
0005
0001
0001
0000
FFF2
FFFE
0005
FFFF
0003
FFFC
FFFF
0009
0000
FFF5
FFF7
0008
0008
000A
000F
000B
FFDE
FFC7
FFE6
0001
FFFF
000E
0008
FFF5
FFC8
FFDF
FFFB
0021
0029
FFF4
FFF9
000F
0032
0017
0012
FFE9
FFDE
000D
000C
FFF9
FFCF
FFBF
FFD8
0025
0038
0011
000D
0006
FF7F
FF82
FF70
FF9A
FFC3
FFF9
FFFA
0006
005E
0056
004D
003B
002D
0000
0000
0000
FFFD
FFFB
FFFE
FFFD
FFFD
FFFC
0001
0000
0003
0001
FFFD
FFFF
0000
0002
FFFF
0002
0005
0002
0003
FFFE
FFFD
FFFF
0000
0000
FFF5
000A
0005
FFEE
FFED
0001
0000
0001
FFEE
FFFB
FFFD
FFEF
FFF3
FFFD
0002
FFFD
FFFB
FFFD
0001
0001
0003
0004
0005
0008
FFE8
FFCE
FFE4
0003
0001
0000
0000
0002
0004
0007
FFFC
FFFF
FFFE
0005
0004
FFF1
0002
0003
0004
FFFD
FFFC
FFEC
FFF3
FFFF
0011
0029
0018
0001
0004
0001
0006
0007
FFE4
FFF3
0003
000A
0001
0007
0009
000F
000C
0006
FFE8
FFF8
FFF5
FFEA
FFE6
FFF1
0012
0022
001C
0009
0005
0014
001C
0011
FFDD
FFE5
0000
FFE8
FFE9
002A
002B
0004
FFDE
FFDB
FFD4
FFF0
FFF7
0028
0023
FFFB
FFDA
001B
FFFB
FFDC
FFDA
0023
0019
0005
FFCC
FFEC
0015
FFF6
FFEA
0014
0014
0006
FFF3
FFE9
FFEF
0005
0008
0003
0003
0009
FFF9
000B
0008
FFF2
FFED
FFF6
FFF2
0000
002C
0019
FFF5
0000
0008
FFFD
FFFD
0016
001F
0006
FFE8
FFEC
0001
0002
FFFE
0002
0017
000E
0002
FFEE
FFEA
FFE9
FFE9
0012
004A
FFEE
0021
001B
0010
0008
0006
FFFB
FFE5
FFE7
FFE7
0005
0002
0010
000A
FFE9
FFA2
FFD4
FFFC
001B
0020
0010
000B
FFF6
FFDB
FFD3
FFBC
FFF3
000A
FFF1
FFF4
0003
007F
0067
005C
0051
003F
0004
0000
0000
FFCC
FFD0
FFDB
FFEE
FFF4
0002
0000
FFFE
FFFE
FFFD
FFFF
FFFD
0002
0002
0000
FFFE
FFF2
FFFE
0003
FFFD
0000
FFFF
0000
0000
FFFF
FFFF
0002
0000
0001
0002
FFFF
0002
0005
000B
000B
000A
0008
0001
0000
0000
FFF2
FFF7
0006
0008
0004
FFFD
0001
FFFF
FFFC
0007
0004
FFFC
FFFC
0000
FFFF
0004
0000
FFF2
000E
FFFF
0002
FFF7
FFF9
0015
0021
0015
FFF9
FFF5
FFF6
000D
0007
FFE3
000E
0023
FFF4
FFE8
FFF2
FFFA
FFF7
FFF3
0008
FFF9
0010
001B
001B
FFFB
FFF9
FFFA
0017
0014
FFFD
0005
000B
FFFB
FFFE
FFFB
FFE7
000D
0018
FFFE
FFFA
FFE3
FFEF
0014
001B
0028
0008
FFF3
FFF7
FFE2
FFE2
FFE8
000F
0016
002C
0021
0017
FFE9
FFE7
FFE0
0021
000F
000B
001E
001F
000E
0013
000F
FFF5
FFEB
FFED
FFFC
FFFF
0004
0007
0004
0005
FFFA
0007
FFF7
FFF1
FFF3
FFF1
FFE4
0014
0025
001A
FFFA
FFEA
FFF9
FFF7
FFF9
0009
001B
FFFE
0001
0002
FFFB
FFFE
FFFD
FFFE
001C
0001
FFFB
FFFF
0007
0003
FFF2
001F
0013
FFE0
FFEF
FFFF
0006
0003
FFFB
FFF7
FFE6
FFF0
000F
001C
FFF3
FFF4
0018
0035
0021
FFF5
FFEB
FFF1
0009
0003
FFE5
FFF8
000D
0014
000E
FFFB
FFF3
FFF1
FFF3
0032
001F
0032
001E
0010
FFE7
FFED
FFFB
0046
0087
008D
000D
FFF9
FFF7
FFFB
0002
0034
0056
0061
004E
0038
FFFD
0000
0001
000F
0014
0011
000B
0000
0002
0000
FFFD
0006
000B
0005
0001
FFFD
FFFF
0001
FFFE
0000
0001
0000
0003
0000
FFFF
0000
0002
0000
0000
FFFD
FFFD
FFFF
0000
FFFF
0001
FFD7
FFDE
FFF4
0011
000E
0002
FFFE
FFFD
0029
FFF1
FFC7
0001
0014
FFFE
0001
FFFE
0002
FFFC
FFFC
0001
0001
FFFF
FFFE
FFFE
0020
0005
FFDA
0000
FFFF
0000
FFFE
0001
0004
0003
0000
0001
0001
FFFD
0002
FFFD
0001
0005
FFFC
0000
0004
0009
0007
000B
FFE6
FFD7
FFE8
FFFF
0005
FFFC
FFFA
0006
0023
0001
FFFF
FFF8
FFF1
0011
000F
FFF0
FFE9
FFE7
0002
0009
0012
FFEA
FFED
FFF2
0015
002D
003C
FFF5
FFDC
0013
000C
FFF7
FFF1
FFF6
FFF9
FFFE
FFFA
0010
0010
0003
FFEB
FFF2
FFF3
0003
000A
001B
0017
000C
FFEE
FFE2
FFE3
0004
000F
FFE6
FFE0
FFE0
0039
0031
FFFB
0004
000C
0017
0022
0012
FFE8
FFCC
FFE2
0006
000E
0003
0005
FFEB
0013
0027
FFF8
FFF7
FFFC
0007
0006
FFEF
FFEC
FFF5
000C
0006
0003
FFFF
0002
0010
FFEE
FFE7
FFFA
FFFF
FFFB
FFFE
FFFE
000E
000F
0003
FFF1
FFFD
FFFD
FFF3
FFF1
000C
0028
0028
0016
FFF3
FFEB
FFF1
FFF6
0018
0026
0033
001B
FFE8
FFE4
0010
000E
0002
FFBD
FFD5
FFD5
FFF4
0000
FFF1
FFF5
000F
004C
0044
0034
FFEA
FFDF
FFFC
0000
0002
003A
001E
003C
002E
0024
0001
0000
0001
FFF8
FFF2
FFF0
FFF2
FFFA
0000
0000
0000
0001
FFFF
FFFF
0000
0002
0005
FFFF
FFFF
0003
0003
0002
FFFD
FFFE
FFFD
0001
0001
FFFD
FFFE
0000
FFFF
FFFE
FFFD
0002
FFFC
FFEE
FFE7
FFF3
FFFB
FFFC
0003
0000
0002
FFEA
FFEE
FFD5
FFD9
FFE9
FFFC
0002
FFFF
0006
0007
0006
000B
000C
FFFE
FFFE
0007
000B
FFF3
FFEC
FFF6
FFF4
0009
0007
FFF7
FFE7
FFF0
FFF8
000E
000B
FFFE
0004
002C
FFF0
FFE7
FFE0
FFF5
FFFA
0000
0001
FFF9
0001
FFFC
FFEE
000D
000C
0005
0008
0002
FFF2
FFDC
FFE4
0013
0016
0010
000F
0008
FFD4
FFDD
FFEE
0005
000B
000E
0008
FFE5
0003
000B
FFFE
FFFB
FFF2
FFEB
FFEB
0004
000F
0004
001C
0008
FFFB
FFF1
FFF7
000F
0011
FFFE
0007
FFF5
FFF0
FFF0
FFF1
FFF9
0008
FFF7
001C
FFFD
0000
002A
0029
0022
FFEB
FFC4
FFE8
FFF1
FFF3
FFC7
FFCF
0019
003F
0044
000A
FFF2
FFEE
0018
0017
FFE0
FFD3
FFE1
FFFC
000E
0004
0016
0011
000F
FFF6
FFD7
FFC5
0014
0031
000C
0008
FFE6
FFDF
000C
FFF1
0011
0011
FFEB
FFEC
FFFA
0027
0025
000B
0004
000C
FFEE
FFEE
FFFF
0032
0034
0022
0007
0003
FFED
FFF2
0012
0028
002B
001E
FFF3
FFE8
000F
0011
FFF1
FF9C
FFB2
000D
000E
FFFE
FFFD
FFFE
0006
0028
001B
0019
000C
FFFD
0001
0002
FFFD
FFD5
FFF9
0006
FFFE
FFF0
FFFF
0000
0002
FFFA
FFF7
FFFC
0000
0001
0004
FFFF
0001
0003
FFFE
FFFE
FFFE
0000
FFFE
0001
FFFC
0002
FFFE
FFFE
0003
FFFE
0003
FFFF
0000
0005
0002
FFFE
FFFF
0000
0001
0000
0002
001B
0005
FFFF
FFF5
FFFB
FFFD
0001
0001
001F
0018
000F
0002
FFFB
0001
FFFF
0001
0007
0017
0019
FFFC
FFF9
FFFE
FFFF
FFFB
FFFE
FFDC
FFFD
000F
0010
0003
0005
FFF5
0020
0024
0009
FFF4
FFE6
FFFF
FFFF
FFFF
0001
FFF7
0004
0002
0001
FFFF
0002
FFFC
FFFF
FFFF
FFFE
0002
0003
0001
FFFF
0003
0003
FFFE
FFF4
0002
FFFE
000A
0003
0002
FFE7
FFFF
FFFA
0002
0008
FFF2
FFF6
FFF4
0004
0012
0022
FFFE
FFF5
FFEC
FFEB
0000
002F
0036
000A
FFE9
FFF0
FFED
FFEF
FFEA
001A
0018
0018
FFFC
FFE9
FFEB
FFEC
FFFC
0007
FFF8
0025
000F
FFFC
FFCD
FFD2
0001
001D
0031
003D
FFFA
FFED
002E
0021
FFE8
FFCC
FFCD
FFE9
000C
0017
001B
0016
000B
0004
FFD4
FFDE
FFF7
FFFC
FFD6
FFE2
0021
0052
0042
000A
FFEF
FFFB
001B
0015
FFFD
FFE5
FFDE
FFD8
0001
0009
FFE1
FFEC
0008
0013
0050
002B
FFFF
FFF4
0010
000B
FFF9
0008
FFDE
FFE4
FFF3
FFF9
0012
0012
FFED
FFA7
FFC3
FFFC
0005
FFFF
000F
000D
FFF7
FFF3
FFCB
FFCD
FFF1
0003
FFFA
FFFB
0005
003F
002E
0007
0003
0008
FFFF
FFFF
0004
0015
0004
0016
0019
0007
0000
0001
FFFB
FFF7
FFFA
FFFC
FFFF
0000
FFFC
0001
0000
0001
0000
0001
FFFF
0000
0001
0000
FFFF
0001
FFFE
0002
0001
FFFF
0003
FFFE
FFFF
0002
FFFE
FFFE
FFFE
0002
0000
0000
0001
FFF1
FFF8
FFF7
FFFE
0000
0002
FFFF
0000
FFF9
FFF1
FFF0
FFFB
0006
FFFD
FFFF
0007
0008
0007
0004
000A
000C
FFFD
FFFE
0006
0007
FFF5
000A
001E
0014
0006
0002
000E
0000
FFDF
FFE0
FFFA
FFFC
FFFA
FFFA
FFEF
000D
0020
001E
0011
000E
0006
0001
0010
000B
FFF5
FFEF
FFF7
FFF4
FFFC
FFF6
FFF7
0003
FFE6
0007
0010
000E
FFF6
FFF6
000A
FFEF
FFFB
0007
000E
0007
0004
0003
FFFF
0008
FFFA
0005
FFF8
FFF9
0008
0004
FFF4
FFFC
FFFD
0002
0000
FFF9
000B
0017
0007
FFD4
FFC7
FFE8
0015
0026
0002
0000
FFFD
0001
0001
FFFB
0005
0003
0007
0004
FFF5
FFEA
FFE6
000E
0009
0005
FFF6
FFFA
001F
0022
0010
000A
FFE2
FFD9
FFE2
FFE5
0021
003D
0033
0006
FFE9
FFE3
001C
0016
0003
FFCB
FFC6
FFDF
0004
000D
0027
001D
FFE9
FFE1
FFEC
FFD2
FFEA
FFF4
FFE3
FFEB
0017
0050
0046
0030
FFF4
FFEB
FFF0
FFEF
0009
000E
0014
0036
000F
0002
FFF3
FFF8
0029
005C
000E
FFEE
FFE4
FFDE
FFFA
0000
0004
0002
FFF7
FFF3
FFFC
FFFA
FFFC
0000
0006
0010
0005
0004
0005
0003
FFFF
0001
FFFE
FFDE
FFF2
FFFD
0002
0003
0005
FFFF
0000
FFFB
FFFE
0000
0004
0000
FFFE
0000
0001
FFFC
FFFF
0001
0000
FFFD
FFFF
0000
0002
FFFD
0003
FFFE
0003
0000
FFFD
0001
FFFF
0002
0001
0003
0002
0000
0003
FFFF
0001
FFF4
FFF8
FFFA
FFFD
FFFF
0000
FFFF
0002
FFE3
FFD7
FFD7
FFDB
FFEC
0002
FFFE
0005
0006
0009
0005
0000
0001
0004
0000
FFFC
001B
0013
0010
0013
001A
FFFC
FFFE
FFFF
0006
000F
001C
001A
0015
0006
0004
0000
000D
001C
0015
FFEA
FFDA
0001
FFFC
FFEC
0008
0011
0011
0000
FFFD
FFFB
FFF4
FFEB
0007
0037
000B
0003
0008
FFFF
0000
FFF7
FFEB
FFED
FFE8
0010
0013
FFFE
0001
FFFA
FFFA
000B
0001
FFFC
FFFC
FFF7
FFFA
0007
0001
000A
0009
0007
0007
0007
0003
FFFB
FFFA
FFF1
FFFE
0009
0009
FFFD
0000
0000
0000
FFFE
0003
0000
FFFE
0003
0000
FFEA
FFF7
002D
0014
FFF1
FFEF
FFED
FFEA
000D
002E
004B
003B
FFD8
FFC7
FFF3
FFF3
0001
0015
001B
0007
FFFD
FFFB
0010
000D
0008
0013
0012
FFD1
FFDC
FFE9
001A
0015
0013
FFE5
FFDD
FFC5
FFCB
FFD7
FFE9
FFEC
000B
0021
003A
0035
001F
0016
000C
0007
FFEB
FFD2
FFE4
FFF9
FFEF
FFEB
FFFC
FFFF
0008
0008
0006
0004
FFFE
0000
FFFC
FFFF
0006
0010
FFF4
0007
000F
0009
0001
0000
0000
0000
0004
000A
000A
0005
FFFF
0000
0000
0007
000D
000D
0013
000F
FFFE
0000
0003
0006
FFFD
FFFB
0001
0001
FFFC
0001
0002
FFFF
0001
0001
0002
0001
0001
FFFF
0003
FFFE
0000
0002
FFFD
0000
0001
0000
0001
0003
0003
FFFF
0003
FFFF
FFFF
0000
0002
000B
0001
0003
0001
0001
0001
FFFF
0001
FFC4
FFC1
FFD7
FFED
FFF3
0005
0003
FFF7
FFFC
FFD6
FFA2
FFA5
FFB8
0005
0008
0008
FFBD
FFBF
FFAF
FF9B
FFA7
0000
0005
0001
000F
002F
FFC5
FF8D
FF99
0007
0004
0005
FFFD
FFEC
FFC7
FFCC
FFDE
FFFA
FFFE
FFF6
FFF4
0016
0016
0027
003E
0006
FFFF
FFF5
0008
0017
FFF9
FFE5
FFDB
FFFB
FFFC
FFF9
0001
000D
0028
0019
0010
FFFE
FFFC
0006
0002
0008
0007
000E
000E
0004
0001
FFEF
FFEB
000E
0013
FFF6
FFE7
0000
0000
0005
0000
FFFB
0005
FFF8
FFF7
FFFA
0001
0010
000C
0015
FFF6
FFE6
FFE6
0005
0008
0016
FFCE
FFD7
0000
0010
0005
0015
0013
FFE1
FFC1
FFD5
FFFF
001E
0026
FFFD
0002
0002
FFF7
FFEB
FFFB
000C
0005
000B
000E
0013
FFD6
FFC4
FFDE
FFFD
FFFF
0001
FFFF
0003
FFFD
0002
FFFD
0002
FFFD
FFF1
FFF5
0021
0053
0039
FFFD
FFDB
FFDB
0000
0002
FFF6
FFFF
000B
0010
FFFE
0002
FFFC
0001
0000
000C
0005
FFF2
0013
0014
FFFC
0001
0009
002B
0000
FFB5
FFC8
FFD2
0001
FFFF
0004
FFFF
FFFC
0000
0003
0005
0003
FFFF
FFFF
FFFA
FFFC
0001
0001
0000
0000
0000
0002
0006
0004
0001
0001
0002
FFFD
0001
0000
0000
FFFF
FFFD
FFFD
0001
0003
FFFF
0000
FFFD
0002
FFFD
0003
FFFE
FFFD
0001
FFFF
0003
0002
0003
0002
0000
0002
0000
FFFF
FFFA
0001
0001
0000
FFFE
FFFF
0001
FFFE
000D
0011
0008
FFF4
FFF9
FFFC
0000
0001
0016
0016
0014
0012
000D
FFFE
FFFF
FFFC
004B
0063
0049
002E
0033
0002
0007
FFFD
FFBF
FFC9
FF98
FFBD
FFC6
000A
0009
0003
FFCA
FFC6
FF96
FFA5
FFBE
0010
0012
000F
FFA7
FFC2
FF8C
FF92
FFAC
FFEF
FFEF
0004
0029
002E
0037
0054
004E
0016
000E
FFEC
FF9E
FFD6
FFD7
FFE7
FFF4
000B
000A
FFFC
FFD8
FFE5
FFCC
FFCA
FFD5
FFED
FFF0
000A
0039
002C
004A
002B
0019
0005
0004
0007
FFEA
FFF5
FFE4
FFCF
FFDB
FFFF
FFFE
0007
FFFF
0008
0010
001F
0020
FFFD
0001
0001
0000
0008
0002
0012
001B
0006
0005
0001
FFEE
FFED
FFF8
FFD0
FFC7
FFFA
FFFE
000F
000B
FFF6
0025
0025
0017
0004
0003
FFFF
FFE0
FFE1
FFDA
FFDE
FFDC
FFFC
FFF6
FFFB
002F
0025
0045
0049
0039
0008
0009
FFF9
FFE1
FFBB
FFBE
FFBD
FFBA
FFFD
FFFB
0002
FFFF
001D
0071
005D
0055
0002
0002
FFF7
FFCD
FFCB
FFD1
FFF5
FFFD
0000
0001
FFFF
FFFA
0012
0026
0010
000C
FFFF
0000
0000
000F
0014
0017
0005
FFFF
FFFC
0002
FFFE
0001
FFFB
FFFB
0003
FFFF
0003
FFFF
0001
0002
0002
0002
0000
0002
FFFF
FFFF
0003
0000
FFFF
0000
0002
0002
FFFF
0000
0000
0002
0002
0003
0001
0001
FFFF
0001
FFFD
0000
0000
0002
0001
0003
0002
0000
FFFE
0000
0003
FFFF
0001
0003
0001
FFFF
0004
FFF6
FFFD
FFFE
0002
0002
0001
FFFF
0002
0003
FFF6
FFED
FFF3
FFF3
0001
0000
0000
0018
001F
0010
FFF3
FFF4
FFFE
0002
FFFD
FFB5
FFC4
FFF3
0002
FFFE
0003
0003
FFFF
FFAA
FF96
FFBA
FFC8
FFCD
0003
0004
FFFE
FFB0
FFB3
FFD0
FFBB
FFBD
0008
0004
FFFF
FFB8
FFAA
FF86
FFAB
FFC9
FFF3
FFF4
000B
0070
005B
0065
0074
0060
FFF1
FFF5
0004
0066
0064
005D
0071
006B
0010
000F
FFFA
FF57
FF63
FFAA
FFBC
FFD0
000E
000C
FFF6
FFD1
FFA0
FF52
FF6D
FF9C
0018
0015
FFFD
FFAA
FF64
FF50
FF7C
FF8F
FFEA
FFEC
000D
00BC
0092
0054
0042
002D
000E
000C
FFF9
FFB9
FFC7
FF8C
FF5E
FF72
FFEF
FFF3
0008
0061
0083
0061
0073
006A
FFF1
FFF3
FFFE
0062
0077
009C
0072
004E
0009
0006
0003
FF93
FFA7
FF93
FF94
FFA6
FFFB
FFF9
0004
0055
006B
0078
007B
006A
FFFC
FFFB
0004
0053
0054
0065
005C
0054
0003
FFFF
0000
FFE1
FFF7
FFF8
FFF9
FFFA
0000
0000
0000
000D
0006
000E
0001
FFFD
FFFF
0001
FFFF
0002
0002
0002
FFFD
FFFF
0000
0000
FFFF
FFFE
0003
FFFD
0003
0003
0000
0000
0001
FFFE
0002
FFFE
0001
0003
0001
0000
0000
0000
0003
0003
0001
0002
0000
0001
FFFD
FFFF
0001
FFFE
0002
FFFD
0001
0000
FFFD
0000
0002
0001
0001
0001
0003
FFFF
0000
FFFE
0000
FFFF
FFFE
0001
0000
FFFF
0003
0003
0002
0002
0002
FFFF
0000
0001
FFFE
FFFF
FFFF
0000
0001
FFFD
FFFF
0000
FFFE
0006
0008
000F
000E
0005
FFFC
0002
FFFD
FFFD
0001
FFFF
FFFD
0001
FFFF
0000
0001
0005
0003
FFFF
FFFA
FFFF
0002
0001
FFFC
000B
000A
000B
0000
FFFF
FFFE
0000
0004
000A
0005
0009
0009
0003
0003
FFFE
0003
FFEE
FFDC
FFEA
0000
0002
FFFF
FFFF
0002
FFED
FFEA
FFE5
0003
0000
0003
FFFF
0002
0008
000D
000E
0006
0005
0000
FFFF
0002
0009
0005
0000
FFF9
FFFC
FFFE
0001
FFFF
0039
002A
001B
0006
0007
0000
0000
FFFD
FFD6
FFDB
FFF6
0024
0010
FFFF
0000
0002
0000
000B
0009
000E
0001
FFFE
0001
FFFD
000B
0008
0002
0006
FFFC
0004
FFFE
0002
FFE8
FFE9
FFF2
FFFC
0007
FFFD
0001
FFFF
000F
0004
0009
0004
0007
FFFF
0000
FFFF
FFFF
0007
0009
000E
0004
FFFF
0001
FFFE
FFFF
0000
FFFE
FFF9
FFFF
FFFF
0000
0000
FFF0
FFF1
FFF8
0007
0001
0003
0000
FFFD
FFFB
FFFF
FFFD
0001
0003
0001
0001
FFFB
FFFE
0003
0002
0003
0002
0002
FFFF
0002
FFFD
FFFF
FFFF
0001
FFFD
0000
0000
FFFF
0001
0003
0002
FFFD
0002
FFFF
0000
0002
FFFF
FFFD
FFFF
0001
0001
0000
FFFF
0003
FFFF
0002
FFFD
FFFF
FFFE
0002
FFFD
0000
FFFE
FFFE
FFFE
0001
0000
FFFF
0001
FFFE
FFFE
FFFE
0000
0000
FFFE
0005
0002
0001
0002
FFFF
FFFF
0002
FFFF
FFFE
0000
0000
FFFF
0000
0003
FFFF
0002
0005
0003
0003
0003
0001
0001
0002
FFFE
FFFB
FFFB
FFF9
FFFF
FFFD
FFFD
0001
0003
FFFE
0004
0001
FFFD
0002
FFFE
FFFF
FFFE
FFFC
FFFE
FFFC
0001
0000
FFFF
0003
0000
0001
0003
0004
FFFF
0002
0000
0002
0003
0001
0006
0006
0000
FFFF
FFFE
0000
0001
0000
FFFF
0002
0002
0000
FFFE
0001
FFFE
FFFA
FFFD
FFFB
0001
0003
0002
0001
0001
0004
0006
0003
FFFE
0003
0001
0001
0000
FFFF
FFFC
0001
0003
0001
0000
FFFD
FFFF
0003
0006
0002
0001
0003
FFFD
0002
FFFF
0004
0002
0002
FFFE
0001
FFFE
FFFD
0003
0006
0005
0002
0000
FFFD
FFFE
0000
0000
0002
FFFF
0003
0000
0003
FFFF
0003
0000
FFFC
0001
0000
FFFE
FFFF
0000
FFFF
0002
FFFF
FFFC
FFFC
FFFE
0003
0001
FFFE
FFFF
0003
FFFE
FFFF
0002
0001
0003
FFFE
0001
FFFB
FFFB
FFFE
0002
0002
FFFE
0003
0000
0001
FFFF
0005
0000
0003
FFFD
0000
0001
FFFA
FFFD
FFFC
0002
0003
0001
FFFD
FFFF
0004
0003
FFFF
FFFF
FFFF
0002
FFFE
FFFD
FFFE
0003
0002
0001
0002
0000
0002
0002
0006
0004
0000
0002
0002
0001
FFFD
0002
FFFE
0000
0001
FFFD
FFFF
FFFD
FFFE
FFFF
0006
0004
0006
0003
0002
0000
0002
FFFF
0000
0000
0001
0003
FFFE
FFFD
0002
0001
0001
FFFF
0002
FFFF
0001
FFFF
FFFE
FFFE
0001
0000
0000
FFFE
FFFF
0003
0000
0002
0002
0003
0004
0001
0000
0003
0000
0001
0001
FFFE
FFFD
0001
0007
FFFD
FFFE
0001
FFFF
0000
0002
0002
0006
0008
000A
0004
FFFD
0000
0001
FFF2
FFF3
FFF4
FFFB
FFF9
0000
FFFA
FFFE
FFEE
FFF4
0000
000C
0007
FFFF
FFFF
0003
FFFB
FFF4
FFFB
0002
0001
0003
FFFF
0001
000D
0009
FFFC
FFF9
0000
0001
0000
FFFF
FFFB
FFFD
FFFB
FFEC
FFF8
FFFE
0001
FFFE
FFF5
FFFB
FFFB
0000
FFFC
FFFF
0001
FFFF
0005
FFF6
FFFA
0002
0009
FFFE
0001
FFFE
000B
0007
0006
FFFA
FFFB
0000
FFFB
0000
0012
0002
FFF7
FFF6
FFFB
0003
0000
FFFE
0006
0007
FFFB
FFFD
0004
0004
0004
0000
FFFE
FFF9
FFE2
FFE1
FFF4
0006
0003
0005
FFE3
FFEF
FFF8
FFFB
FFFF
0000
FFFF
0002
0000
FFFD
FFFA
FFF9
0001
0004
0002
0004
FFFB
0003
FFF9
FFF9
FFFA
0002
FFFF
0002
FFFE
FFFE
0000
0004
0001
0000
0000
0001
0002
0002
0003
0003
FFFF
0000
0000
0001
FFFE
0001
FFFF
0001
FFFE
FFFA
FFFB
FFFB
FFFD
0002
FFFF
FFFF
0003
FFFD
0001
0000
0003
0003
FFFF
0001
0003
0002
FFFF
0001
FFFF
0001
0001
0001
0001
0002
0006
0002
0002
0002
0001
0002
FFFE
FFFF
0001
FFFE
0002
0001
FFFF
0002
0001
0002
FFFD
FFFC
FFFD
0001
0001
FFFF
0000
0000
0001
FFFE
FFFB
FFFF
0000
0000
0000
FFFD
FFFC
FFFB
FFFE
FFFE
FFFD
FFFE
0000
0001
0001
0004
FFFA
FFFE
0000
0002
FFFE
FFFF
FFFC
0001
0007
FFF5
0005
0007
0005
0004
FFFE
0001
FFFC
FFFB
FFF7
FFF9
FFFE
FFFE
0001
FFFD
FFFB
FFFC
FFE8
FFF8
0001
0005
0004
0005
0000
FFFD
FFFD
000C
0019
0003
0000
FFFE
0018
001F
0003
FFF8
FFF6
0002
FFFE
0003
FFF9
000F
FFEF
FFE5
FFE9
FFFD
0000
0002
000D
0002
FFF3
0004
0012
FFF9
FFF7
FFFB
FFFB
FFE0
0023
0037
0022
FFF5
FFFC
000D
0049
000F
002A
0013
FFFD
FFF7
FFF4
FFFD
002F
0019
002B
002A
0025
FFF7
FFF5
0000
0043
0024
001A
0023
001B
0002
0006
0000
FFF0
FFF1
FFE6
FFE3
FFE7
FFF8
FFFC
FFF9
003B
001B
0002
FFFE
FFFA
FFFA
FFF8
FFFA
0005
0027
000F
0015
0025
0007
0007
0005
FFF7
FFE3
FFD8
FFE6
FFEB
FFFB
FFFB
0000
0026
000A
000E
0029
0025
FFFA
FFFC
FFFE
000D
000E
0018
0020
0017
0003
0000
FFFE
FFFB
FFF2
FFED
FFEA
FFFA
0005
0007
0006
FFF2
FFF5
000D
000A
000A
0000
FFFE
FFFF
FFF3
FFF1
FFF4
FFFD
FFFD
0001
0000
FFFF
FFFF
0001
FFFF
FFFD
FFFF
0001
FFFF
0001
FFFE
FFFE
0003
FFFF
0001
FFFF
FFFF
0004
0002
FFFD
0001
FFFF
0002
FFFF
FFFD
FFFC
0003
0000
FFFE
0003
FFFD
0002
0006
0007
0006
FFFD
FFFF
0003
0001
0005
0002
0001
FFFB
FFFE
FFFF
0000
0003
FFFF
0000
0003
FFFC
FFFB
FFFD
FFFE
FFFD
0000
0001
FFFE
0006
0007
000D
000C
000D
FFFB
FFFE
FFFC
FFF8
FFE8
FFEE
FFE9
FFEE
0001
0000
0001
FFF9
FFF5
FFED
FFFE
0005
FFFF
0000
0007
0030
0046
0036
0015
0014
FFFB
FFFE
000C
0044
003F
002B
0022
0015
FFF9
FFFE
000A
0043
0032
001A
0047
0057
0006
0007
FFF8
FFA3
FF98
FFC5
FFD5
FFDD
0009
0006
000C
FFDD
FFC7
FF9B
FFC1
FFD0
FFFB
0001
0001
0001
0003
0018
0036
003D
FFFE
FFFB
000D
002E
FFE0
FFD3
FFDD
FFED
0002
0001
FFFA
FFF5
FFFC
FFFE
0006
FFFF
000B
0009
000B
FFED
FFBB
FFEB
0001
0001
FFF7
FFF8
FFFC
0016
001B
0015
FFF9
FFF5
0000
FFFF
0004
0006
0002
FFF7
0005
0010
FFFC
FFFE
0000
0014
001F
0009
FFFF
0002
0007
0008
0001
FFD8
FFF0
FFF8
000B
001E
FFFA
FFFA
FFF1
0007
000F
002A
0003
FFF1
0003
0003
0006
FFFB
FFF1
FFF1
FFED
FFE4
FFFA
FFF6
FFF8
002A
000B
0002
0007
0002
0000
0000
0001
FFD6
FFF3
0009
000B
000F
FFFE
0001
FFFF
FFF7
000B
000E
0006
0003
0001
0000
FFFF
0003
FFF7
0002
0000
0002
FFFD
FFF9
FFFF
0002
0001
0000
0000
0002
0000
FFFD
FFFE
0000
0001
0002
FFFF
FFFD
FFFD
0001
0000
0000
FFFD
FFFF
0000
0000
FFFF
0001
FFFE
FFF9
FFFF
0001
FFFE
0002
0000
0000
0001
FFF5
0002
FFFE
FFFE
0000
0003
0003
0000
0006
FFFD
0007
0011
0006
0002
0004
0003
0008
001C
000C
FFF8
0001
FFFF
0002
0003
001D
0012
001E
0011
000B
FFFB
FFFD
000D
005A
0064
003F
0019
001C
0008
0002
FFF9
FFD1
FFF2
FFB5
FFB4
FFBF
FFF9
FFF9
FFF0
0034
001E
0043
0074
0063
FFF4
FFF5
FFF8
FFDC
003C
0042
006C
008E
001B
0017
000C
FFC4
FFBF
FFB7
FFA0
FFA5
FFEE
FFEB
FFE7
003D
0059
0022
003E
0045
001C
0016
FFE4
FFA1
FFE3
FFE5
FFF8
0003
000F
000B
000D
FFC3
FFB7
FFE9
FFFD
FFFF
0001
0004
0012
001D
FFF0
FFB8
FFE6
FFFD
0008
0008
FFF6
FFCF
FFCE
0006
0007
FFFF
0001
FFFF
0007
FFF6
FFFC
0005
FFF0
FFEE
0005
0003
FFFD
FFF0
FFE9
FFF8
FFF1
FFEE
FFFC
FFFA
FFEC
FFE9
FFF8
0024
000B
FFFB
000C
000B
0002
FFE4
000F
FFF1
FFDE
FFEB
FFF7
FFF6
0003
FFFF
FFE1
001A
000C
000B
FFFF
FFFE
FFFB
FFF4
FFF6
0001
000F
000E
FFFE
FFFE
0008
000C
000C
0010
0010
000C
FFFF
FFFC
0000
FFF3
FFEE
FFE3
FFF1
FFF2
FFFF
FFFC
FFF9
FFCE
FFE3
0000
FFFD
FFF5
0001
0000
0001
0004
0007
0002
FFFC
0001
0002
FFFF
0001
0007
0003
FFFE
FFFF
FFFE
FFFA
FFFA
FFFF
0002
0003
0003
0001
FFFE
0002
FFFE
0004
0002
0000
0003
FFFD
FFFD
0004
FFFF
0001
FFFC
FFFD
FFFF
0003
0001
0000
FFFF
0005
000B
0004
000A
0011
000C
0000
0002
FFFF
0011
FFFC
000C
0005
FFFD
FFFE
0002
FFF6
FFDD
FFF2
000C
0005
FFFE
FFFE
FFFF
0004
001C
001A
0014
0010
000B
FFFB
FFFB
0010
0025
0001
0024
004F
0042
FFF2
FFF4
0010
003B
0011
0025
003C
003C
FFF2
FFF6
0019
0005
FFD8
0016
005A
005C
FFE7
FFEB
0004
002D
0038
002B
0030
0035
001A
0016
0021
0009
FFA5
FFBF
FFCA
FFD5
FFDE
FFE2
FFF5
0031
0042
0030
000F
000A
001B
0020
0012
FFCC
FFC1
FFD8
FFEE
FFF5
0020
001B
FFF8
FFCF
FFF1
0004
FFDF
FFDD
FFEE
FFEE
FFFA
0005
0033
0027
0006
FFF5
000B
000D
FFFC
001C
0000
FFD4
FFE7
FFF9
0012
0011
001D
FFF9
FFD5
FFD4
FFEE
FFF1
FFE9
FFEB
0000
0039
0041
001D
0004
0000
FFFD
FFFF
0005
000D
FFFD
0000
0004
0005
FFFB
FFFA
FFFE
0014
002F
001E
0001
0003
0001
FFFD
FFFA
FFDF
FFF1
001D
FFFA
FFF0
FFFB
FFFF
FFFD
FFDA
FFF7
FFF6
FFFF
FFFC
0003
0004
0003
FFED
0002
0011
0008
FFF4
0005
0003
FFF3
FFD2
0000
0021
FFE4
FFD2
FFFF
0002
FFFF
0029
004B
0053
0044
0030
FFFD
0001
FFFF
FFD4
FFD8
FFEA
FFFC
FFFA
0001
0001
0005
FFEE
FFF3
FFFE
FFFE
0001
0000
FFFF
0003
0000
FFFD
0002
0000
0001
FFFE
FFFC
FFFB
FFFC
0000
0003
0002
0002
FFFF
0000
0000
FFFA
0001
0001
0002
FFFF
0000
0000
FFFE
FFF7
FFF5
FFF1
FFEC
FFF7
0003
FFFF
0002
0012
0024
0025
0003
FFFA
FFFF
0002
FFF9
FFE5
FFF1
0006
FFE9
FFE5
0008
0003
FFF8
FFE8
FFF0
FFCB
FFE8
FFF9
000A
0007
FFFC
FFC3
FFE1
FFDA
FFD4
FFDA
0011
000E
FFF5
FFDF
FFC8
FFC4
FFD9
FFD8
FFEF
FFEF
0005
000B
001B
0033
0035
0031
001C
001B
0002
FFE3
FFD2
FFCF
FFDA
FFDC
FFD8
FFDF
0005
001D
0040
0029
001B
0015
002D
002A
0002
FFCC
FFBB
FFD1
FFF4
FFFB
FFD3
FFD8
FFD3
0026
003D
0048
001C
0008
003A
0037
0031
FFC9
FFA6
FFD5
FFE2
FFDF
0054
004A
0004
FFC7
FFB8
FFC9
FFED
FFF2
FFCA
FFD0
FFF1
0025
000E
002A
0027
0024
002A
0032
000D
FFD2
FFE6
FFE1
FFD2
FFD4
000D
0012
003B
0006
FFE1
FFCC
FFD9
FFDF
FFFD
FFF9
FFEF
FFFC
000D
0013
001C
0026
0005
000E
0029
FFD6
FFC1
FFD9
FFE8
FFDC
0001
FFFE
FFF5
0011
0009
0010
0016
0011
FFFE
0001
FFFE
0009
0003
FFFC
0000
0005
0000
0000
0006
FFF8
0005
0008
FFE4
FFDF
0000
0002
FFF4
FFF4
0036
003C
0026
0012
0002
0000
0004
001F
0036
003C
0032
0027
FFFD
FFFF
0006
001A
0015
0019
000C
000C
0001
0000
FFFF
000B
000B
0009
0006
0006
0002
0000
FFFD
0003
0003
FFFF
FFFE
FFFE
0000
FFFE
FFFD
FFF0
FFEC
FFF3
0002
0003
0002
FFFF
0000
0009
FFFD
FFF9
FFFF
FFFE
0000
0004
0000
000D
FFFA
FFF8
000F
0008
FFFD
0001
0001
0025
0028
002F
000F
0009
FFFF
0000
FFFF
000C
0020
001E
0036
0035
000A
0005
FFF8
FFD7
FFD7
FFDC
FFD6
FFDB
FFF1
FFF4
0014
0030
000D
0018
0030
0029
FFE8
FFEB
FFFA
0003
0036
0064
002D
0019
0009
000C
0008
FFED
FFEE
FFED
FFD0
FFD6
FFED
FFEB
0011
0031
FFFE
0020
001F
001B
FFE2
FFEE
001D
FFEF
0009
002C
001C
0016
FFDD
FFDD
FFFF
0028
0046
0014
0010
0010
FFB5
FFCA
000E
0041
0048
0030
000E
0007
0047
0034
0001
FFE5
FFD4
FFC9
FFE4
FFE8
005F
004B
0000
FFC4
FFC0
FFBC
FFE6
FFF6
005C
004B
FFF1
FFC8
FFBC
FFC1
FFEA
FFFB
003A
002A
FFFA
FFF1
FFCA
FFD7
FFE4
FFE7
002B
0022
0005
FFD0
FFFF
FFEE
FFD4
FFCE
0013
0014
0017
FFC6
FFDB
FFE5
FFEE
FFF3
FFFE
FFFC
FFEC
0006
0013
0010
001B
0020
0002
FFFD
FFFE
001D
002D
FFFF
FFF8
0002
0001
0000
0003
FFF2
FFF4
FFF2
FFFD
0001
FFFD
FFFE
FFFE
0012
0015
000D
FFFE
FFF7
0001
FFFE
FFFC
FFFF
FFD4
FFCD
0004
000B
0002
0001
0007
0013
002F
0045
0022
0012
0004
0001
0006
001F
0022
002D
0022
0023
0003
0002
0002
0017
000D
0006
0009
0007
FFFC
0001
FFFF
FFFA
FFFD
0003
0000
FFFE
FFFC
FFFE
FFFC
0004
0002
0003
0010
0002
0000
0000
0001
000A
0001
0001
0009
0000
0000
0004
FFFF
000A
0023
001E
FFF8
FFEA
0003
FFFE
FFF9
FFF6
FFF5
FFE5
FFE2
FFED
FFF5
FFF7
0022
0048
0023
0019
0005
0005
FFFC
FFFE
FFFF
000B
FFFE
FFED
FFDD
FFD9
0001
0000
FFFA
FFEE
FFF8
FFDD
FFF7
FFF8
FFF1
FFFA
0010
0013
FFF2
0007
0030
0031
FFF1
FFF9
0027
0015
001A
FFE7
0017
0024
0000
0003
FFFC
FFFE
000E
0009
0014
000D
FFF9
FFFB
0008
FFFD
0017
001C
0001
FFF9
FFE3
FFE4
0003
0029
001E
0013
000F
0013
0023
0017
FFF1
FFFB
FFF1
FFD1
FFEA
FFF3
0037
0032
FFEE
FFE0
FFB7
FFDA
FFF0
FFFB
FFD3
FFDB
0014
003E
FFF3
000A
0029
0024
FFD1
FFD8
0008
0019
0016
002F
001D
0016
0029
0025
FFE9
FFD0
FFD3
FFF0
FFF7
FFF1
0021
001E
0009
FFB9
FFD8
FFFA
FFEB
FFE2
FFEE
FFEC
0009
002D
0012
000D
000F
0017
0002
FFFC
FFF4
FFE6
0007
0021
0018
001B
0003
FFFC
FFFA
0026
0020
0003
0007
0011
0006
0003
FFF9
FFF8
0025
0014
0005
0015
FFFA
0000
0002
0012
0010
001B
0009
0004
FFFD
FFFF
000A
0018
001D
003B
0013
FFF9
0002
0000
FFF9
FFCC
FFB5
FFDE
FFDC
FFDF
0003
0000
FFFF
FFE8
FFD9
FFE2
FFE7
FFF0
0002
0000
FFFE
0009
0013
0007
FFFF
FFFF
FFFC
FFFE
0000
0002
FFFE
FFFB
FFFE
FFFD
FFFE
0001
FFFD
FFF6
FFFB
0006
0004
0006
0002
FFFF
0003
0005
0001
0001
FFFD
0000
0002
0000
FFFE
0011
0012
0008
000C
0014
0002
0001
FFFC
FFF4
FFEE
FFD4
FFDE
FFE8
0001
0003
FFF8
FFFA
FFF3
FFDF
FFE6
FFED
FFF8
FFFF
0007
0033
0027
FFF6
0018
0029
0002
0000
0013
FFFB
FFD6
FFFB
0024
0022
0009
0003
FFF0
FFE7
000D
FFF3
FFED
FFF2
FFFE
FFFC
FFFB
FFF3
0000
000E
0014
0016
0003
FFFF
000C
0024
0013
0007
FFF4
FFF1
FFFE
0003
0007
0001
FFF9
0003
FFFC
0000
FFFF
0005
001C
000C
FFED
FFF0
FFFF
0012
FFF7
FFFC
0002
FFE1
FFEB
FFFF
000E
000E
FFFD
0005
0022
FFF9
0007
FFF8
FFFC
0006
0007
FFFE
FFE5
FFED
FFFE
0000
0006
0000
FFED
FFF7
0022
0023
000A
0003
FFFB
FFFB
001E
0018
FFFA
FFD5
FFE7
FFE8
FFFC
0007
000D
000B
0007
FFF7
FFDE
FFD9
FFFC
FFFA
FFF8
FFFA
0009
0011
0017
000C
0001
0006
FFF7
FFF8
0016
001F
FFF9
FFFA
0013
0017
FFF7
FFFC
000C
002C
0015
FFFF
0005
0006
FFFF
0002
FFFB
FFFB
001E
0017
000B
0017
0004
0005
FFFF
FFEA
FFD7
FFD9
FFEF
FFDF
0007
0006
0003
FFFF
FFE3
FFBE
FFC3
FFCE
0002
0004
FFF7
FFBC
FFB6
FFB7
FFDE
FFF6
0000
0001
FFFC
FFD4
FFE9
FFF1
FFEB
FFED
FFFD
FFFC
FFFF
FFE1
FFE6
FFF9
0000
0000
FFFE
FFFB
FFFD
0002
FFFC
FFFD
FFFB
0002
FFFB
FFFC
FFFD
0001
000E
0010
0005
0004
0002
0001
FFFC
FFE8
0000
000B
000A
0004
0001
FFFC
FFFB
FFF3
FFEF
FFDD
FFE8
FFF2
0005
0000
FFFE
FFF8
000C
FFF9
FFEF
FFF5
FFFF
0002
000E
0000
0015
000E
0009
000F
FFFB
FFF7
FFFC
001A
005B
0035
FFFF
000C
0000
0001
FFFB
000B
0005
0000
000A
0017
FFF3
FFFD
0017
0020
FFF3
0010
FFFE
FFF0
FFFB
FFF6
FFF7
000A
001F
000B
FFF2
FFF5
0000
FFFF
FFF1
0012
0004
FFF9
0004
FFFD
0000
0005
FFFA
FFF9
FFFF
0001
0001
FFFC
0012
0019
001F
FFFE
FFF3
FFF1
FFED
FFF4
0008
0011
0011
002C
0008
FFDB
FFE6
FFF4
001E
001C
0021
FFF3
FFEE
FFF0
FFD7
FFDB
0012
001C
0028
002B
001F
FFEC
FFC7
FFCB
FFFA
FFF0
0001
0004
FFFF
FFF4
0007
000E
FFF6
FFFC
0007
000C
0027
0002
FFFC
FFF7
000B
0008
FFF2
FFF0
FFF0
FFE5
FFFE
0006
0002
0001
0025
001C
FFE0
FFFE
FFF9
FFFD
FFFD
0002
0014
FFE9
FFF9
0000
0013
0011
0001
0002
FFF0
FFFC
0002
FFEF
FFFA
FFF9
FFFB
FFFD
000C
0008
0007
0012
000F
000F
FFFE
FFFD
0005
0023
FFE9
FFDE
FFDC
FFE0
FFFD
FFFF
0002
001A
0033
0029
0024
0026
FFFF
0002
FFF9
FFE7
FFD0
FFC0
FFCC
FFD8
0000
0003
0008
002A
0028
0026
0025
0011
FFFE
0001
FFFE
0000
0005
0003
0003
FFFF
FFFE
0000
0000
FFFD
FFF7
0000
FFFE
0002
0000
0000
0000
0008
FFFF
FFFD
FFFB
FFFC
0005
0004
0005
FFFC
FFFB
0006
0001
0000
FFFE
0001
FFFF
0002
0000
FFEC
FFEB
FFE4
FFFD
0000
FFFF
FFE9
FFDB
FFE4
000F
001C
0000
FFFD
FFF3
0011
0021
0011
FFFE
FFFA
0000
FFFF
0000
0001
000C
000E
FFFA
FFF4
0006
FFFF
FFF0
0005
0022
001A
FFEE
FFE1
FFFC
FFF7
0009
002D
0024
0006
FFEE
FFE1
0005
0007
0003
0001
FFFE
0000
FFF6
FFF9
000A
000A
0016
FFED
FFF9
FFEB
FFFC
000B
0003
0002
FFFE
FFF4
FFE6
FFEE
0004
000A
0008
0001
FFEA
0006
000E
FFF6
FFFF
0002
0004
0003
FFEC
0021
0064
0028
FFD8
FFD9
0000
FFF8
FFC8
FFE1
FFFA
FFEC
002B
0037
0007
001A
0028
001D
002C
0016
FFC4
FFAD
0007
000C
0036
0011
FFFB
000B
FFDC
FFE0
FFF8
FFFB
0009
FFF1
FFFF
0023
0006
FFF9
FFFE
FFF9
0006
0021
0012
FFFB
FFFA
FFFC
0002
0003
0023
000B
FFFE
FFE5
FFEF
FFF6
FFEC
FFF0
FFFC
FFEC
001F
0045
0016
0000
FFFA
FFFE
FFE3
FFEB
FFF1
0014
001E
000E
0003
0002
FFF9
0009
000E
FFFD
FFF7
FFF8
0007
0009
FFFF
FFD9
FFDB
FFDD
FFD1
FFD0
FFFC
FFFD
0007
0027
0019
0019
001A
0017
FFFB
FFFF
0005
0034
002B
002F
0023
0016
FFFF
0003
0005
0023
000F
002B
002A
0026
FFFF
0001
FFFF
FFFE
0002
0003
0001
0001
0001
0000
0001
FFFC
0004
FFFF
FFFF
FFFE
0002
0000
FFFE
FFFA
FFF8
FFF4
FFF6
FFF8
0001
FFFF
0001
FFF4
0002
FFF3
FFED
FFF2
0000
0001
FFFE
FFFB
FFFA
0007
0005
0003
0003
0004
0006
0015
0001
FFF4
FFF2
FFF3
FFF6
FFF7
FFF5
FFFD
0014
0011
0018
0016
FFF9
FFFB
FFFE
FFF3
0002
FFFC
0013
0019
0004
0003
FFE4
FFEE
FFFB
0011
000F
000C
0009
0006
000B
FFFF
FFEE
FFF3
0002
0010
0010
0008
FFE9
000E
002A
FFFE
FFF4
FFFA
FFF9
FFFF
0008
000F
0022
0007
FFF4
FFF9
0005
0003
FFF2
FFE9
FFF7
0000
0001
0004
FFF9
FFFE
0004
0008
000B
0000
0001
0009
FFF8
FFFB
0003
0011
0004
0005
0001
FFFE
FFF9
FFFC
0027
000D
000A
001C
FFF1
FFE8
FFFC
FFF1
FFE5
0014
FFE1
FFCA
0024
0042
0004
0012
0006
0006
000B
0007
FFF1
FFEA
0003
0002
0008
FFDD
FFDE
FFF7
0005
000D
FFFB
0001
002D
001C
FFE6
FFFC
FFF2
FFEF
0007
000B
0018
FFDC
FFE6
FFEA
FFFA
0005
FFF1
FFF4
0004
003A
0018
0013
FFF4
FFE5
0000
FFFC
0001
FFF8
FFF6
0013
001A
0019
000E
0014
0013
FFE9
FFC6
FFC8
FFD7
FFDF
000A
000C
0009
000D
FFFC
FFD6
FFC7
FFC9
FFFA
FFFB
FFF3
0002
000B
0029
0044
003F
0000
0000
FFFF
000C
FFF9
FFE2
FFFD
0009
0005
0005
0004
0021
0020
0020
0017
0009
FFFD
FFFF
0002
FFFB
000A
0005
0000
FFFE
0003
0001
0000
0000
FFFE
FFFE
0002
0001
0002
FFFF
0003
000F
0005
0002
FFFF
0003
0002
0000
0000
0002
FFF5
FFE9
FFF4
FFF8
FFFD
0000
0001
0006
000C
FFF7
FFEF
FFF7
0008
0008
000B
000D
000C
FFC8
FFDC
FFFA
000C
0011
000E
001E
FFF2
FFE0
FFCA
FFC2
0010
0010
0014
FFF7
FFD4
FFCA
FFD2
FFD4
FFFF
FFFD
FFFF
FFBB
FFFA
0014
000D
0012
000D
0006
FFF0
0009
001B
FFE4
0001
0016
FFFF
FFFE
FFFF
FFFC
FFEB
FFFA
0008
0002
0008
0002
0007
0022
0011
0003
FFF0
FFEF
FFF9
FFF8
FFEC
FFD4
FFEC
0022
000A
0004
FFF7
FFF9
0012
FFF2
FFF6
0018
FFF3
FFEA
FFF8
FFF6
0018
0021
0010
FFFE
FFF3
FFF8
FFF3
FFFD
002C
0015
0007
0005
FFF5
FFEF
0015
0019
0018
000E
0018
FFFD
FFE4
FFDC
FFF0
FFE9
FFE1
FFE5
0004
FFF4
001A
0038
FFFE
0008
0011
FFDC
001D
002A
FFED
FFEC
FFFE
FFF7
0001
001C
000B
FFFF
FFF2
FFEA
0001
0000
0005
0010
FFF5
FFF0
0002
0008
FFFA
FFF9
0009
0050
0028
FFF7
FFD6
FFD3
FFF3
FFF3
FFF5
001D
000B
FFF5
0022
0022
000E
000E
FFF5
FFD4
FFF5
0007
FFE7
FFE3
FFFD
FFFE
000E
001E
FFE6
FFD9
FFF0
FFF6
0007
0008
0009
0007
FFE7
FFD7
FFF1
FFFF
0001
FFFF
0003
FFFA
FFEF
FFFC
000E
000F
FFFE
FFFC
FFFD
FFDC
FFE9
FFF3
FFF1
FFF3
FFFF
FFFE
FFFC
0009
0007
0008
0009
0004
0003
0000
0004
000C
0010
FFFE
FFFE
FFFD
FFFB
FFFB
0000
FFEE
FFF5
FFF8
FFFA
FFFD
0005
0003
0004
001A
FFFD
0003
0006
0006
0003
0004
0001
FFE5
0004
0015
0019
001B
0008
000B
0005
FFF6
0011
FFEC
FFD0
FFD4
0010
0016
0017
0001
FFE9
FFC2
FFAC
FFAD
0015
000F
0019
0036
001E
FFCF
FFA2
FFAA
000D
0012
0012
FFF6
FFF8
FFF4
FFE4
FFDF
000A
0009
0003
0008
002A
FFF0
FFF1
FFFF
FFFC
0002
FFF9
FFED
FFFC
0006
FFFE
FFFB
FFF2
FFF4
FFFE
FFE8
FFEF
0014
0004
0000
FFF7
FFEE
FFDA
FFDC
001D
0020
0006
FFFA
000E
FFFE
FFDE
FFFF
FFFA
0012
0000
FFF8
FFEF
FFFA
0021
0007
0009
000E
FFFA
FFFC
FFFA
FFFB
0004
FFF0
FFF1
FFFC
FFFB
0007
0010
0012
0017
0005
FFFD
0003
FFF4
FFF0
FFEA
FFE2
FFC0
FFD7
002B
0018
0018
0029
FFF6
FFFF
0010
000A
000B
0006
FFF8
FFEC
0001
0000
FFF3
FFFA
0009
FFF7
0008
000C
000F
0013
001C
FFD5
FFFA
FFE5
FFFC
FFFE
0006
0000
FFF1
FFD6
000D
0013
000C
0015
FFF7
FFFA
FFF8
0012
0025
000D
000C
000A
0004
0007
FFFF
FFEF
FFC5
FFEB
0012
001C
0003
0004
FFF8
FFF6
FFEE
FFEF
FFEF
FFEB
0002
FFFF
0002
FFF1
FFFF
FFFF
0009
000F
0001
FFFE
FFFD
0005
FFFD
0005
000B
000C
0001
0000
FFFE
0010
0003
000A
0018
0012
FFFC
0000
0002
0004
0002
FFFE
0000
FFFF
FFFE
FFFE
FFFF
FFF4
FFFF
0000
FFFD
0003
0006
0006
0006
0002
000E
0011
0016
0010
0000
FFFF
0003
0005
FFE7
FFEF
FFF8
FFFE
0001
FFFE
FFFF
FFEA
FFF1
FFF7
0008
000E
0001
0005
0005
000F
0018
000A
FFDD
FFD7
FFF0
FFF2
FFF2
000B
0019
002E
004A
0053
0023
001E
FFFC
FFDC
FFF5
FFEE
FFC8
FFCD
FFE2
FFE5
0003
0029
FFE7
FFF7
0039
003F
FFF2
FFF3
FFEA
FFF5
FFFB
0009
001D
001E
FFFF
0007
0013
000D
0004
0006
FFF6
FFF2
FFF6
FFF4
000A
001E
0029
FFFE
FFF0
FFFA
FFFA
FFF5
FFE7
0003
0023
0013
FFF4
FFEE
0000
FFFE
0004
FFFE
0002
0002
FFFF
FFFB
0003
0001
0010
FFFD
FFF0
0003
FFFF
0002
FFDF
FFE7
0013
0017
0015
FFFE
FFF9
FFF8
FFD9
FFE5
000C
FFFC
0009
000C
000A
0013
FFDE
FFDB
FFEF
FFFF
000D
0009
000E
0016
FFED
FFE8
FFD9
0010
0003
FFFB
001A
001A
0006
0009
0002
FFE7
FFF4
0003
FFFF
0006
0000
FFFB
0005
0006
0001
0007
0003
0004
FFF7
FFFF
0002
000A
000D
FFFF
FFF6
FFF5
FFF1
FFF9
0011
001B
FFE9
001D
0010
0005
0003
FFFF
0006
FFF7
FFFC
FFFA
FFEF
FFF9
FFFD
FFFF
FFF9
FFF7
0021
002E
0019
0014
0000
0001
FFFC
FFF0
0009
001B
0045
0042
0002
0003
0003
FFD7
FFE7
0004
0021
0028
FFFE
0001
FFFD
000C
0018
0011
0003
0000
FFFD
FFFC
0000
0006
FFFC
FFF9
FFFE
0002
0001
FFFF
0001
FFFE
0001
0003
0002
0003
0001
FFFF
0003
FFFF
FFFC
0001
0000
0001
0000
FFFE
0004
FFEA
FFDF
FFDB
FFE2
FFED
FFFF
FFFF
0005
001A
0009
000D
0008
FFFF
0004
FFFF
0001
0005
000E
000F
0002
0000
FFF7
FFF5
FFFA
FFF6
FFF0
002B
003E
003F
FFE4
FFEB
FFEB
FFE5
0007
0040
005B
0050
0020
0025
0027
0009
FFFF
FFAA
FFA5
FFBD
FFEB
FFE8
FFE4
FFE0
FFF2
0029
003C
0038
0001
FFFA
FFE5
FFDD
FFD0
FFF7
0032
0032
0000
FFF9
FFDC
FFFC
0022
0017
FFF6
FFF0
0000
0000
0009
0011
FFFF
FFEC
0002
0009
0000
0003
0003
FFFD
FFFE
0005
FFF8
FFF9
000F
0005
0007
FFE9
FFF3
FFEC
000C
0013
002D
002B
0002
FFCE
FFD8
FFF6
FFF8
FFF6
001B
001B
0031
0001
FFF4
FFF5
FFD9
FFD2
FFCC
FFCB
000E
002B
FFEF
000C
0013
0013
FFFC
0008
0015
FFF9
000A
000F
FFF4
FFEA
FFFC
0002
000A
000C
0011
000E
FFFE
FFED
0003
0001
FFF8
FFF8
000E
0008
0007
0009
FFF6
FFFD
0012
FFF6
FFE3
FFFE
0001
0000
0004
0002
FFF5
0002
0015
0014
0004
0004
FFFC
FFFC
0009
0015
FFEA
FFDC
FFE4
FFDE
FFFD
0002
FFFA
FFED
000C
001F
0039
0034
0002
0000
FFFB
FFFF
000C
0021
0039
0041
0006
0006
0001
FFF4
000B
FFFB
0000
FFFA
0004
0006
0006
000D
FFFA
FFFA
FFF9
FFF4
FFFF
0000
FFFE
0012
0014
0000
FFF9
FFFC
0005
0002
0004
FFFE
0000
FFFE
0001
FFFF
FFFF
0002
0004
000B
0001
FFFE
0000
0000
FFFC
FFFB
FFFE
FFFE
0008
FFE0
FFD9
FFDC
0002
0000
0002
001D
002F
002D
0015
000F
0002
0000
FFFC
FFF9
FFFF
0024
0029
001B
FFFE
FFFA
FFFA
FFE3
FFE5
0006
0023
0022
000E
000E
000B
FFF9
FFFD
FFBC
FFCB
FFD9
001E
001D
0034
0017
FFF1
FFCC
FFAB
FFB4
FFEB
FFDC
FFD8
0016
FFF4
0011
004D
004A
0009
0013
0029
001B
0020
FFF7
FFBC
FFB7
FFFE
FFEE
FFD7
0005
FFEF
0025
001D
0010
FFFC
0008
001D
FFF7
FFF7
FFFF
FFF8
FFFA
FFF0
FFFF
0020
FFF6
000F
0024
FFE8
FFD9
0017
000E
0012
0008
0009
FFE0
FFE3
FFE5
FFD5
FFC7
FFD4
0032
001E
0004
0033
0039
FFDB
FFD1
FFEE
0030
FFE6
FFE7
0037
0046
0010
000F
000C
FFF7
FFF1
FFF9
FFFB
FFFF
FFF7
FFFF
0003
FFF5
0027
0027
FFFA
FFF2
0004
0002
FFF3
FFE6
FFCB
0007
0009
0001
FFFF
FFFF
FFF5
0015
000E
0006
0013
0014
FFFE
0003
FFF8
FFFD
0003
FFF9
FFF2
FFF9
0001
0001
0003
FFF3
0002
0004
001B
0017
0003
0000
FFFE
0002
FFFE
000B
002A
0029
000C
0008
FFF6
FFDF
FFF0
0003
0040
0039
FFFD
0002
0003
0005
FFEC
FFE8
FFDE
FFE1
FFFE
0002
0001
FFF1
FFF3
000D
0005
0000
0006
0007
0002
FFED
FFF6
0002
000B
0014
0001
0000
0000
FFFD
FFFF
FFFE
FFFF
0003
FFFB
FFFE
FFFF
FFFE
FFFD
0003
0002
FFFF
0000
FFFD
FFFA
0000
FFFE
0000
0001
0002
0004
FFFF
FFFE
FFFB
FFFA
FFF1
FFF2
FFF3
0000
0002
FFF8
FFE2
FFD4
FFB6
FFCE
FFE2
0001
0001
0005
FFCE
FFCF
FFD8
FFE3
FFE6
FFFE
FFFF
000D
0022
0013
0013
0000
0006
0000
FFFD
FFF8
FFE2
FFE6
0007
0005
0001
FFF2
FFF4
FFEB
0000
001D
001A
0012
0010
FFF4
FFEF
FFE8
FFFF
FFEA
001F
0029
001C
FFED
FFE8
FFDC
FFC9
FFFF
0028
0031
0032
0008
0009
0004
0030
003B
FFF8
FFCC
FFC8
FFFC
FFF5
FFE0
FFEB
FFF4
0000
002A
0034
FFF4
FFE7
FFCE
FFDD
FFE3
0029
003E
0039
FFDF
FFD9
FFDB
0019
FFF7
FFFD
0049
0051
FFE6
FFD8
FFCB
FFEB
0005
0028
0034
0033
0009
0012
0024
0007
0000
FFED
FFEF
FFF2
000F
000A
FFF3
0009
FFEF
FFF3
FFFB
0001
FFDE
FFF1
0018
000C
003C
0021
FFF5
FFF6
FFF6
FFFD
0009
000A
FFF9
0008
000E
000C
FFFD
0000
FFF5
FFE8
0006
0025
001B
000C
FFFF
0004
FFF0
FFEA
FFF5
0007
0030
0036
FFFB
FFFE
0005
FFF4
FFEF
0020
0030
002B
0000
0001
0028
0020
FFE2
FFA0
FFC1
FFCA
0004
0005
0003
FFEA
FFFD
FFFC
003A
004C
0005
0004
FFFC
FFE4
FFFC
001A
0016
000A
0004
0003
FFFC
FFF5
0018
0018
FFF6
FFF2
FFFF
0000
0001
0011
0009
FFFE
0002
0006
FFFA
FFFB
FFFC
0003
FFFE
FFF6
0002
0002
0005
0005
0001
FFFD
FFFF
FFFD
FFFD
0000
FFFF
0001
FFFD
0003
FFFE
FFFE
FFFF
0000
0000
FFFD
FFFD
FFDA
FFEB
FFEB
FFF0
FFFB
FFFC
0000
000C
0023
002C
004A
0029
0012
0002
0006
FFF7
FFE9
FFE3
FFB1
FFD0
FFDD
FFF6
FFFA
FFFE
001A
003D
0038
001A
0021
FFF7
FFF9
0009
001C
0010
0012
000F
000C
FFFB
FFFF
0008
0005
000C
0012
0002
FFFD
0003
FFFF
FFFC
000B
003B
001D
FFEC
FFDC
0005
0006
0018
0005
000C
FFF3
FFF5
FFF4
0019
001D
000A
0000
0002
FFE6
FFDF
FFE7
FFED
FFEA
FFC5
FFBE
0009
002B
0038
0038
FFED
FFE8
FFEE
0000
FFDF
FFFD
002A
002F
0021
0024
0006
FFD7
FFF9
0002
FFE5
FFE9
FFEF
FFEE
FFF3
FFE5
FFC9
0000
002B
0026
FFFF
0008
0017
FFED
0016
001A
FFF4
FFEC
FFD9
FFE2
001E
004F
0015
0004
FFFB
FFF4
FFDB
FFE5
0000
004E
0039
001A
FFF9
FFFB
FFF6
FFFA
000A
FFED
FFF9
0035
0009
FFF8
FFF1
FFF9
000D
000F
0019
0024
0003
0005
FFF8
FFFB
0002
0006
000A
002A
0010
000D
0003
0006
0008
0002
FFF0
FFDA
FFD2
FFD8
FFFE
0003
0000
FFED
FFFF
FFDD
FFC2
FFBA
FFFA
FFFB
FFFC
001A
0017
FFEA
FFCC
FFCD
0000
FFFE
0005
0002
FFFF
0001
0011
001B
FFFB
FFFC
FFFF
0019
0007
FFEA
000C
0012
0006
0006
0007
FFF7
FFF6
FFF7
0007
0014
0002
FFFF
0001
0001
0005
0001
0002
0002
0001
FFFF
0003
FFFE
FFFF
FFFE
0002
FFFD
0006
0007
0005
0008
000A
001A
0004
0003
0001
FFFF
0002
0011
0014
000F
0007
0008
FFFD
0001
0003
002C
003F
0047
002F
0023
0006
0007
FFFD
FFD1
FFED
FFBB
FFB0
FFBF
0006
0009
001F
FFFC
FFAD
FFAF
FFBF
FFB9
000E
0008
FFFF
FFF9
0004
FFF4
FFC8
FFC8
0018
0013
FFD7
FFE4
0006
FFF1
FFE6
FFE4
000B
000E
0001
0003
FFF5
FFE0
FFD9
FFDE
0005
FFFE
FFFF
0008
FFF7
0003
FFF3
FFED
0011
000F
000D
FFFA
0004
FFE6
FFE1
FFE3
001B
0020
0018
0004
FFD7
FFDF
FFEC
FFED
0012
000A
FFE9
FFF2
0017
FFFC
FFFC
0000
FFEE
FFF6
0010
0019
0017
FFF3
FFF3
FFF7
FFF0
FFF7
0021
000B
FFEA
0003
0000
FFF8
0039
002A
FFDB
FFD7
FFE0
FFE1
FFFF
0004
0035
0029
FFEC
FFC9
FFD7
FFE9
FFF7
FFFE
0016
0011
FFF8
FFE4
FFFD
FFEF
FFEE
FFF9
0012
0007
FFEC
FFE3
FFFB
0014
FFF0
FFE4
FFFD
FFFA
FFF9
0012
0012
0004
000F
0015
000F
000A
FFE5
FFE4
000F
FFE5
FFE6
FFF9
0002
0002
FFFF
000F
FFDC
FFDE
FFE2
FFE3
0001
FFFE
FFF6
0022
0007
0018
0034
0037
FFFF
FFFE
0005
000D
FFF0
FFE1
FFE8
FFE9
0007
0005
000F
0002
FFF5
FFD6
FFE8
FFE9
000A
0006
FFFB
FFDB
FFE9
FFF4
000D
000B
0001
FFFA
FFFC
FFFB
0014
0019
0011
000C
FFFF
0000
0000
0000
0002
0002
FFFE
0000
0000
0000
0000
0001
0000
FFFF
0002
FFFE
FFFC
0000
FFFC
FFEA
FFFD
000B
0004
0003
FFFE
0002
0001
001A
001C
0019
0008
0000
0002
0001
FFF5
FFB9
FFB3
FFCA
FFF8
0005
0003
0002
FFF6
FFD4
FFD9
FFD1
FFDE
FFED
0009
0003
FFF4
FFE6
FFAA
FFE2
0004
FFF8
0017
0010
FFEC
FFD0
FFBA
FFC8
FFF8
FFFD
0024
001B
0005
FFC9
FFAE
FFDE
FFE2
FFE4
FFED
FFEB
FFEB
FFFD
004A
0031
0010
0018
0014
000A
FFD7
FFEB
FFFF
0009
FFFC
FFF4
FFEE
FFF5
002B
0041
0023
0001
FFED
FFE8
FFF8
FFFD
0002
FFFB
0003
0000
0014
0019
0001
0005
0003
0027
001D
FFEA
FFE1
FFE0
0016
0019
FFFE
000C
FFFE
FFEC
FFE6
FFDC
0031
0026
0005
FFEB
FFE8
FFD5
FFEF
FFEF
FFD8
FFDF
FFFC
0005
0016
001E
001B
0016
FFD3
FFDB
000A
0017
000C
001B
0019
0014
FFF1
FFF5
0000
001A
0013
0010
0008
0006
FFFE
FFFF
0000
FFFF
FFFE
0003
0005
0002
0001
0001
FFF4
0010
001A
0007
FFE3
FFD5
0004
0007
FFF1
FFF7
0009
FFE6
FFEB
FFEE
0004
FFFF
FFF5
FFFD
0015
0017
0011
000B
FFFB
FFFB
000E
002B
002C
FFB8
FFA1
FFAF
0005
0000
FFFD
0002
FFF2
FFF9
FFEE
FFEA
0004
0006
0004
FFF9
FFE6
FFDF
FFE2
FFF2
FFFC
FFFF
FFFF
0017
0000
0005
0007
0002
0000
FFFF
0003
0000
FFFD
FFFF
FFFD
0003
0001
0000
FFFE
0002
0002
0001
FFFE
0002
0003
FFFF
0002
FFFC
0001
FFFF
0002
0001
0001
0000
0001
0000
FFFF
FFFD
FFFE
FFFD
0000
0000
FFFF
0021
0024
0019
0002
0004
0004
0001
0006
0008
001E
003C
0027
001A
0001
0001
FFEF
FFB7
FFDF
FFFB
0007
0008
0006
0000
FFF1
FFD5
FFF9
0018
FFFF
FFF9
FFEC
FFF0
0015
005B
0056
0014
FFF5
FFFA
001D
001B
FFF7
FFB9
FFD8
FFC6
FFDD
FFE6
002A
0021
FFF3
FFCC
FFDA
FFD7
FFD5
FFE3
001F
001B
0011
FFDD
FFD0
FFDC
FFE2
FFE6
0021
0019
0007
FFD0
FFFB
FFF7
FFDF
FFD8
FFD0
FFD6
FFF5
0040
0005
0023
0026
002A
002A
0024
0011
FFF1
FFE6
FFD4
FFDE
FFEE
0034
0028
FFFD
FFEC
FFEA
FFD8
FFE7
FFE9
0035
0029
FFF4
FFD6
FFE7
FFF0
FFE8
FFD9
FFDE
FFE6
FFF5
FFEA
0008
0038
001E
0019
FFD7
FFDE
0000
0010
0043
0036
0009
FFF9
FFFF
FFFF
0003
FFF4
FFFA
0002
0004
0004
FFF9
0001
0011
000E
FFF9
FFFC
FFFD
FFF8
0003
0005
FFEF
FFEF
000F
0003
0004
0004
000A
0007
FFFB
FFDD
FFD2
FFFA
FFF3
FFE9
0001
0004
0000
FFC5
FFFE
0029
0013
0009
0001
FFFF
FFF8
FFE5
FFF4
0041
0045
003D
FFFE
FFFE
000A
0029
000A
000C
0018
000F
FFFE
0001
FFFC
0000
0005
FFFF
0005
FFFF
0004
FFFE
0003
FFEC
FFF2
FFF6
0006
000D
0004
0007
0006
0000
0006
FFFF
0001
FFFD
0004
0004
0004
0004
FFFE
0003
FFFF
0001
FFFD
0000
0001
FFFE
FFFE
FFFE
0001
0000
FFFE
0001
FFFF
0002
0003
0001
FFFF
0001
0000
0000
FFFC
FFD6
FFDF
FFEE
FFF3
FFFD
0002
FFFF
0004
0049
005E
0046
0028
0028
FFFA
FFFF
0010
002B
001A
003A
0027
001E
FFF8
FFFB
0002
0021
0057
004C
002F
0022
0011
000A
FFEE
FFE0
FFC0
FFBE
FFD0
FFD9
FFDF
FFE5
0016
0047
003D
003A
0038
0021
FFD4
FFDD
0013
0045
0046
003C
0031
002D
FFD0
FFDD
0002
001C
005D
0066
001E
0011
FFBD
FFC1
FFF0
004F
009D
0055
0019
001D
0038
002E
0014
FFEE
FFBC
FFB7
FFCD
FFCC
0025
0014
FFD3
FFE6
0004
FFE6
FFEF
FFF3
FFE8
FFEE
0007
000E
0021
0008
0014
0016
FFED
FFEF
0005
FFEB
001B
0018
0016
001A
FFE2
FFE8
0019
001E
FFE6
0036
001C
0004
FFF9
FFFC
0004
FFFC
0024
000E
000A
FFFB
FFFE
FFFE
000E
0012
FFFC
FFF8
FFFB
0001
FFFF
0002
0001
0003
000F
0008
FFF1
FFEC
FFFE
0000
0000
FFEA
FFDA
0006
FFF7
FFEC
FFFD
FFFD
0007
0004
0005
FFD4
FFEA
FFF2
FFFC
0000
0001
FFFC
001A
000B
0006
0006
0004
FFFE
FFFD
FFE8
FFED
FFDB
FFE0
FFE8
0002
FFFE
0004
0011
0011
002B
002A
0024
0001
0000
FFFF
FFFC
FFFE
FFF7
FFFD
0001
0000
FFFF
0002
FFFC
0006
000A
0006
0006
0002
0005
0005
FFF6
FFEF
FFEF
0002
0003
FFFF
0001
FFFD
0002
FFFE
0002
FFFF
0000
0003
FFFF
FFFF
0002
0003
0001
FFFF
0002
FFFC
FFFB
FFFE
FFFE
0003
0000
FFFD
FFFE
0005
0003
0007
0001
FFFA
000D
0010
000A
0002
0001
FFFC
FFDD
FFDB
FFDC
FFE9
FFEE
FFFD
0000
0003
0001
002C
003E
0040
0034
FFF9
FFFD
000C
0037
001A
003E
0028
0023
FFFA
FFFA
0005
003C
003A
0039
0026
001B
000A
0009
0005
FFF5
FFBB
FFA7
FFB7
FFBC
0016
0011
FFFB
FFAF
FFB8
FFEB
FFC8
FFAD
FFEE
FFF6
0006
0003
0018
0022
0045
0043
FFE6
FFE8
0005
006D
0024
001B
002A
0029
001B
0016
000D
FFB6
FF88
FFCB
FFFA
FFFC
FFDC
FFE5
000E
0029
0028
002D
0033
0032
001C
0019
000C
FFEC
FFCF
FFB7
FFC8
FFCC
FFE8
FFEB
FFE9
003D
0062
003C
0018
0004
000E
000C
FFF2
000B
FFEE
FFE5
FFBE
FFC7
000E
0008
000D
FFEC
FFEA
FFEA
FFC6
FFC3
FFFE
FFFF
0003
FFFE
0002
0002
0004
0001
FFFA
FFFD
FFFD
0015
0032
0028
0002
FFF3
FFFC
FFFD
FFFC
0016
0021
0015
0002
FFF5
0001
0002
0009
000B
001B
0021
FFF2
FFE8
0001
FFFE
0008
0010
FFF0
0002
FFFD
FFFB
0003
FFFF
0000
FFE9
FFE7
FFD2
FFED
0001
0002
FFFF
0003
FFF6
FFF3
FFDD
FFE9
FFF4
FFFF
0002
0003
FFFF
FFFE
0029
0019
0011
0001
0003
0003
FFDB
0003
0017
000B
000F
0004
0004
0005
FFF3
FFF7
0000
FFFE
FFFF
0002
FFFF
0002
0002
0003
0001
0003
FFFE
0002
0000
0000
0003
FFFD
FFFF
0000
0001
FFFF
0000
0000
FFFD
FFFE
0000
FFFF
FFFE
0001
FFFF
0003
FFF7
0000
FFFF
0000
0003
0000
FFFF
0003
0008
0002
FFFB
0004
0003
FFFE
0000
0000
0006
FFF6
FFEB
FFFD
0006
0001
FFFE
FFFD
FFE5
FFD7
FFFB
FFF8
FFED
0000
FFFE
0006
000B
0039
003A
0023
0017
0007
0003
FFFA
FFCE
FFCD
FFC7
FFCB
FFC3
FFFB
FFFC
FFFF
0036
0037
0057
0041
0034
000F
0009
FFFE
FFC5
FFC7
FFE3
FF9D
FF8F
FFEA
FFEF
0005
0059
005E
005B
0048
0043
0012
0011
FFF7
FFAD
FFC6
FFB7
FFA1
FF9E
001E
0017
0004
FFC2
FF7B
FF98
FFA8
FFAD
FFE9
FFED
0003
0032
004B
0062
004B
003E
FFF1
FFEF
0005
0085
006C
0006
000D
000E
0007
000A
0015
FFB4
FF97
FFD9
FFCD
FFB3
FFFD
FFFE
FFFA
0036
002C
0014
0047
0053
0008
0007
FFFC
FFCF
FFBE
FFC4
FFE5
FFF5
FFF9
FFFD
0011
004A
002D
0007
0010
001D
0003
0003
FFFD
000A
FFFA
0045
0050
003C
0003
0000
FFF8
FFD1
FFD5
FFDE
0008
0018
FFFD
FFFE
0003
0001
FFE0
FFDF
FFF6
FFF9
0002
FFFE
0004
0009
0017
0017
0023
0021
0001
0003
0001
0012
0009
0009
001B
0019
0000
0001
FFFD
FFF7
FFF5
FFFC
FFFF
FFFD
FFFF
0001
FFFE
0005
0003
FFFE
FFFF
0001
0002
0000
FFFF
FFFF
0000
FFFE
0002
FFFF
FFFE
FFFC
FFFC
0001
FFFD
FFFE
0003
0003
FFFF
0000
0003
0000
0000
0000
FFFE
0000
FFFD
0001
0000
FFFD
FFFF
0001
FFFF
0003
0001
0000
FFFD
FFFE
0002
0000
FFFD
0001
FFFE
FFFB
FFFE
0001
FFFD
0000
0001
FFFD
FFFC
FFFD
FFFC
0010
000C
0000
0005
FFFF
FFFD
FFFD
FFF9
FFE5
000A
0010
000E
000F
0003
0005
0003
001A
0025
FFF2
FFE8
FFEB
0003
0007
0005
000D
000E
FFF4
FFF8
000A
FFFF
FFFB
FFF8
FFE8
FFE5
FFF9
FFFE
FFFB
FFFF
0001
FFFE
FFF9
FFE3
FFD5
FFEA
FFF5
FFFF
FFFE
0006
005A
004B
0029
001B
000B
FFFC
FFFE
0005
0053
005D
0055
004D
0044
FFFA
FFFB
0002
0062
0071
004D
003C
0031
FFFD
FFFD
0005
0024
0058
005F
003D
003C
0002
0001
FFF3
FFC0
FFC4
FFB6
FFD5
FFE2
FFF9
0000
000B
0038
002B
003D
003B
0026
FFFE
0001
0000
002C
0047
0040
003B
0034
FFFE
0003
0007
000C
0023
0018
0018
0013
FFFF
FFFE
0003
000E
0008
FFF3
FFD0
FFD0
FFFF
FFFF
0002
FFEB
FFE9
FFE2
FFDB
FFE6
0002
FFFF
FFFF
000A
FFFA
FFD7
FFDE
FFF6
FFFE
0000
0003
0004
FFFB
FFEA
FFE9
FFED
0004
FFFE
0004
002C
0014
FFF8
FFF4
FFFC
0005
FFFF
0000
0005
0002
0000
0001
FFFF
0001
0001
FFFC
FFFE
0000
FFFE
FFFF
FFFD
0000
FFFF
0003
0002
FFFE
0003
0003
0002
0002
FFFC
FFFF
0001
FFFF
0003
FFFD
FFFE
0002
FFFF
0002
FFFD
0000
0000
0001
0003
0003
0000
FFFE
0003
FFFF
FFFF
0002
0002
0003
FFFF
0000
0003
FFFD
0002
FFFD
0000
FFFF
0000
0001
FFFF
0003
0001
0002
0000
0000
FFFF
0002
FFFF
FFFE
0001
0003
0002
0001
0000
FFFF
FFFF
FFFE
0002
FFFF
0000
FFFF
FFFC
FFFF
0007
0006
0006
FFFE
FFFE
FFFE
FFFD
FFFA
0008
0004
0008
0004
0001
FFFD
FFF8
FFFC
000C
0015
0001
0004
0001
0001
0000
0000
0001
FFF6
FFF5
FFF9
FFFE
0002
FFFF
0001
0004
0003
0003
0004
FFFF
0002
0006
0006
000B
0014
000F
FFFD
FFFD
FFFF
0001
FFFD
FFF4
FFEF
FFF0
FFF7
FFFA
FFFC
0001
0000
000C
0014
0015
000C
0009
0000
0001
FFFD
0009
0000
0001
0005
0004
FFFF
0000
FFFF
000E
000F
000D
000E
0009
FFFE
FFFC
FFFD
FFEB
FFE7
FFED
002A
0011
0003
FFFE
FFFE
FFF7
0001
FFFB
FFFC
0001
0001
0003
0003
0002
FFF0
FFF8
FFEF
FFF8
0002
FFFF
0000
0007
0007
FFFD
0006
0008
FFFE
FFFA
FFFB
0004
FFFE
FFF5
FFFE
FFFF
0001
FFFF
0002
0007
FFF4
FFFD
000F
0012
FFFB
FFFC
0000
0008
0003
0008
000D
0009
FFFF
FFFC
FFFA
FFFC
FFF3
FFFD
000B
0007
FFFE
0001
FFFE
FFF4
FFFF
FFFE
0001
0001
0000
0000
0000
FFFF
FFFF
FFFF
FFFD
FFFE
0002
0000
0005
0000
0002
FFFD
0002
0001
0002
0003
0006
FFFE
0003
0000
FFFF
0001
FFFD
FFFB
FFFD
0003
0002
0003
FFFD
0003
FFFF
0001
FFFF
0001
0001
0002
FFFF
0002
0002
FFFF
0001
FFFE
0003
FFFF
0001
0001
FFFE
0000
0002
0001
FFFF
FFFE
FFFF
0000
0001
0000
FFFD
0002
FFFD
0002
FFFF
0000
0004
FFFF
0000
FFFF
FFFE
FFFE
0003
0001
0002
FFFF
0002
0002
FFFF
0002
0002
FFFD
0002
FFFF
0004
0001
0000
0001
0000
0002
0001
0001
FFFD
0003
0000
0002
FFFE
FFFF
0001
0000
0000
FFFD
FFFE
0002
FFFD
FFFE
0000
FFFF
0003
FFFE
0003
FFFF
0002
FFFD
0001
0000
FFFE
0001
FFFF
FFFD
0003
0000
FFFF
0000
0003
FFFD
0001
0001
0002
FFFE
0001
FFFF
0003
FFF8
FFF9
FFFE
0003
0001
0002
FFFF
0002
0003
0000
0003
0002
0003
FFFD
0000
0002
0001
FFFF
0000
FFFF
0002
FFFF
0000
0001
FFFE
0001
0002
FFFF
0000
0002
0000
0003
FFFE
0001
0003
0003
0002
0002
0000
FFFF
FFFE
0000
0002
0002
0003
FFFE
0001
FFFE
0003
0002
0001
0003
FFFF
FFFF
0000
FFFF
FFFE
0001
FFFD
0000
FFFE
0001
0000
0000
0000
FFFD
0001
FFFF
0000
FFFF
FFFF
0004
0001
0003
FFFD
0002
FFFE
FFFF
FFFF
0003
FFFD
0000
FFFF
0001
FFFF
FFFB
0001
0002
0002
0002
FFFD
0001
0002
FFFE
0002
FFFB
0000
FFFF
0000
FFFE
FFFE
0005
FFFF
FFFF
0000
0001
FFFF
FFFE
0002
0001
FFFF
0003
FFFE
0003
0002
FFFD
FFFE
0002
FFFF
0001
FFFE
FFFF
FFFD
0003
FFFF
0000
0000
0000
FFFD
FFFF
FFFF
0003
0001
0001
0000
0001
FFFE
0000
FFFF
FFFF
FFFF
0002
0000
FFFF
0003
FFFF
0001
FFFF
0002
0000
0000
0001
0002
FFFE
0003
FFFF
FFFF
FFFE
0000
0000
FFFF
FFFE
0001
FFFF
FFFF
0003
FFFF
0003
FFFE
FFFE
0000
FFFF
0000
0001
FFFF
0002
FFEC
FFED
FFF5
FFFE
FFFE
0002
0001
FFFC
FFF6
FFF5
FFF9
FFF5
FFFA
FFFE
0001
FFFE
FFFC
FFFF
FFFE
FFF1
FFFA
0003
FFFF
0002
FFE7
FFF6
FFF5
FFF7
FFFB
0000
0001
FFFE
000A
000A
000A
0003
0008
FFFE
0000
0001
FFEF
FFEB
FFF7
FFEE
FFF6
FFFD
0000
0002
0008
0010
0014
001F
0015
FFFF
0001
FFFF
0020
001C
0019
0016
0015
FFFF
0000
FFFF
FFFB
FFFB
0000
FFFA
FFFA
FFFE
0001
FFFF
001E
0016
0019
000B
0003
0001
0000
0001
001D
0028
0021
0026
001D
0002
0001
FFFC
FFDC
FFF1
FFF3
FFE9
FFF4
FFFF
0000
0000
FFED
FFF1
FFEF
FFEB
FFF3
0002
FFFF
0000
FFDF
FFE4
FFE0
FFDF
FFE8
0002
0000
FFFF
FFF5
FFF5
FFFE
0000
FFFB
0003
FFFF
0000
0006
0003
0002
FFFF
0000
0001
0000
FFFF
FFFF
FFFD
FFFC
FFFC
0000
FFFF
0000
0001
0000
FFFD
FFFD
FFFE
0000
0001
0000
FFFF
0001
0003
FFFD
FFFF
FFFE
0001
0001
FFFC
0002
0000
0001
0000
FFFF
0000
0000
FFFE
0003
0001
FFFF
0002
0002
FFFF
0001
FFFE
FFFE
FFFF
0000
FFFF
0002
0000
FFFF
0003
FFFD
0003
0003
0003
0002
0003
0000
FFFF
FFFD
FFFF
0002
0002
0002
0000
0000
0000
FFFD
0003
0002
0002
0000
FFFD
0001
FFFD
0001
0001
0003
FFFD
0003
FFFF
0000
0002
FFF2
FFFA
FFFA
0001
FFFF
FFFF
0000
FFFF
0002
0001
0003
FFFD
0002
FFFD
0001
0000
FFFD
FFFB
FFFC
FFFD
FFFD
0001
0000
0001
FFF5
FFF1
FFEA
FFE7
FFEB
0002
FFFF
0002
0006
0006
0008
000D
0008
FFFE
0000
0004
0048
0054
0046
0038
0027
FFFF
0001
FFFC
FFC0
FFC6
FFB0
FFAF
FFC0
0001
0001
FFFF
004C
0068
005C
0058
0044
FFFC
0000
0003
0035
002A
002A
002B
002A
0001
0001
FFFA
FFD7
FFE6
FFEF
FFE5
FFE6
0000
0001
FFFF
001F
0027
001F
000F
0002
0000
0000
0001
0023
0029
001D
000C
0009
FFFB
0001
0004
0010
002A
001A
0013
0008
FFFF
0000
FFFF
FFF6
FFF0
FFFA
FFF7
FFF8
FFFD
0002
FFFC
0019
001B
0024
002A
001B
0003
0000
FFFA
FFB7
FF99
FFF0
0004
FFF7
0000
FFFF
0003
0004
0019
001E
0012
0010
FFFE
0000
FFFF
0048
0011
001F
003D
0031
FFFF
0001
FFFF
0014
001A
001A
0020
0017
0003
FFFE
0004
000A
000F
0007
0009
0006
0001
0000
FFFE
FFFF
0001
FFFA
FFF9
FFFF
0002
0000
FFFF
FFFF
FFFD
FFFB
0000
FFFE
FFFF
0001
FFFD
FFFD
FFFF
0000
0002
FFFE
FFFD
0002
FFFC
FFFF
0001
FFFF
0000
0003
0000
FFFF
0004
0001
0003
0001
0002
0002
FFFE
0000
0001
0002
FFFE
0002
0002
FFFD
FFFD
0000
0003
0001
0000
FFFF
0002
FFFD
0001
0000
FFFF
FFFF
FFFF
0003
0003
FFFF
FFFF
0001
FFFE
0003
0002
0000
0001
FFFE
FFFF
0000
0002
000A
0004
FFFE
FFF5
FFFB
0001
0000
FFFF
0011
0013
000E
0008
0004
FFFF
0000
0001
0003
FFF4
FFF6
0001
FFFD
0001
0000
FFFF
0001
0002
0007
0003
FFFB
0005
0002
FFF5
FFDF
0027
0086
0097
0076
0001
FFFE
000C
0017
0004
003A
0024
0016
0002
0000
0005
FFF7
FFF9
0042
002F
0023
FFFC
0001
0002
FFFE
FFF8
0003
0009
0007
0009
0004
FFF1
FFE5
000B
FFE4
FFC5
FFDE
FFF9
FFF9
0007
0029
0015
0039
0011
FFFE
0005
0003
FFFE
0000
FFEF
FFC5
FFEF
0005
FFFF
FFFE
FFF7
0021
001B
0012
0015
0011
0009
0004
FFF8
FFDC
FFA6
FFD4
0012
0017
FFFD
0000
0004
0004
000B
0024
0009
0009
0000
FFFF
0004
0013
000B
000C
000A
0005
FFFF
0001
FFFD
000E
0015
0009
FFFA
FFF9
FFFD
FFFD
000D
000D
000C
FFFF
FFEE
FFF1
0000
FFFF
0003
0005
0002
0000
000C
000A
0001
FFFF
0002
0031
001B
001C
0010
0006
0003
0000
0001
FFEE
FFF3
000D
0017
0018
0000
FFFF
0001
FFED
000C
0012
000B
0001
FFFF
0000
0002
FFFF
FFFD
FFFF
0000
FFFF
0004
FFFF
0002
FFFF
FFFD
FFFD
0003
FFFE
FFFE
0000
0003
0000
FFFF
0002
0001
0000
0002
FFFF
0000
0000
0002
0000
0002
0000
FFFF
0000
0001
FFF8
FFF7
FFFA
0001
FFFF
FFFE
0001
FFFF
0002
FFFE
0003
0001
0000
0003
FFFF
FFFF
0011
FFFE
0003
0005
0000
FFFD
0000
0003
0001
FFFE
0002
FFFD
0002
FFFD
0000
0001
0002
FFF8
0004
0009
0003
0000
0001
FFFD
FFF0
FFFF
0012
0000
FFFD
FFFE
0000
0003
FFFC
0006
0002
0006
0006
0004
0001
FFFC
FFFE
FFFF
FFF8
0007
0005
FFF8
FFF8
0000
0036
001F
FFFF
0003
0000
000A
000A
0000
FFD4
FFD5
FFFB
0007
0004
0001
FFFF
000A
0002
0008
0017
FFF5
FFF1
0001
0001
FFFD
FFFC
FFFC
FFFB
0005
0006
FFFE
FFFF
0003
FFFC
FFF3
001C
000A
FFFF
0006
0002
FFF2
FFFE
FFF5
FFEE
0007
000B
FFF6
FFF9
000F
000D
FFF7
001F
000C
0008
0008
0009
0009
0019
FFFA
FFBC
FFE0
FFF6
0000
FFFE
FFFA
FFF5
FFFC
0002
000C
0015
0002
0000
000B
0007
FFDC
FFCE
0015
0024
0001
0000
0008
FFE0
FFF7
FFF9
0007
000B
0000
FFFF
0002
FFF3
FFE7
0006
0014
000B
000F
0010
0003
FFE3
FFC7
FFCE
000E
0013
FFF9
FFFB
FFFE
0007
0026
0025
0000
FFEF
000A
000C
0014
FFDB
FFA0
FFBF
FFDE
FFF6
0000
FFFE
FFFE
0006
001E
0019
FFFA
FFF9
0001
0001
FFFC
FFFD
0004
0001
FFFF
0000
0001
FFFF
0003
000F
FFFF
0003
FFFE
0002
0001
FFFF
0001
FFFE
FFFF
0001
FFFE
0003
FFFF
0000
FFFF
FFFD
0000
0000
FFFF
0000
FFFD
0001
0001
0006
FFFF
0000
FFFD
0003
FFFF
0000
FFFF
000F
0000
0003
0006
0008
0000
0000
0000
FFFD
0000
0003
000A
000A
FFFD
FFFF
0002
0003
0007
000D
0022
0023
0000
0000
0005
FFDC
FFD9
FFFC
0004
0001
FFFC
FFFF
0007
001F
0019
FFE4
FFFA
FFF5
000C
0006
FFF8
FFDF
FFD5
FFE4
0016
0013
FFFF
0000
FFFF
FFFD
0000
FFFD
FFFF
0003
FFFD
FFFB
FFEE
FFEB
FFE5
FFFC
0037
002C
0003
0000
FFFC
FFFD
0009
FFFC
0001
FFFE
0008
FFFF
FFEF
0009
FFF4
0006
0003
0001
0004
0000
FFFB
0001
FFFF
FFFD
0003
0003
FFF2
FFF7
0008
FFFE
FFF9
0025
000E
FFFD
FFE5
FFEB
0009
0031
0015
002C
FFF8
FFF3
0016
000F
FFF5
0014
FFEC
FFCD
FFF7
0002
FFDB
FFDF
0009
0034
000E
0018
001D
0013
0005
FFF8
FFEB
0007
0005
002C
000C
0002
FFF9
FFFC
0009
000B
0015
FFF1
FFF5
0001
001C
0017
FFF1
FFCD
FFEC
FFF0
FFFD
0004
FFE6
FFEC
001F
0057
002C
FFE6
FFF8
0004
FFF9
FFF2
FFF5
0024
000D
0019
0024
001B
0014
0010
0014
0005
FFC0
FFA8
FFDC
FFED
FFEC
FFF0
000B
0071
0018
FFED
0040
0047
FFF7
FFF3
000E
003A
003A
0024
0005
0007
FFFD
0001
0000
FFFE
0004
0002
0001
0000
0002
FFFF
0004
FFFF
0000
0002
FFFF
FFFF
FFFF
0000
0001
FFFF
FFFF
0002
0000
0002
0001
0000
FFFE
0001
0001
0003
0000
FFFF
FFFF
0000
0001
FFF7
FFFC
FFF9
0001
0002
FFFF
0001
FFFE
FFF8
FFF6
FFF9
FFF7
FFF8
FFFF
0001
FFFF
FFF6
FFF0
FFF1
FFF1
FFF1
000A
0007
0004
FFD7
FFCF
FFC8
FFE0
FFEC
FFFB
FFF8
FFEB
000E
0036
0017
0029
002B
FFEC
FFEB
0004
0024
0027
002A
0014
0012
001C
0018
000D
FFF7
FFC6
FFCA
FFC9
FFC9
FFEB
FFEC
FFFA
FFFC
000A
0029
0026
002F
000D
0008
FFFF
FFF6
000C
000E
FFEE
FFD5
FFFD
0001
000C
FFFC
FFFB
FFED
0005
0010
0001
0004
FFFD
FFE3
FFD1
000B
001D
001F
000F
0006
FFE4
0007
FFF1
FFEF
0000
000A
0024
000E
FFE8
FFFE
FFE3
FFDC
0000
0013
FFDB
FFE1
0004
0027
0037
0022
FFFD
FFEC
0037
0028
FFE4
FFDB
FFD2
FFC7
0004
0020
FFC4
FFD2
0019
0024
0021
0046
FFF8
FFDE
FFF1
FFF3
0009
000F
0020
001B
FFF6
FFEF
FFFE
0002
0004
FFF2
FFE6
FFEC
000E
0015
0006
0010
000A
FFE8
0006
FFFA
FFF4
FFF5
FFF8
FFFA
0000
000B
000B
0012
FFFC
FFF2
FFF4
FFFA
FFF9
001B
0024
FFF9
FFF9
0004
0010
0013
FFFB
FFE0
FFEF
FFCC
FFE1
FFF2
FFE9
FFE6
FFFA
0030
0043
0049
0034
0023
000B
000F
FFFC
FFDE
FFD1
FFB0
FFC7
FFDC
0002
FFFF
0004
0019
0021
0019
000B
0001
0002
FFFF
0002
0008
0003
0005
0002
0003
0000
0000
0001
0001
0000
0001
FFFE
0000
FFFF
0000
0003
FFF2
FFF5
FFF9
FFFE
0000
0002
FFFF
0000
000B
0007
0007
0009
0006
FFFF
FFFF
0003
FFED
FFF0
FFF4
0005
0008
0000
0001
FFFD
FFEC
FFF7
FFFB
FFFC
FFF7
0006
0005
0001
001C
FFFB
FFC5
FFCB
FFE3
0009
0008
FFFC
0001
FFF6
FFEE
FFEA
FFE3
FFEB
FFE8
FFFF
001D
0034
0020
0019
001D
0010
0017
0024
0010
FFED
FFDF
FFC6
FFC7
000B
0008
FFFE
FFFB
003C
0004
FFDE
FFDB
0002
FFFF
FFFC
001A
FFEB
FFDC
0007
001B
FFFC
FFF9
FFF5
000E
001B
0017
FFFF
0003
000D
0009
FFEB
0006
FFE7
FFE3
0007
0014
FFE5
FFF4
001F
0022
001A
001C
FFF6
FFE3
0029
0015
FFB5
FFC1
FFE1
FFF6
001E
0032
0026
0025
FFEF
FFC9
FFCD
FFD0
000F
0018
FFD0
FFDE
0018
002F
001B
0031
FFF2
FFDE
FFD8
FFE2
FFFE
0016
0019
003A
0000
FFEA
FFD5
FFD9
0001
0004
0045
004B
FFFB
FFF0
0037
002A
FFE3
FFEC
FFB9
FFCF
0001
0003
FFFD
0003
FFFE
FFF7
0001
0005
FFFF
FFFA
0002
0001
FFF0
0002
FFFB
0005
0010
0009
FFF9
FFFC
0015
002D
0017
FFE4
FFDD
FFE9
FFF0
FFF2
0004
0034
0017
0009
FFFC
FFEE
FFEB
FFF0
0012
0027
001C
0015
FFFB
FFF9
0013
0010
FFF9
FFC7
FFE2
FFD4
FFD3
FFE5
FFFA
FFFB
0005
0048
0052
0035
0025
0024
0000
0000
0001
FFFC
0004
0000
FFFE
FFFC
0003
FFFF
0000
0006
FFFE
0000
0001
0000
0000
0000
FFFF
FFFB
FFFE
0003
0000
0001
FFFF
0001
FFFF
0005
0009
0007
FFFC
FFF9
0001
FFFF
0002
0004
0004
FFF6
FFF5
FFFD
0000
0002
FFFA
FFEA
FFD6
FFFE
FFFE
FFF7
FFF4
FFF2
FFF5
0029
0039
0026
001E
000F
0004
0001
0009
0004
FFFB
FFF4
FFE3
FFEA
0006
0003
0002
0012
0024
FFF0
FFE2
FFE3
FFFC
FFFF
0008
001F
001D
0005
FFE8
FFED
FFFF
0000
FFFF
0007
0009
FFFC
FFFF
0001
FFF3
FFF3
001B
000F
000B
002A
FFF5
FFE6
FFF3
FFF2
FFFA
001A
001F
0013
0003
FFFB
0018
0009
FFEB
FFF1
FFE6
FFE0
000C
001C
0015
000B
FFE2
FFF2
FFCB
FFDB
0014
001D
000E
0009
FFEA
FFC7
FFCE
FFE2
0023
0038
FFEF
FFF8
0032
0009
0010
0013
FFE7
FFDB
FFF4
FFF7
FFFF
FFF8
0018
0038
FFF6
FFE6
FFE1
FFEB
001F
0035
0009
000D
FFFD
FFEC
0025
0013
FFCB
FFFA
FFED
FFD7
000E
0021
0036
0022
FFDE
FFD4
FFE1
FFE2
FFFB
0004
FFD9
FFEC
0029
002B
0020
001B
FFF8
FFF3
0015
000E
0003
FFF3
FFE4
FFF0
FFEB
FFEE
000E
0009
FFFC
FFE9
FFCF
FFEB
0011
0013
0002
FFFA
FFFC
002C
0000
FFFB
FFF7
FFF4
FFF4
FFF7
0001
FFFF
000A
000E
001C
0017
FFF3
FFF2
FFFF
001B
0038
0046
0036
0034
FFFF
FFFD
0004
0035
0026
0029
0032
0024
0002
FFFF
0002
000D
0004
0000
FFFA
FFFD
0002
FFFF
0001
0006
0003
0001
0001
0002
0000
0000
0000
0002
0000
0000
FFFF
FFFE
0002
0000
FFFF
0001
FFF9
FFF6
FFF5
FFF7
0003
FFFF
0001
0005
0008
0006
0008
0006
0003
0001
FFFE
FFED
FFF4
FFFB
0002
0005
0003
0003
0008
000F
FFE8
FFD8
FFE8
FFE7
0000
0002
FFF7
FFE7
0024
0022
FFF4
FFF4
FFFB
0006
0007
FFF7
001E
0011
FFE7
FFEB
0001
0000
0000
FFFF
FFF5
FFFF
0001
0001
FFF2
FFF1
0027
0020
0004
001B
FFF7
FFF2
FFF1
FFFD
0023
FFFC
FFEC
0023
FFFC
FFEF
FFF4
FFF7
0001
0020
000C
0028
FFF7
FFE4
0018
000F
FFE4
FFD1
FFFC
FFE3
0005
0019
FFEE
FFFA
0012
FFF7
000E
001F
0003
FFEB
0002
FFFD
FFF0
FFF1
FFE5
FFE4
001B
0027
FFF1
FFF0
FFEB
000E
0021
FFF7
000C
0016
FFE7
FFEE
FFEF
0022
0012
FFEA
000C
0021
0000
FFF6
FFD9
FFDC
FFFA
000C
0025
0023
FFF8
FFFE
000E
0010
0004
0024
FFF4
FFE7
0024
0025
001B
FFEC
FFC3
FFA5
FFF2
0014
0034
0029
FFFE
FFD2
FFB6
FFA6
FFF5
000F
0023
001D
FFEF
FFB2
FFD1
FFB5
0001
001D
0023
0014
FFDE
FF98
FF9B
0006
000F
000A
FFF4
FFF8
FFF6
0009
0028
0037
0028
0013
FFFA
FFF7
FFFF
0006
FFFB
001D
0013
0009
0014
0018
0000
FF98
FF94
FFAA
FFE3
FFF8
0005
0009
FFFA
FFB2
FFC5
FFE7
FFFA
0006
FFFC
0001
FFFF
FFF0
FFEC
FFE8
FFF2
0001
FFFE
0001
FFFC
0000
0006
0002
0001
0001
0000
0000
0000
0003
0003
0000
0001
0005
FFFD
0001
0000
0004
FFFD
FFFE
0002
FFFD
FFFF
0000
0003
FFF8
FFFF
FFFA
FFFA
FFFF
FFFD
0001
0001
0000
0007
FFF8
FFFC
FFFE
0003
FFFF
0003
FFF5
FFDC
0008
0007
0007
0003
0000
FFFF
FFF5
FFF4
FFFC
000C
000E
000A
0007
FFFB
FFD1
FFD1
FFF4
000A
0010
0000
0004
FFFC
FFF4
FFF9
FFFD
FFFB
0002
FFF5
FFF8
000C
0031
003A
0003
FFEB
FFF1
FFFF
0007
FFFD
000D
0015
0005
FFF6
FFE7
FFF7
FFF7
FFF4
0019
0015
0017
0004
FFFC
FFFC
FFFC
000A
FFEB
0012
0016
0003
FFFC
000B
000A
FFF4
000D
FFF4
FFE4
0000
000A
FFFB
FFFB
0006
FFF7
FFF7
FFF6
000C
0015
FFF6
FFE5
FFFB
0017
FFF8
000B
0018
0020
FFF1
FFE6
FFD5
FFF0
FFFB
0008
003E
0043
0003
000A
0027
0027
FFF8
FFFA
FFE2
FFD0
0001
0007
FFFE
0006
FFEB
FFBC
000F
0028
FFD3
FFE3
001F
000F
003F
0030
FFFC
FFF5
0031
0026
0000
FFDE
FFBE
FFB0
FFF4
000A
0035
002B
FFD1
FFAC
FFDF
FFBB
FFF1
001A
0013
0010
0000
FFE3
FFA3
FFC8
FFFD
0007
FFEC
FFF0
0004
0042
0042
0035
0011
FFF5
FFFD
0000
FFFD
0000
0001
001B
0019
000E
FFE9
FFE9
FFF2
003D
006B
008B
0050
0026
FFF6
FFF9
000A
0041
0043
0049
0043
002E
FFFC
0002
FFFE
FFF8
FFF4
FFF9
FFFB
FFFE
FFFE
0001
FFFE
FFFE
0004
FFFF
FFFF
0001
0002
FFFF
0002
FFFF
FFFF
0000
0003
0003
FFFF
0000
0001
0006
FFFE
FFFA
FFF3
FFF7
0003
0000
FFFF
FFF2
FFFE
0003
FFFF
FFFA
FFFF
FFFF
FFFD
0012
000F
0003
FFEF
FFEC
FFFC
FFFE
0007
002B
0022
000A
0012
0003
FFF9
FFFD
0016
0011
FFE8
0003
0016
0013
0016
0013
FFFF
FFB8
FFD4
FFD9
FFE7
FFFA
0000
0000
FFFE
0002
FFFF
0002
FFFF
0006
0003
0007
0002
FFF2
FFE5
0005
FFF5
FFFB
0011
0010
FFF1
FFA0
FFC6
0008
001A
0018
0003
0001
FFFD
FFFB
FFFF
FFFA
0001
000C
FFF8
FFF5
0022
0013
000D
0006
FFEF
FFEA
0004
0004
0003
FFFB
FFFA
FFFD
0002
0000
000D
0009
FFF0
FFF5
FFFF
0018
FFFB
FFED
0026
0021
0021
FFEB
FFE3
FFFC
FFD8
FFCC
001B
002C
002A
FFEB
0018
FFFD
FFBD
FFAB
FFF5
FFE5
FFB5
FFB4
0001
002C
0044
0042
FFFE
000C
0013
0034
002D
FFEC
FFDC
FFE1
0022
0018
FFEE
FFC2
FFE5
FFFC
FFF1
FFF3
002D
0026
0018
FFDB
FF9E
FFAD
FFEB
FFEF
FFCC
FFD9
FFFE
0039
0046
005F
0032
0018
0025
0023
FFFC
FF9F
FF93
FFB6
FFDD
FFEF
FFE6
FFE9
000A
0053
004E
0040
0034
0029
0003
0006
FFF7
FFCD
FFEC
FFF9
FFE2
FFE1
FFF3
FFF9
FFFF
002F
0028
002E
0021
0016
0008
0006
FFFE
FFE0
FFF6
FFBD
FFD4
FFDC
0001
0000
0000
FFFC
FFFE
0000
0000
0001
FFFE
0000
0000
FFFB
FFFC
FFFB
0001
0001
0001
FFFF
0002
0000
FFFE
FFFF
FFFD
0001
0001
0000
FFFE
0003
0000
0002
0007
0007
FFFE
0000
0002
FFFE
FFFE
0002
FFFF
0000
0003
FFFE
0003
0015
000E
0009
0005
0002
0005
0000
FFFB
0005
FFE4
FFDD
FFEE
FFF5
0010
000D
0002
FFE8
FFDC
FFAA
FFE4
0001
FFF2
FFF2
0017
0022
001D
002E
0007
FFF6
FFF0
FFF7
001A
002B
0002
FFFA
0006
FFFD
FFE2
FFE7
0024
0022
0023
0028
FFF8
FFE3
FFFE
0001
001C
0006
FFFB
FFFF
FFFA
FFF6
0002
0006
0007
FFFE
000A
000D
FFF0
FFE8
FFFF
FFFB
FFE8
FFEE
FFFA
0002
000B
0012
FFFA
FFFE
0005
001F
FFE7
FFD0
0014
0020
FFE1
FFE4
FFF3
0008
000B
0019
0012
0016
FFD5
FFCE
FFD0
0004
001B
0039
0021
0027
0025
0027
0020
0025
FFF2
FFEE
FFD5
FFCB
0007
0011
0003
000A
0017
001C
FFDD
FFC6
000B
0009
FFD4
FFB2
FFCC
0016
0021
0023
FFE4
FFE2
FFFB
0024
0031
0012
0017
001B
0030
0023
FFF3
FFE4
FFD3
FFC0
FFE3
FFEC
FFCF
FFD6
FFF8
0039
001F
0052
005F
0055
FFDF
FFE3
FFF7
002A
004E
0058
0062
0069
FFE6
FFE6
FFF3
0045
003D
0072
00A1
0093
000F
000E
000B
FFC1
FFA5
FF97
FF84
FF85
FFFF
0001
FFFC
FFFD
FFF4
FFFE
000A
000D
FFFC
0001
FFFF
0004
0003
FFF4
FFF5
FFFF
0000
FFFF
0005
0004
0000
FFFE
FFFE
FFFD
0001
FFFF
0003
FFFF
FFFF
0001
0000
FFFD
FFFF
0000
0001
FFFD
FFFE
0002
FFFF
0001
FFFF
0001
FFFF
FFF7
FFF3
FFFA
FFF7
FFF9
FFFB
FFFF
0005
0019
000C
FFEA
FFD9
FFDA
FFFD
FFFE
0003
0028
000C
0016
001A
0017
0005
0003
FFF5
FFD8
FFCE
0015
0001
FFE8
FFE0
FFE2
0002
0064
007D
0040
000A
0003
000E
000D
FFEF
FFE9
FFF1
FFD1
FFF3
FFF4
FFFC
FFFA
FFF9
0006
000B
0017
0008
0006
FFFD
0000
0006
0002
FFF7
0000
FFFF
0005
FFFF
FFFF
0003
FFFC
FFEF
FFF4
000D
001A
0006
FFFD
FFF5
FFE7
0007
0028
FFFF
FFFA
FFF1
FFF9
FFFF
FFE9
0016
0002
0002
000A
0018
001B
000B
FFEA
FFD1
FFF0
0003
FFFB
FFE5
FFE4
FFE9
0002
FFF2
0000
0028
0029
000D
0015
001F
0006
000B
000A
FFDB
FFD5
FFEB
FFEA
0010
003B
FFFF
FFDC
000E
0011
FFF9
FFF1
FFF2
FFF2
FFE8
000D
001B
0014
FFFF
0008
000F
FFD1
FFD4
0017
FFF6
FFF6
0017
000F
FFFE
0005
FFF6
FFF4
FFDD
FFDB
FFDD
FFE6
FFF9
000E
004C
0031
001C
0026
0022
001E
0009
FFD3
FFD3
FFBE
FFBF
FFD2
001C
001C
0004
FFB5
FFBD
FFAF
FFAF
FFB6
0012
0014
0014
FFE1
FFAE
FF80
FF93
FFA6
0011
0015
0000
FF7D
FFA3
FFB1
FF89
FF84
0003
0002
FFF3
0020
003E
002F
001E
002A
0000
0000
0000
FFF6
FFFF
0002
0001
0001
0003
FFFF
0003
FFF4
FFF4
FFEC
FFEA
FFED
FFFE
0001
FFFF
FFFD
FFFD
0000
FFFF
0000
FFFF
0000
0002
FFF3
FFF6
FFFF
FFFD
FFFD
FFFE
0000
0001
0013
000F
000D
0007
000B
0002
0000
0000
FFDE
FFEF
001D
0029
0027
FFFE
FFFD
0000
0015
000E
FFD5
FFFC
FFFC
0000
0000
0001
FFFE
0000
0000
FFFE
0000
FFF1
FFF6
FFFB
0001
0017
0028
0038
0028
0015
0014
001A
FFDB
FFC6
FFC9
FFE2
FFEE
000A
0010
0009
FFD0
FFE3
0003
FFEB
FFEA
FFF3
FFF5
0009
0006
0011
0015
0008
FFFC
0004
000C
0008
FFF3
FFFB
FFE3
FFF7
0001
0011
0010
002B
0012
0007
FFC2
FFE4
0006
000C
0009
FFE9
FFE1
FFE0
FFEE
0011
0019
0004
FFFF
FFE6
FFEB
FFDC
FFF1
001C
002A
0012
FFFC
FFC6
FFED
FFF1
FFDF
0020
0035
0003
FFF6
FFF7
FFF0
FFD8
FFEE
0015
0029
0007
0001
FFF5
FFF9
FFF8
FFF5
0007
0009
FFFE
FFFD
000C
0002
FFE3
0011
0005
FFFD
FFF2
FFF5
FFF6
000C
001F
0012
0005
0000
FFD6
FFDE
0011
0036
0008
0027
0015
0011
001D
0019
0008
FFE0
FFF1
FFF2
FFCC
FFC7
FFE8
FFE9
FFFE
0024
0023
0020
0036
003E
FFE6
FFF0
001D
0023
0035
002C
0026
001F
0008
0007
FFFC
FFE5
FFE1
FFD2
FFC8
FFCD
FFF7
FFF8
0000
0038
0049
002B
003F
0044
FFFE
FFFA
FFFF
0042
0037
0056
004D
002D
FFFF
0002
FFFB
FFF3
FFF3
FFF3
FFFC
0003
0001
FFFF
0001
FFF7
0001
0002
FFFF
FFFD
FFFF
0000
0003
0002
0001
0002
0002
FFFE
0003
FFFF
0001
0001
0008
0007
0007
0004
0002
FFFF
0002
0012
0014
0010
0005
FFFF
0007
0002
FFF7
FFCD
FFFB
0013
0023
002B
0005
0003
FFFA
0005
001C
0008
FFEB
FFEE
0003
0009
002A
FFBD
FF9E
FFCB
FFE6
FFEA
0016
000F
FFEF
FFD2
FFEB
FFF3
FFDE
FFE4
0019
0015
0007
FFE5
FFDF
FFCA
FFDD
FFF3
001D
0018
FFFC
FFC0
FFD3
0003
FFE4
FFE8
FFF7
FFF4
FFE2
FFFE
0026
002C
0010
0007
FFD8
FFDC
000F
0011
0020
003C
0012
FFF8
0027
0024
0010
FFD1
FFA0
FFCA
0008
002C
FFE2
FFEA
000C
000B
001E
0053
FFF2
FFD4
FFF2
0002
0008
0011
0031
002C
FFE0
FFC4
FFFF
FFF3
FFD0
FFFE
0008
FFF6
0018
0029
FFEE
FFFF
001F
0013
0021
FFFE
FFEF
FFEF
FFF3
FFFB
0016
0020
000E
001D
FFEE
FFDF
000E
0000
FFE4
FFFA
0004
0007
0003
0002
FFF3
FFF4
0009
0042
0023
0009
FFEF
FFF0
001A
0018
0016
0003
FFCA
FFC9
FFF6
0001
0024
0025
000F
FFDD
FFB2
FFDB
FFDE
FFDD
FFFC
0001
FFFE
0003
FFFF
0007
FFFD
0000
0006
0005
FFFA
FFEC
FFE7
FFE1
FFF9
0008
0003
0002
FFFA
FFF2
FFFB
FFFB
FFEF
FFEF
0000
FFFF
FFFD
0018
0025
0022
002A
0023
0006
0006
FFFB
FFD1
FFBB
FFAF
FFAF
FFC4
0001
0000
0000
0013
001D
000C
FFF6
FFF6
0004
FFFF
FFFF
FFF4
FFEB
FFF6
FFFA
0001
FFFF
FFFF
0004
0002
0001
0003
0003
0002
FFFF
0001
FFFF
FFFC
FFFF
FFFD
0001
0001
0002
FFFF
0004
0007
0010
0011
000D
0008
0003
0003
FFFC
FFD2
FFD1
FFEA
0007
0015
0001
0000
0003
0019
FFF6
FFE9
FFFB
FFFF
0004
0002
FFE9
FFE5
0012
002A
002A
001A
0008
000E
001E
0010
FFEE
FFC7
FFCB
FFCE
0016
0019
001B
FFE3
FFBF
FFB8
FFE3
FFF7
0025
0021
FFFF
FFD4
FFF8
FFDD
FFD0
FFDA
FFE6
FFE2
FFDD
FFFB
000A
0040
002F
0026
FFC1
FFCA
0004
0027
0055
0045
0013
0004
002C
0028
000E
FFCE
FFBE
FFB6
FFFB
0018
FFDF
FFEB
002D
003E
003C
001B
FFE1
FFD6
FFFB
0008
0024
0040
002F
000D
FFC4
FFAC
0003
0010
001B
FFF8
001D
0009
FFDD
FFCC
FFF2
FFF7
FFFE
0020
003B
000C
FFF3
FFF4
FFE7
FFED
0019
0038
0020
000E
FFF9
FFF2
0005
0006
FFFA
0027
FFE0
FFD2
0005
0007
0003
0001
FFF3
0008
000B
FFF7
0004
000B
0027
001E
FFFD
FFA5
FFAD
FFEE
0011
0021
0020
0011
0000
FFD1
FFCC
0003
FFF6
FFE9
0005
0009
0016
FFCD
FFD7
FFEE
FFF5
FFF9
FFFE
FFFB
0019
0014
FFF1
0000
0008
FFFF
FFFC
FFFF
0012
002A
0037
0017
FFD5
FFD5
0000
FFFE
0008
0012
000B
0014
0002
FFF8
FFF5
FFF8
000B
0069
004C
0055
004F
0039
FFFE
FFFF
0001
FFB8
FFB7
FFD6
FFEF
FFFB
FFFC
0002
FFFC
FFFD
FFFF
FFFC
FFFA
0001
0000
0001
FFFE
0002
0000
0003
0001
0002
0001
0000
FFFF
000D
0003
FFFD
FFFD
FFFE
0000
0000
0001
FFFA
FFFF
FFFF
FFFE
FFFB
0008
0004
FFF7
FFC1
FFEB
FFF3
FFED
FFE5
0000
0004
FFFF
0001
000A
FFEA
FFE6
FFF6
0002
0000
0000
FFFF
FFFD
0002
0000
FFFF
0004
0001
FFE7
0012
0018
0003
000C
0018
000F
000E
0002
FFE9
FFF5
FFE6
FFE6
FFEF
0025
0025
0008
FFBB
FFD6
FFD9
FFE1
FFF7
0025
0023
0020
FFF5
FFE4
FFCF
FFCA
FFCE
003A
0038
0015
FFB1
FFCE
FFB8
FFE3
FFF5
FFD7
FFD9
0007
0065
003F
001E
0000
FFEE
0003
0006
FFF0
FFDB
FFC5
0002
0011
0016
0013
0011
0002
0005
0039
0017
FFCA
FFC8
FFFC
FFFD
FFF1
FFEE
FFEC
000C
000C
0008
FFFD
FFFF
FFFA
FFFA
FFFB
000C
0006
0004
FFEE
FFF4
FFF3
002C
003C
0004
FFFC
FFF5
0004
0001
FFFB
FFD9
FFDA
0003
000F
0011
FFFC
FFF3
FFE5
FFEF
0013
0015
0012
0016
0001
0000
FFF8
000A
FFEC
FFEC
000D
0015
FFED
FFF4
0006
003C
001F
0013
FFFA
FFF3
FFFD
0000
0002
FFFE
FFFD
FFFD
0000
0000
0001
0000
FFFE
FFFE
FFFB
FFFE
0001
0001
FFFF
0002
0000
FFED
FFF2
FFF8
000A
000C
0001
0002
FFF8
FFFC
FFFE
0001
FFF6
FFFF
0009
0005
FFFE
FFA9
FF9C
FFB4
FFB3
FFC6
0000
0000
FFFF
FFEF
FFDF
FFE6
FFF0
FFF3
0000
0000
0002
000D
000C
FFFE
0001
FFFD
0000
FFFF
0003
0001
0000
FFFF
FFFF
FFFF
FFFE
0000
0000
0003
FFFE
0002
FFFD
FFFE
0002
0000
FFFF
FFD5
FFED
FFF3
FFFD
FFF9
FFED
FFF2
0012
0040
0010
0038
0036
0024
0008
0009
0009
FFE5
FFF9
FFF4
FFE0
FFE2
FFF8
FFFE
0006
0001
FFF1
0016
FFFF
0001
0001
0000
0003
FFF4
FFFF
FFFD
0000
0007
000C
0007
000D
0016
FFD9
FFBA
FFFC
0008
FFD8
FFD7
0013
0041
0041
0049
FFF1
FFDD
0039
003A
0006
FFC4
FFA8
FFC1
FFEC
FFF6
FFC5
FFCE
0000
0017
004E
004E
0012
000A
FFEC
FFEB
0005
0055
0050
0014
FFE8
FFDE
FFFD
FFFE
FFE3
FFC3
FFDF
FFFB
0027
0030
0016
0014
0008
0006
FFFF
FFFF
FFEA
FFE0
0007
0009
FFF7
FFF6
000B
FFFE
FFF7
FFF1
FFF6
FFFE
000E
0009
000C
0026
FFF1
FFE8
0008
0005
FFE2
FFEF
FFFD
FFF4
0006
0014
FFEB
FFF5
002B
0035
0006
0006
FFF1
FFDA
000C
0003
FFF1
0004
FFD0
FFD8
0018
0029
FFFF
0000
0000
0001
0001
FFFE
0000
0002
FFF6
FFFC
0029
0013
FFFF
0007
FFF5
FFF3
0005
0002
FFFD
FFDE
0004
0014
FFF0
FFED
0004
FFFF
0001
0003
FFFE
0003
FFFD
FFF9
0001
FFFD
0003
0011
0016
0025
FFFE
FFF0
FFFD
FFFF
000E
0018
004E
0026
FFE4
FFE0
FFFE
FFFF
000A
0018
0033
0056
003F
0026
0003
FFFF
0002
0005
FFFF
FFFD
FFFC
0004
FFFE
0000
0000
FFF8
FFF0
FFF2
0000
FFFF
FFFD
0001
0000
FFFE
FFFD
FFFE
FFFD
0002
FFFF
0000
0001
FFFB
FFFE
0001
0002
0001
0002
FFFF
0001
FFF4
FFF2
FFF5
FFFE
0004
FFF1
FFF6
FFFC
0012
002F
005E
003E
0029
0006
0006
0002
FFE2
FFEE
FFFB
FFE8
FFE6
0004
0006
0001
0005
FFF0
FFFB
FFFB
FFF9
0003
0001
FFFB
FFFA
0001
0008
FFFF
FFFB
0003
000B
000C
FFF3
FFE1
FFDA
FFF9
000E
0012
0013
FFFD
FFF4
FFEE
FFD2
FFF1
FFFE
0045
0046
FFFE
FFA9
FFB1
FF9D
FFFA
001C
FFAC
FFB8
0009
0047
0064
004A
0018
0002
FFDE
FFE6
0004
0031
0028
003C
0003
FFEB
000B
0006
FFFA
FFEF
FFF2
FFED
FFFD
000E
FFF1
FFEF
FFFF
FFFE
FFEB
0010
0013
0017
FFF1
FFFD
002D
0032
003D
001F
FFCA
FFB3
0019
0008
FFC0
FFC1
FFF3
FFF1
0024
0033
001F
0013
FFCC
FFC1
FFDF
FFDA
0027
003D
FFF5
FFF8
0018
000D
0028
001F
FFEA
FFDA
FFF2
FFF5
0008
0023
001F
0015
FFEA
FFE1
0007
0003
FFFB
FFDE
FFF4
0000
0003
0009
FFF3
FFF5
000B
0038
003A
0028
FFDC
FFCC
0002
0002
0003
0001
FFF3
FFEF
FFF9
FFF4
0009
0008
FFF8
000D
FFE1
FFDC
FFEB
FFF3
FFFA
FFFD
0007
001A
0050
0005
FFE7
FFDC
FFFF
0000
FFDE
FF8F
FFD3
0031
0047
0039
0002
0000
FFFE
0016
FFFE
0002
0006
0001
0001
0000
FFFF
FFDC
FFD7
FFDF
FFF5
FFFC
0002
0000
FFFE
0003
000D
0002
0001
0002
0001
0000
0000
0001
0002
0002
0000
0001
0004
FFFF
0002
FFF7
FFFB
FFFF
0002
0003
0001
0000
FFFF
000C
0010
0008
0006
0006
000B
0005
FFFC
FFC6
FFC8
FFEB
FFFD
FFFB
FFFA
0000
0006
0005
0003
001B
0000
FFF5
0006
0003
FFE1
FFFB
0008
001D
0012
0007
FFF6
FFFB
000A
0006
000E
0012
FFFD
FFFC
FFFB
FFF6
FFE0
FFD6
0009
0033
0025
001F
FFF2
FFF8
FFF7
0010
001E
0019
0003
0003
004C
003D
FFDB
FFA3
FFC8
FFBB
0007
0014
005C
004B
FFF9
FFB2
FFA2
FFB7
FFF4
0006
FFC4
FFCD
000F
0047
0057
0049
FFF7
FFE5
FFE3
FFEA
003D
004F
0037
002E
FFCF
FFBB
FFFE
0003
0026
0034
003B
FFF4
FFD5
FFD3
FFEF
0001
0032
002C
0021
FFFF
FFDC
FFD1
0008
0004
FFEC
FFD8
FFCE
FFEC
0020
0035
000D
0011
001A
0011
FFFC
0006
FFE3
FFE0
FFF4
0000
003C
0045
0023
FFDD
FFDB
FFDB
0003
0001
FFEE
FFFA
FFE8
FFED
0010
001D
FFE7
FFF5
0030
001B
0017
0013
FFF2
FFD8
0003
0001
FFFF
0008
FFFD
FFFA
FFF3
FFF1
000F
000C
000B
FFC5
FFC5
FFDD
FFFB
0004
000A
000A
FFEE
FFBE
FFCD
FFF7
0013
0016
FFFF
0000
0000
FFFC
FFF6
0005
FFF6
FFF9
0001
0003
0001
0012
0000
FFEF
FFDF
FFDD
0000
FFFE
FFFF
FFEC
000F
0020
000A
0007
0002
FFFF
0004
FFF4
FFF7
FFF8
FFF9
FFF9
FFFE
0001
FFFF
FFFA
0001
0002
FFFE
0002
FFFF
0000
0002
FFFE
0003
0001
FFFE
FFFF
0001
FFFF
0004
FFFC
0001
0001
0000
0000
0001
0000
0002
FFFC
FFF8
FFEE
FFF1
FFF7
0002
0000
FFFF
FFD3
FFB4
000A
0029
002C
FFFC
FFFE
0008
0025
0018
FFF5
FFEE
FFF0
FFFF
0001
0009
FFFC
0002
FFEA
FFF2
FFFE
FFF6
FFF9
FFE6
FFDC
FFFE
0028
003F
0049
FFFE
0006
0016
001D
0018
FFC4
FFD5
FFE9
FFFA
FFFA
FFFC
000A
FFF5
0003
0014
000E
FFDA
FFD9
FFE1
0027
0021
004E
0016
0005
FFB6
FFCE
0011
0027
0036
0032
000E
0008
0041
002B
FFF6
FFF4
FF97
FFB0
000E
001D
002D
001A
FFE2
FFC2
FFCA
FFD7
0014
0026
0029
001D
FFD5
FFA5
FFCC
FFF4
001B
002D
000A
0002
FFEB
FFEE
FFBE
FFE7
0026
003E
0012
000E
FFD8
FFA1
FFCA
0007
0029
002C
FFFD
FFF9
FFED
FFE3
FFE6
FFCB
002B
0044
0003
0009
0021
0013
0003
FFFD
FFE7
FFE4
0000
FFFF
FFEA
FFF7
FFCD
FFFE
0019
001B
FFFF
0000
FFEF
FFEC
FFD7
FFE9
0028
002F
FFFD
FFF6
000C
000A
FFC0
FFFB
001C
0024
0004
0000
FFFB
FFFE
0000
0005
0005
0009
FFFF
0001
0002
000F
0015
FFEB
FFE8
FFEB
FFF8
FFF9
0001
0030
0025
000B
0013
0015
0007
0003
0003
FFDA
FFEC
FFE6
FFDE
FFE1
0000
FFFD
FFF9
FFCC
FFD3
0015
0025
001E
0000
0000
0000
FFFF
FFFD
0004
FFFF
FFFF
FFFD
0001
FFFF
0002
FFFE
0003
FFFE
FFFD
0003
FFFF
0001
0002
FFFD
0000
0002
0002
0003
FFFF
0000
0001
0002
0000
0001
0001
FFFD
0000
0001
0002
FFFE
FFF8
FFFA
FFFA
0000
0000
FFFE
FFEA
FFF0
FFF5
FFF7
FFF8
FFFF
FFFF
0003
001A
000A
0002
0014
0013
0002
0003
0001
FFF6
FFF5
FFEF
FFEE
FFEE
FFFF
FFF7
FFEB
0012
0018
000D
002C
0031
0013
000C
FFF4
FFE2
000A
FFF4
FFD8
FFD5
FFE7
FFE4
FFE3
FFEF
001C
0052
002C
0020
001B
001F
0015
FFFD
FFE1
FFCC
FFE2
FFE6
FFCA
FFD5
0006
0001
0026
003E
0016
0001
0052
0038
FFD7
FFD1
FFC6
FFD9
FFFC
000B
FFB1
FFC3
001F
003A
0037
0047
FFFE
FFEB
0024
001C
FFE7
FFC1
FFBF
FFEC
0014
001B
FFFC
FFF4
FFE2
0004
FFE7
0002
0015
0017
FFFB
FFFD
FFF9
0003
FFF3
FFF7
000A
0010
000B
000E
0019
FFFB
0002
FFFD
FFE9
FFEC
001A
001A
0000
FFF5
FFE4
FFFD
FFF4
FFEB
FFF5
FFF4
FFF0
0008
FFEA
0015
001D
0013
0007
000C
0019
FFD6
001B
0018
FFCB
FFBB
FFFD
FFFC
FFE3
FFFA
0006
0002
0029
002B
0004
0002
0007
002E
FFF9
FFE2
FFE3
FFDE
0005
0003
0000
0003
FFFA
FFD5
FFE3
FFE9
FFF8
FFF8
FFFF
0025
002E
0028
0021
0018
0003
0002
0004
FFE4
FFE5
FFDE
FFEF
FFEE
0000
0000
0001
FFFF
FFFB
FFFB
FFF8
FFF6
FFFF
FFFF
0005
000B
0008
0000
0003
0000
FFFD
0001
0000
0001
FFFF
0001
0000
0000
0001
0000
0000
FFFD
0003
0002
0002
FFFD
FFFF
0000
0000
0001
0002
FFFD
FFFE
FFFF
FFFE
0001
0000
FFF2
FFFC
FFFC
FFFA
FFFD
0000
0002
0000
FFDB
FFCF
FFD3
FFD2
FFDD
FFF2
FFF1
FFFD
004B
0054
003D
0026
001F
FFF8
FFFA
FFF5
FFF5
FFEE
0023
004F
0050
FFFC
0001
000A
001E
0006
FFF4
FFF3
FFF8
0003
0003
FFFF
FFF6
0019
FFEF
FFE8
FFE9
FFEB
FFEB
FFF3
FFF0
000C
0046
0034
0020
FFF0
FFEF
FFFC
0014
FFFE
FFFA
002D
0035
FFF7
FFF7
0001
FFEC
FFFF
002A
0013
000F
001D
001A
0007
FFF3
FFEB
FFE9
FFDF
FFE7
FFE6
FFE7
0003
000D
001D
002E
000E
0000
0007
000A
0013
FFE1
FFE0
FFDF
FFFF
0002
FFFA
FFFF
000E
002B
0001
0014
FFF2
FFE6
0007
0008
0007
0009
0029
FFF7
FFE6
FFE6
001A
0019
0008
FFD8
FFE2
FFFD
FFF7
FFEB
0017
000C
FFF9
0007
003A
FFF9
FFC0
FFC4
0006
0008
0020
002E
FFEA
FFD5
FFDF
FFDB
FFE9
FFED
0007
003A
0025
FFFC
001B
002E
FFF7
FFF9
FFE8
FFD1
FFF0
003D
0055
0041
FFFC
FFFE
FFF6
000D
001A
000C
0033
003D
0009
0001
FFF6
FFE2
001C
0006
FFF8
FFF9
0001
0005
FFFF
FFE8
FFEA
FFE7
FFDF
FFDB
0002
0003
FFFD
FFF2
000B
FFF0
FFDF
FFED
FFFE
0000
0003
FFFC
FFFE
0000
FFFA
FFFC
0000
FFFF
0002
0013
0009
0007
0002
FFFF
0000
0000
FFFF
FFFE
FFFF
FFFF
FFFE
0003
FFFE
0001
FFFF
FFFF
FFFE
FFFE
FFFE
FFFF
0001
FFFF
0000
0000
0002
FFFD
0000
0001
FFFF
0000
0000
FFFE
0002
0001
0005
0003
0002
0000
0000
FFCE
FFD0
FFDC
FFE3
FFE9
0006
0005
FFF9
FFDF
FFC7
FFC3
FFC2
FFC3
000D
000B
FFFE
FFC8
FFCE
FFBE
FFE0
FFE2
0004
0003
0002
FFEC
000E
FFF1
FFDE
FFEB
FFFC
FFFB
FFF9
0004
0003
0017
0033
0030
FFFC
FFFE
FFFE
000E
FFF6
0015
000C
0007
FFFF
FFFE
FFFC
FFEF
FFF6
0016
0016
0012
FFFC
FFFD
0018
001B
FFE8
FFE0
FFF0
FFF4
FFF9
FFFB
FFEC
FFFA
000F
0016
002E
002F
0002
0003
FFF4
000F
0009
FFF0
FFF3
0000
FFFE
FFFE
0006
FFFB
0003
000B
FFFC
FFFB
0005
0004
0006
FFFD
FFEE
FFEB
0004
000B
000F
000B
FFED
FFEE
FFF1
FFE7
FFFC
0010
FFED
FFF3
0003
0019
FFFD
000B
0022
0021
FFF6
FFF6
0002
FFFE
0014
0019
000A
0012
FFFC
FFFF
0000
0006
001F
FFF8
0000
0008
FFFE
FFFE
FFF9
FFFB
0013
0019
0017
0014
0006
0002
FFF4
FFFB
FFEF
FFF8
FFF4
FFF6
0001
0000
0002
FFF8
FFFA
FFFC
FFF8
FFF1
FFFF
0000
0001
0000
FFFF
0006
0005
0005
FFFD
0001
FFFE
0006
FFFB
0008
0003
FFFE
0000
0002
FFFD
0019
001C
0005
FFED
FFEB
FFFC
0002
FFFD
FFFC
0004
000D
000A
0004
FFFF
0001
FFFE
0002
0000
0002
0000
0000
0000
0000
FFFE
0002
0002
0001
0001
FFFE
FFFF
0000
0001
FFFE
0001
0003
FFFF
FFFE
0001
FFFF
0002
0003
0000
FFFF
FFFD
FFFD
0000
FFFF
0004
0002
0002
FFFE
FFFF
FFFD
FFFF
0001
FFFE
FFF2
FFF5
FFED
FFF0
FFF2
0001
0000
0000
FFFC
FFFF
FFFA
FFF9
FFFA
0002
FFFF
0000
FFF9
0008
0001
0005
0005
FFFC
FFFF
0005
001F
FFF1
FFFF
0017
0026
FFFF
0002
000A
FFFA
FFEB
FFCE
FFD9
FFE7
0004
0005
FFFC
FFDE
FFE5
FFCA
FFE5
FFF7
0006
0006
FFFA
FFE3
FFDC
FFC9
FFDE
FFE3
FFF8
FFFD
0006
002F
0009
FFFE
FFFC
FFFE
FFF6
FFF8
0005
0036
001D
FFFE
FFFF
0006
0005
0005
0002
FFEC
FFDE
FFFE
0001
FFFC
000B
000A
FFF5
FFE8
0006
FFF5
FFEA
FFE6
0003
0002
FFFC
FFF3
FFF9
FFED
FFE3
FFE2
FFF8
FFF8
FFF8
0005
0020
004A
0037
001D
FFF2
FFF7
0006
0041
002A
0029
0024
001F
000A
0008
0007
FFD7
FFCC
FFD0
FFC1
FFC6
FFFE
FFFC
0003
001F
0015
001C
001A
000D
FFFF
0000
0002
000D
0004
000B
0001
FFFC
0004
0000
FFFA
FFCC
FFDD
FFE0
FFD8
FFD9
FFFD
0001
0002
0014
002C
002A
0024
001F
FFFF
0002
FFFB
FFE6
FFFA
0008
FFFD
FFFC
0003
FFFE
0004
0001
0000
FFFF
0000
0000
FFFD
0000
0002
0000
0001
FFFE
0002
0002
FFFE
0001
FFFF
FFFF
FFFF
FFFC
0000
0003
0002
0000
FFFF
0003
FFFE
FFFE
FFFE
0003
0001
FFFF
0004
0002
0001
FFFD
FFFD
FFFE
0001
0000
FFFE
0003
FFFF
0001
0000
0001
FFFC
0002
FFFC
FFFF
0003
0003
0001
0001
0002
0000
FFFE
0000
FFFF
0003
0001
FFFF
0003
0000
FFFF
FFF6
0003
FFFD
0000
0001
0003
FFFF
0001
0005
0004
000A
0004
0006
0002
FFFE
0003
0003
FFCA
FFC7
FFE1
FFEC
0001
FFFF
0000
FFE4
FFE2
FFD2
FFDB
FFE3
0000
FFFF
FFFC
FFD7
FFD9
FFC3
FFE1
FFE5
0002
0000
FFFE
FFFA
FFFB
FFF2
FFDD
FFE5
0001
FFFF
0004
002A
0015
002E
0015
0004
FFFF
FFFF
FFFF
0021
001D
FFDF
FFC9
FFD7
0001
0001
FFFD
FFFC
0001
0009
FFFB
FFF9
0002
FFFF
0004
0019
0011
0005
FFF7
FFF4
0001
0000
0000
FFFD
FFF9
FFEB
FFF0
FFF7
0001
FFFE
0006
0017
0019
0022
001D
0017
0000
FFFE
0002
0017
001C
001D
001F
001E
FFFF
0002
FFFF
FFCA
FFE8
FFE9
0009
0013
0000
FFFE
0001
0012
0020
0022
0017
0010
0002
0000
FFFD
0009
0024
001E
FFF8
FFF6
0005
0000
FFFF
FFDF
FFDD
FFE0
FFEB
FFF5
FFFE
0001
FFFB
FFE3
FFF7
FFF5
FFCB
FFC5
FFFD
0002
FFFC
0016
001E
001B
001D
0016
FFFF
0001
FFFF
FFF4
FFFE
FFF8
FFED
FFF9
FFFE
0000
0001
000A
0008
000A
FFFD
0003
0002
0000
FFFD
0003
0000
FFFF
0001
0001
0003
FFFF
0000
0004
FFFE
0002
0001
FFFF
FFFD
0001
FFFF
0003
FFFF
FFFF
0001
FFFE
0003
FFFF
FFFF
FFFE
0002
0001
FFFE
FFFE
0000
0000
0000
0001
0000
0001
0003
FFFE
0000
0000
FFFF
0001
0003
0001
0002
0003
FFFC
0001
0001
0003
0001
0002
FFFF
0001
FFFD
0000
0001
0002
FFFE
0000
0002
FFFF
0001
0000
FFFE
0003
FFFF
0001
FFFE
FFFD
FFFF
0001
FFFF
FFFB
FFFE
FFFA
FFFC
FFFE
0003
FFFF
FFFF
FFFF
FFFB
FFFE
FFFF
0002
0003
FFFE
0003
FFF7
FFF9
0007
0008
0006
0000
0000
0001
FFFE
FFFB
FFFE
FFFF
FFFE
0001
0000
FFFE
0002
FFFF
0000
FFFE
FFF8
FFFE
0000
0000
FFF9
000B
0013
FFFF
FFFE
FFFE
0001
FFFF
FFF7
FFEE
FFFB
0005
0006
0001
0000
FFFE
FFFB
FFFA
FFEE
FFF3
FFF9
FFFE
0000
0003
FFFA
FFFB
FFFE
0006
FFFF
0002
0000
FFFF
000C
000D
0004
FFFC
0002
FFFE
0001
0000
FFF6
FFFC
0001
0000
0004
0000
0000
FFFF
FFFD
0000
0003
0001
FFFC
0000
0000
FFFE
0008
FFFF
FFFD
0001
FFFE
0000
FFFF
0003
FFF5
FFF1
FFFA
0009
0010
FFFE
0001
FFFF
0005
0004
FFF9
FFF9
FFFF
FFFF
0000
FFFF
FFFE
FFF4
FFEC
FFE6
FFEE
0001
0000
FFFE
000C
000C
0015
000B
0004
FFFE
0000
0001
001D
001C
0005
FFF1
FFF3
FFFE
0001
FFFD
000B
FFFE
FFFF
0001
FFFD
FFFE
0000
0003
0001
0003
FFFF
0002
0002
0000
0000
FFFF
0001
0000
FFFF
0002
0003
FFFF
0000
0000
FFFF
FFFF
0001
0002
0002
FFFF
0001
FFFF
FFFF
0001
FFFE
FFFE
0002
0004
FFFE
0003
0000
0000
FFFF
FFFD
FFFF
0001
0000
FFFE
FFFE
FFFF
0002
FFFF
FFFF
FFFE
0001
FFFD
0001
0002
FFFF
FFFF
0001
FFFF
0000
0002
0002
FFFE
FFFF
FFFF
0003
FFFF
0001
FFFC
0000
0003
0003
0001
0000
FFFE
0000
0001
FFFD
0001
FFFF
0000
0000
FFFF
0000
0000
0000
FFFE
0000
FFFE
0000
FFFE
0001
FFFF
0003
FFFE
0000
0003
0001
0002
0000
0000
0003
FFFE
FFFF
0003
0002
FFFF
0000
FFFF
0001
FFFF
0000
FFFE
0000
0002
0000
FFFE
FFFE
0002
FFFE
FFFF
0000
FFFE
0001
FFFF
0000
0000
0000
FFFF
FFFD
0000
0000
0001
FFFD
FFFE
FFFE
0003
FFFE
0004
FFFF
0000
FFFF
0000
FFFF
FFFD
0000
0001
0000
0000
FFFF
0000
FFFD
FFFC
FFFE
FFFC
0001
0000
FFFE
0003
0001
0000
FFFE
0000
0001
FFFD
0001
0001
FFFD
0000
0002
0002
FFFF
0003
FFFD
FFFD
0001
0001
0003
FFFF
FFFF
0004
FFFE
0001
0000
FFFD
FFFF
FFFF
0000
0000
0001
0003
0000
FFFF
0001
FFFD
0001
FFFE
FFFE
0000
0002
0002
FFFE
0002
FFFF
0000
FFFF
FFFD
FFFE
FFFF
0001
FFFD
0001
FFFE
0000
FFFF
0003
0000
FFFE
FFFF
0000
0001
FFFD
FFFF
FFFF
0003
0000
FFFF
0001
FFFD
0002
0002
0003
FFFD
0002
0000
0000
0000
FFFF
FFFF
0002
FFFD
0000
0003
FFFF
0002
FFFD
0000
0000
FFFF
0002
FFFE
0000
0001
FFFF
FFFD
FFFE
0001
FFFE
0002
0000
FFFE
0000
0000
FFFE
0001
0001
0000
0000
0000
0002
FFFF
FFFF
FFFD
0002
FFFE
0001
FFFF
0001
0002
0002
FFFF
0001
0003
FFFF
0001
FFFF
0001
0001
FFFE
0002
0004
FFFF
0001
0000
0003
0002
FFFE
FFFD
FFFF
0000
0001
0002
FFFE
0002
0001
0000
FFFD
0002
FFFC
FFFB
FFF9
0000
0001
0002
FFFC
0002
FFFE
FFFF
0002
0005
0001
0000
0001
0000
0002
0001
FFFF
0007
000C
000B
FFFE
0000
0000
0003
0001
FFFD
FFFE
FFFC
0000
FFFF
0004
000C
0007
000A
0007
0008
0001
FFFF
0003
FFF6
FFF4
FFF9
FFFB
0002
0002
0000
FFFC
FFF9
FFF9
FFFF
0007
0006
0004
FFFF
0000
0000
0006
000E
0006
0004
0002
0000
0001
0012
000A
0003
0004
0002
0002
0000
0001
FFFD
0003
0006
0005
0009
FFFE
0000
0000
0003
0001
FFFF
0001
FFFB
0002
0000
FFFF
FFFB
0004
FFFE
FFFE
0002
FFFC
0002
FFFE
FFFC
FFF9
FFF5
FFF5
FFFB
FFFC
0001
0000
000A
0009
0008
000A
0006
0003
0000
0000
FFEE
FFF0
FFF4
FFF9
FFFF
FFFF
0000
0000
FFFF
FFFC
FFFF
FFFC
FFFC
0003
FFFF
0000
0005
0006
0006
FFFF
FFFD
0000
0000
FFFF
0003
0001
FFFE
FFFD
0003
FFFF
0000
FFFF
FFFE
FFFF
FFFF
FFFD
0003
FFFE
0001
FFFC
FFFF
FFFE
0003
0001
0003
0002
0000
FFFD
0001
0001
FFFD
FFFF
FFFF
0000
0001
FFFE
FFFE
FFFE
0000
0000
FFFD
FFFE
0000
0002
0003
0001
0000
FFFF
0003
FFFD
0001
FFFF
FFFE
0000
FFFF
0003
0000
FFFF
0000
FFFF
0003
0000
0002
0000
FFFF
0001
0000
FFFD
FFFE
0001
0000
0002
0001
0000
0001
FFFC
FFF8
FFFC
FFFE
0001
FFFE
0002
FFFF
0000
FFF9
0001
FFFE
0001
FFFD
0001
0001
FFFC
FFFF
FFFD
FFF2
FFF1
FFF8
0000
0001
FFFE
0005
FFFD
FFFF
FFFE
FFFD
FFFE
0001
FFFF
0008
0003
0003
FFFE
0001
0001
FFFF
0001
FFF6
FFF7
FFF2
FFF3
FFF5
FFFF
0000
0000
0007
0006
FFF2
FFFE
0004
0002
0001
FFFB
FFE5
FFE0
FFF5
FFEC
FFE8
0001
0001
FFFC
FFEE
0010
001B
0001
FFF5
FFFF
0000
FFFC
0015
001B
0005
FFEE
FFF6
FFFE
0001
FFFD
FFF5
0005
FFFB
0002
0007
0000
FFFF
0004
002B
0002
FFF6
0007
0006
0001
FFFF
0002
0010
0005
0002
0013
000E
FFFF
0000
FFFD
0006
0022
001E
0017
000D
0004
0006
FFFD
FFB7
FFC6
FFE8
FFE9
FFEE
FFFC
FFFF
FFFF
003A
005C
0023
002E
0036
FFFF
0001
FFFF
0000
FFF6
0001
FFFE
FFFE
0000
FFFF
0003
0002
0007
0002
FFFA
FFFD
FFFE
0001
FFFE
FFD4
FFE0
FFE3
FFEA
FFF2
0001
0001
FFFC
FFE8
FFEB
FFF3
FFEF
FFF8
FFFD
0001
FFFF
0006
0008
0001
0001
FFFE
0000
FFFF
0003
0003
0002
FFFF
0000
0002
0002
FFFF
0001
0000
0002
0000
0002
0002
FFFE
0001
0000
0002
FFFE
FFFD
0001
FFFF
0002
FFFF
0002
0003
0000
FFFF
FFFF
0002
0000
FFFF
0004
FFFD
0000
0002
FFFE
0003
FFFE
0000
0001
0003
0002
0002
FFFF
0000
0000
0000
0001
FFF8
FFFE
FFFE
0002
0000
0000
0001
FFFE
0001
FFFF
FFFD
0003
FFFF
FFFF
0000
0003
000B
FFFD
0000
0001
0001
FFFD
0001
FFFE
000C
0009
FFF6
FFF2
FFF8
0001
FFFF
0003
FFFE
FFF8
FFFD
0009
000A
FFFF
0001
FFFE
0003
FFFF
0000
FFF5
FFF5
0000
0000
0001
FFFF
0001
0000
0003
0000
0002
0000
FFFC
FFE2
FFED
FFFB
FFF8
FFF4
0002
0004
000D
FFC8
FFC7
FFE2
FFEB
FFF1
0004
0005
0004
FFF4
FFC6
FFDC
FFF4
FFE2
FFEF
FFED
FFF3
0032
000F
0019
0071
008A
FFF0
FFE8
FFCE
000B
005D
0063
0055
0041
FFEE
FFF5
000A
001A
0001
001B
0021
001D
0009
000A
0002
FFF7
0018
FFEC
FFC0
FFC4
000B
000A
000F
FFF1
FFD4
FFEB
FFD0
FFC5
0004
0003
0000
FFF1
FFEB
FFE9
FFF1
FFF5
FFF9
FFFA
0001
001A
0028
001A
0004
FFFD
FFFF
0000
0001
FFFC
0001
0004
FFFC
FFFB
0004
0002
0000
FFE2
FFD2
FFD0
FFF8
FFFF
FFFE
0000
0002
FFFF
FFD9
FFD7
FFD1
FFDD
0002
0000
FFFD
FFE2
FFFD
FFD8
FFBF
FFD3
0000
0000
0002
0012
001F
0017
0006
0006
FFFF
0001
FFFE
0002
FFF9
FFF7
FFFD
0003
FFFC
0001
0001
FFFE
FFFC
FFFE
0001
FFFD
0001
0000
0001
FFFE
0001
FFFF
0000
FFFD
0001
0000
FFFE
0003
FFFD
FFFD
0002
0000
0002
0000
FFFF
FFFD
FFFD
FFFD
0003
FFFD
0000
FFFF
0002
0004
FFFE
0001
0000
FFFD
FFFD
0002
FFFC
0008
0008
FFFE
0001
FFFE
FFFF
0000
0002
FFFB
0002
0005
0007
FFFE
0000
0000
0000
0001
000B
0019
000E
0006
FFFC
0001
0001
FFE9
FFC7
FFE7
0008
000C
0005
0003
FFF5
FFD9
FFDA
FFDF
FFE8
FFF9
FFFD
FFFF
0006
001A
000D
FFFE
0011
001C
FFFB
FFFD
FFED
0026
001D
0011
0036
0050
FFF6
FFFB
FFFA
FFC2
0032
0026
0031
0048
0013
0012
0018
FFD6
FFBB
FFD8
FFD2
FFD2
0027
0022
FFFB
FFB2
FFB3
FFDB
FFEE
FFE6
FFDE
FFDB
FFFC
0036
000F
0034
003D
002F
FFE2
FFE0
FFEB
0022
0012
0036
0037
003C
0027
0026
001E
FFEF
FFE1
FFAE
FFCB
FFDF
0017
001D
0027
FFD9
FFEA
FFD7
FFCD
FFDB
000E
0009
0007
0022
0024
FFE7
FFC8
FFC4
FFF1
FFED
FFEF
0008
0008
0034
002D
0029
0001
FFFF
FFF8
FFF2
FFF9
0009
0015
000F
FFFB
FFF9
000A
0026
000C
000B
FFF8
FFEC
0000
0005
000E
0024
0012
FFC4
FFD0
FFE0
FFFF
0002
0006
0015
FFFE
FFCA
FFC9
FFD6
FFF7
FFFC
FFF5
0031
003A
0032
003C
0030
0002
0001
FFFD
FFED
FFF9
0005
FFFE
0001
FFFF
0000
0001
000B
FFF8
FFF9
FFFF
0003
FFFD
0001
0001
FFF3
FFFC
FFF8
FFF6
0001
0000
0001
FFFE
0001
FFFF
0000
FFFF
0001
0005
FFFF
FFFF
0000
FFFE
0000
0002
0000
FFFE
0001
FFFE
FFFE
0001
0000
FFFF
0000
FFFF
0001
FFFF
FFFC
0002
0001
0003
FFFF
0003
FFFF
0002
FFF9
0002
0005
0007
0000
0003
FFFF
0001
000D
000B
0006
0003
FFFD
FFFC
0002
FFFD
FFF4
FFFA
FFF2
0001
0001
FFFF
0000
0001
FFEC
FFF6
FFFF
FFF2
FFEF
FFFF
FFFF
0008
0033
002E
FFD1
FFA5
FFA8
