0063
0035
003E
003B
002D
0007
FFE9
FFEB
FFC8
FFD4
FFE1
FFC2
FFD9
FFD1
FFE8
FFEE
0064
0052
0003
0010
001B
0021
0027
004A
000B
000B
FFEA
FFBC
FF9A
FFB8
FF9B
FFA2
000E
000E
0009
0015
000E
000D
0010
000D
000B
0012
0011
FFFE
FFF3
FFEA
FFCB
FFDB
FFAA
FFF3
0010
0015
FFEF
FFBE
FFCC
FFB7
0064
006E
0074
003B
0008
FFF1
FFC3
FFC8
001F
001E
0005
FFF9
0001
0002
000E
0013
FFF9
0012
0009
FFFD
FFF9
FFE5
FFD1
FFB7
0006
000B
0013
001F
003E
0026
0013
FFFF
FFE0
FFDB
FFF4
FFE8
FFDC
0004
0001
002A
FFF6
0013
0025
002F
0035
0020
000E
FFFF
0006
0005
0011
FFEE
FFF2
0003
000B
000A
0047
0020
FFF9
0005
0017
0004
0009
FFF8
FFE1
FFD6
FFD4
FFCA
FFC0
FFD0
FFE4
FFF2
FFF3
FFF9
FFFC
FFF7
FFE8
FFF2
FFD1
FFCA
FFDE
FFCC
FFEC
001B
0019
0005
0010
0009
FFEB
FFE8
0001
000B
001B
0002
FFFF
0009
FFEB
FFFC
0005
0000
0001
0003
0003
0000
003D
002D
0017
0013
0006
0014
000A
FFFF
0039
0022
0005
FFF2
FFF9
001C
000C
FFE0
0037
000D
FFF8
FFFC
0007
0004
0017
001C
FFC9
FFC7
FFDE
FFDC
FFEA
0000
000D
001C
0031
0016
0013
002A
001B
000B
FFF1
FFDC
FFC7
000E
0010
FFE9
FFE9
FFFB
FFE7
FFDB
0026
FFF9
0011
0005
FFEF
FFF5
FFF6
FFF3
FFE5
FFDF
FFD9
FFDC
FFE6
FFD7
FFD5
FFEE
FFF4
FFDF
FFD4
FFE6
FFF0
FFF1
0008
0018
000E
FFEC
FFEB
FFCC
FFA3
FFAD
FFE1
0013
FFD8
FFD7
FFF3
000F
001B
001D
001E
0017
FF6A
FF76
FFD6
0013
0008
FFFC
FFE0
FFEC
0018
0033
0031
0002
FFDD
FFC4
FFB4
FFDA
003B
002C
000F
FFF4
FFC6
FFB0
FFB9
FFC7
FFD1
FFD4
FFD9
FFFB
0027
005F
0081
007C
FFE5
FFCC
FFE0
001A
0023
0017
001D
0019
FFF2
FFE0
FFF1
FFFC
FFE3
FFDC
000C
001A
FFD6
FFF6
FFF8
FFFD
0003
FFF2
FFEE
FFEB
FFBC
FFEF
0024
0005
0013
0002
FFFF
FFF3
FFF1
FFF2
000D
0005
000D
002E
0049
0030
FFD7
FFF9
FFEC
FFF9
0001
FFFA
FFF5
FFF8
0065
0038
0022
002F
0025
0017
0013
FFFD
FFEC
FFEB
FFE7
FFFC
FFFE
0005
FFFB
0001
0019
001B
0027
002A
003A
0014
001B
0039
FF80
FFB1
0018
0010
FFFF
FFFF
0002
FFE0
0006
FFE9
FFD8
FFF3
FFEF
FFE9
FFFC
0013
FFB1
FFB7
FFB4
FFD8
FFE3
FFD9
0013
0053
0021
001A
0000
FFFF
FFED
FFC5
FFBD
FFD3
0040
0000
FFF0
FFF2
FFDB
FFBD
FFD8
0009
0005
0006
FFFF
FFFF
FFFE
0007
0004
FFFD
0010
0002
FFFA
FFE5
FFDB
FFCB
FFEC
FFE9
0044
0034
003A
0041
001F
FFEE
FFD3
FFD9
000A
0008
0003
FFFA
000D
000A
FFF2
FFEC
0000
FFF7
FFEE
FFFE
FFFE
FFFD
0009
FFFC
001B
0001
FFF7
FFFB
FFFE
FFEA
FFD8
FFEA
000D
0006
FFFB
FFDC
FFCC
FFBF
FFBC
FFC9
002E
0045
0046
0025
0039
002C
0000
0007
000E
0012
0019
FFFD
FFE2
FFF1
FFDE
FFEE
FFE7
0023
0039
0043
001F
0004
FFF8
FFF1
0002
0004
FFFB
0005
0029
0056
0053
0022
FFE3
FF9B
FFE4
FFFD
001D
0045
0074
004F
000F
001A
000D
000D
0009
FFF3
FFF1
FFFC
000A
0003
FFF6
FFC9
FFEE
FFE5
FFD6
FFBD
FFF3
FFFC
0002
FFFB
FFD6
FFD7
0001
001D
000E
000F
000F
0012
0034
0027
FFFF
FFC9
0051
005D
004A
0058
FFF2
FF87
FF7E
FFB6
FFE4
FFFE
FFF6
0011
0021
0021
0025
0010
0008
0035
000B
FFD4
FFC1
FFC9
0004
003A
FFEF
FFE5
FFEC
0005
000C
FFFF
FFFA
0002
FFD9
FFCF
FFF9
000E
000D
001A
000C
0013
FFC4
FFCA
000C
0029
0026
002D
0008
FFFF
FFFC
000A
0036
0040
0029
0037
0028
000E
FFCA
FFCA
FFC5
FFDE
003C
007B
0011
FF89
0000
FFDE
FFDB
FFEA
003B
0094
0085
0003
FFCB
FFFF
0011
0022
001E
000E
0033
0025
0034
001A
0011
0010
0000
000E
0000
FFF1
0000
FFE2
FFE2
FFED
001A
0021
0005
FFED
0029
0013
000A
0045
003B
0037
002B
0027
FFC3
FFAE
FFD2
000C
004F
0039
FFC9
FF8E
FF88
0002
0008
FFCB
FFD8
FFC2
FFCD
FFDE
FFBD
FFC6
FFED
FFF7
FFEF
0023
005C
0058
FFF8
FFFC
FFF1
FFF6
0011
0030
0027
001B
FFF7
0000
000D
0026
001A
0017
0004
FFF2
001A
001D
0028
0034
0013
FFD6
FFD4
FFD3
001B
001B
0001
FFE7
FFC0
FFB3
FFA0
FFCB
0019
0008
FFFE
FFFB
0012
0003
000B
0019
007A
0060
0036
0006
FFCA
FF7A
FF74
FFA9
0007
0014
0002
0006
0000
FFF5
FFED
FFF1
FFE3
FFFA
FFF6
0002
000A
000A
001A
0014
FFEA
0016
000F
0001
FFFE
FFDE
0002
000E
001B
FFFF
FFD2
FFCF
FFE7
FFEA
FFE1
FFFD
FFD5
FFF9
0011
0022
000E
001A
002A
000C
0006
FFFA
FFF3
0012
000B
001F
0019
0021
FFD0
FFAE
FFF0
0041
007A
004E
FFDE
FFDB
0033
0012
FFF6
0005
0015
0023
000A
FFDD
0004
0017
000F
0008
0005
0009
FFEA
FFDE
0005
0008
0002
FFFA
FFF5
0000
FFEC
FFF7
FFDB
FFC5
FFBF
FFDE
FFFC
FFFF
FFF3
FFF3
FFDD
0006
0006
0025
0032
003C
0017
FFE5
FFF3
FFD4
000A
000B
FFDA
FFD2
FFD7
FFDF
FFE4
FFCA
FFD2
FFF3
FFFE
0004
0023
0021
FFF2
0004
FFFE
FFFA
0008
0001
0007
FFEB
004E
004D
0020
FFEF
FFD7
FFD9
FFDA
FFF3
0014
FFFF
FFFD
FFFF
FFED
FFF7
FFEE
FFED
001F
FFE5
FFEF
FFF1
FFE4
000D
001B
0007
FFF0
0002
FFEF
FFCA
FFB0
FF9E
FF8B
FFDF
0056
0007
FFFA
FFE5
FFFD
000A
0011
FFF9
FFEC
FFB8
FFB2
FFBA
FFC7
FFFE
0053
0062
FFCF
FFE0
000E
0014
0021
0006
FFD1
FFC7
0060
003E
0009
FFE4
FFD7
FFE4
FFE7
FFFE
002F
004E
004C
0025
FFE8
FFD2
FFD0
FFDA
FF84
FF55
FF82
FFCA
FFD9
FFDC
FFD4
FFD5
FF9B
FFC6
0006
004C
0066
007E
0038
FFDA
005B
001A
000C
001A
0043
002B
0008
0022
0036
003E
0033
0008
FFFB
FFEE
0009
FFFB
FFD7
FFFC
0022
0037
0061
007D
0073
0015
FFF6
FFF4
FFFF
0000
0002
000C
001A
0012
0070
0002
FFD8
FFF1
FFF2
FFFF
0003
0008
0054
001D
0007
000E
0004
0006
FFF7
FFFB
FFF8
FFE2
FFF8
FFF2
0007
0000
FFFF
000C
FFFA
002D
0032
0014
FFF6
FFE6
FFF1
FFE3
005A
0064
005E
005B
0059
0072
0034
FFCE
FFFB
000A
0000
FFDC
FFB7
FFA0
FFAD
0010
005A
0053
000D
FFDF
FFE0
FFFF
0002
0019
0006
0002
0012
0029
003A
0015
FFDA
FFC1
FF84
FFC7
FFD1
FFF7
003B
0077
005E
FFFD
0060
0000
FFEA
FFE2
FFED
FFE1
FFFC
000E
FFFB
000D
FFF6
FFFB
0003
FFFB
FFEE
FFEA
0013
000F
FFE8
FFC6
FFE6
0004
001C
002A
003C
0039
0037
0012
FFEA
FFB4
FF90
FF91
005B
002D
002C
0032
0019
0036
001E
0003
FFFC
FFC6
FFB6
FFBD
FF63
FF69
FF9E
FFCC
002F
000C
FFD9
FFE3
FFBF
FF90
FF81
FF9F
0002
0023
002C
0046
0058
0035
FFFF
FFEB
FFC6
FFED
FFFB
000F
0026
0027
0011
000A
0014
FFFB
FFFB
FFEB
FFDD
FFE4
000C
0023
FFCD
FFC0
FFAE
FF97
FFC4
FFEF
0019
0041
FFD4
FFDA
FFCD
FFCD
FFCA
003A
0092
0085
0004
001A
FFF9
FFE0
FFBC
FFA8
FFA4
FFB3
FFF8
FFD8
FFB8
FFA5
FFC1
FFE5
FFFF
0016
FFEB
FFF3
FFF4
FFEF
FFED
FFEF
FFB8
FFD2
FFEA
0015
0033
004A
0046
0029
0023
0008
0087
0096
0066
0029
FFC8
FFA9
FFAC
FF98
FFC3
FFBF
FF98
FF87
FF82
FF87
FFA3
FFD1
FFC1
FF9C
FF7C
FF8D
FFAC
FFED
0027
0043
FFFD
FFFA
FFEE
FFE4
FFE9
FFF2
001F
0015
0031
0043
002A
004B
004E
0044
000C
FFC3
0009
FFDE
FFD6
FFE4
FFD4
FFBE
FFA1
FFC9
0031
0026
0025
000A
000D
FFF0
FFFA
FFD7
0003
FFF1
0002
0005
000D
0002
0000
0001
FFCD
FFF6
FFF3
FFD6
FFE9
0002
FFF8
0009
0023
0009
0018
0020
FFFD
FFCC
FFDB
FFCA
0004
0017
0051
0085
0071
0060
002D
0021
FFD8
FFD6
FFDE
FFFC
0010
000E
FFFD
0006
FFF7
FFF0
003D
0067
004C
0045
003D
0048
0011
0014
0007
FFEC
0003
FFF9
FFEA
FFDD
FFEF
FFF4
001C
000C
0001
0010
0043
002B
FFE2
FFA4
FFF3
0039
0050
0037
0017
FFFC
0060
FFF7
FFD2
FFCF
FFD5
FFF1
FFF0
FFEB
002B
003B
0034
0028
0010
0001
0010
0013
0019
0012
0012
0023
001B
0009
0004
FFFF
FFDF
FFD4
FFF4
0001
FFEE
0002
0014
0016
0043
002C
000A
FFFC
FFD2
FFC1
FFB9
FFD4
FFFD
0006
FFFD
FFDA
FFCC
FFE5
FFD0
FFE1
0027
0012
FFEF
FFD0
FFB3
FFC6
FFED
FFF8
001F
0015
FFF4
FFE2
FFC9
FFD3
FFB3
FF8A
FFF2
FFDA
FFCE
FFFC
000C
0002
FFEA
0007
FFFD
FFFC
0014
001A
001A
003F
0047
0039
0017
0009
000A
FFEC
FFC2
FFCA
FFCF
0005
FFF4
FFDD
FFE0
FFCD
FFE7
FFFE
0002
001D
FFF6
FFE6
000B
0003
0006
0026
0024
0033
0020
FFFC
FFF5
FFD4
FFD5
FFBC
FFBB
FFE0
001E
001A
0020
000F
FFEB
FFE5
FFE4
FFF0
FFEB
FFF5
FFF3
FFFE
003B
0076
008B
0087
FFE2
FFBE
FFD6
FFEE
FFE7
FFF7
FFFC
000E
0003
0004
0006
0016
001F
001B
001F
0022
002C
0014
FFFA
FFEC
FFDE
FFF8
001E
000E
FFD2
FFE8
FFE6
FFD1
FFC7
FFD2
FFDB
FFEF
0028
FFF4
FFCC
FFD0
FFC5
FFD9
FFE2
FFF8
FFA6
FFD2
FFCA
FFB6
FFDE
FFFB
000A
0007
0004
000C
0006
FFE6
000F
0020
002C
0025
000C
001C
FFFE
FFDC
FFF6
FFF6
FFEF
FFE8
FFE4
FFA7
FFAD
FFC9
FFFE
FFE9
FFD2
0000
0028
0037
004C
0018
0009
FFFC
FFF5
FFF4
FFF9
0002
0039
0048
0056
0041
0020
0003
0030
0046
0031
0019
FFFD
FFF6
FFE5
FFE1
0005
0006
0001
FFEB
FFF9
000B
001E
002E
0014
0019
001E
0014
FFF4
FFCD
FFC9
FFAF
0072
002B
FFFF
FFBD
FFAB
FF95
FFB9
FFB6
FFCB
FFE7
FFFC
FFFF
FFF6
FFF4
FFCF
FFF8
FFF2
FFE6
FFF9
0024
0022
FFFA
FFCF
FFD0
FFFB
0007
FFFB
FFFB
000C
000F
0016
FFE2
FFB4
FFEA
FFE6
FFE5
0010
0021
0011
FFFF
0070
0058
FFF3
FFD8
001B
0044
0043
000A
001C
0029
0025
003F
0043
0018
FFE3
FFC9
0006
0016
FFFC
0016
0026
0025
0021
0008
0033
0029
0007
0003
FFD0
FFE2
FFDE
0007
FFE8
FFE9
FFFD
0008
0017
0016
000B
0021
FF80
FFA9
FFAD
FFDC
0004
004A
004A
006D
002C
0043
004B
0025
FFF3
FFDC
FFBC
FFD1
0060
0080
00B3
0094
0044
FFBE
FF76
FF7C
0050
000D
FFFD
0004
001F
FFE5
FFC4
FFC5
0039
0046
0033
FFFF
FFD0
FFB4
FF9F
FFB6
001D
FFF4
FFF0
FFE6
FFAF
FF9C
FFA2
FFBF
002E
003C
0050
0022
001B
0005
FFCA
FFBB
0035
0030
002D
001C
0012
0010
FFFD
FFE8
0040
0061
0067
0023
FFBE
FF7B
FF9F
FFED
FFD9
FFCB
FFC6
FFE2
FFC9
FFE7
000E
FFFE
FFC2
FFD5
FFF2
FFF3
000F
0000
FFFD
001B
0018
001E
0008
0003
0012
002E
0027
004D
FFD4
FFCF
0016
004E
0044
0048
0041
0015
FFF9
FFF4
FFEC
FFE1
FFFA
FFEF
FFF0
0003
FFE9
FFE1
FFF2
0000
0004
0008
001C
0014
0006
FFD9
FFE0
FFD6
FFEE
001B
000C
FFF8
FFD8
0006
000E
FFF2
FFE3
FFC6
FFAE
FFB7
0002
FFE1
FFD6
FFE1
FFE4
FFDC
FFD7
FFED
FFAE
FFC8
FFE7
0015
0029
003A
004F
004B
FFD0
FFFF
0040
0048
0052
006D
006A
0010
0009
0008
FFFC
FFFB
0003
000A
0012
0018
0012
001E
FFF9
FFF1
FFE5
FFFC
0005
0006
FFE3
FFDF
0009
0022
0001
0018
002F
0039
FFF0
FFEC
FFF3
FFFB
FFEC
FFF7
0038
0056
0011
FFCC
FFC2
FFE5
0008
002B
000B
FFC7
FFF4
FFD1
FFC1
FFF9
000E
FFEB
FFEC
001F
002D
0000
FFEC
FFF4
FFFD
001F
0041
0031
FF9D
FF99
FFA4
FFD2
FFF9
0017
0045
0078
001F
FFF6
FFE1
FFF3
FFF2
FFEA
0009
001A
FFF7
FFE3
FFDD
FFD2
FFD4
FFDD
FFE8
FFF1
FFE5
FFDE
FFDB
FFD4
FFDB
000A
003E
0052
FFEE
0025
0033
0037
0015
FFF8
FFFD
FFD9
FFA9
FFCC
FFF3
0027
0060
0059
004E
0059
0006
0029
0023
0019
000B
0006
FFE9
FFDD
FFFE
FFED
000C
0024
0037
0037
0044
0007
FFE1
FFE0
FFFA
001F
0030
0047
0021
FFFA
00C9
00AE
009C
0052
0009
FFCD
FF7F
FF6D
FFD2
FFF5
FFFB
0015
0034
0048
0040
0024
0009
0009
FFFB
0008
0006
0002
FFF2
FFEB
0062
0042
001C
000C
0004
FFF1
FFDA
FFC9
0015
000E
000E
0004
FFE3
FFDE
FFF6
FFEE
000A
0035
003B
0045
0030
0043
002F
0034
0016
FFFA
FFF4
FFD7
FFCB
FFFD
0040
0051
0048
0057
0059
002E
002E
0018
0000
FFD6
0004
0002
0007
FFDC
FFCC
FFAF
FFAE
FFCF
FFCB
FFA5
FFB1
FFEB
0003
0012
0032
005F
0010
FFFC
FFF9
0000
0005
FFEE
0004
0024
FFFF
FFE9
FFC8
FFD7
FFCF
FFD5
FFEC
FFFC
0033
002E
0031
000F
FFED
FFE8
FFE1
FFCC
0002
FFC4
FFC4
FFC0
FFD0
FFDB
FFEB
FFED
FFFC
0010
000E
000B
000E
001E
0030
0022
FF8E
FF7E
FF8E
FFB5
FFD7
FFEA
0046
0071
FFF8
FFFF
FFFD
FFDB
FFDB
FFD5
FFDC
FFFD
0051
006E
004C
0038
0019
FFE2
FFBC
FFAE
FFFA
FFFD
001B
0041
0056
0046
0013
FFC7
002F
0049
002E
0006
FFF5
FFEB
FFBE
FFC4
FFA8
FFE9
FFEB
FFD9
FFE8
FFF8
FFDD
FFF1
FFF6
0005
0004
FFF3
FFE7
FFE5
FFD6
FFD2
00B0
00A3
007B
002D
FFCD
FF97
FF67
FFA0
FFD5
FFED
002B
0074
0083
0073
0058
003F
001B
0006
001A
002A
0010
FFE7
FFCB
FFCD
FFCD
FFAC
FF93
FFC2
FFE8
FFF9
0035
0049
FFF5
0008
0004
0003
001D
0022
0029
002A
001B
0018
0015
0021
000A
0008
0009
0028
FFE4
FFF8
000B
FFFF
0023
0012
0013
000E
FFD0
FFC2
FFB0
0000
0012
0007
0009
FFFE
0030
0023
0028
002B
0005
001A
003E
001F
FFD6
FFF6
FFF3
FFE1
FFFC
0034
0034
0014
FFF6
0001
0000
FFFC
0004
FFFC
FFFF
FFEC
FFE3
0000
0035
003A
FFFB
FFF9
FFE6
FFFB
FFFD
FFF2
FFEB
FFD1
FFBA
FFC0
FFB8
FF95
FFD0
FFC7
FFFA
FFEC
FFD5
FFCD
FFC5
FFDE
FFCB
FFC7
FFAF
FFCD
FFC2
FFDF
0034
0057
FFE5
FFE6
FFD8
FFCE
FFE1
FFF8
FFF7
0004
003B
0031
0023
002A
0023
003E
0045
0026
FFDC
FFC9
FFE0
0003
001F
0035
0056
0038
FFF6
FFD6
FFE2
FFD6
FFED
000B
0000
000A
0121
00BC
0098
00DB
00B3
00B5
00A6
0069
002D
002A
001F
0014
0007
FFE8
FFC1
FFD0
0069
003F
FFFC
FFEF
002B
0070
006B
0035
FFBA
FFC4
FFD4
FFC2
FFBE
FFE8
0012
0041
001B
0006
0028
0019
0022
0012
0005
000B
FFFE
0003
FFDB
FFFB
0019
0030
003F
0026
004F
0023
FFFA
FFEE
FFEF
FFD9
FFC0
FFCF
0040
0033
0016
0000
0009
0033
0029
0030
0077
0063
002C
FFE5
FFCB
FFB5
FFB6
FFBA
FFDB
FFF5
FFF8
FFF9
000B
000E
0022
003E
0006
FFE1
FFDF
FFE7
0001
FFFA
FFFC
FFFD
0028
006C
0056
002C
0020
000E
FFF4
FFCE
FFEC
FFB2
FF97
FFBD
FFE7
0008
003E
0058
0008
0009
FFF8
FFE9
FFD4
FFE5
FFCC
FFF0
0028
0017
0012
FFFD
FFCD
FFAA
FFA7
FFAA
FFF9
FFE9
FFF4
FFFF
FFFA
FFDA
FFEA
FFD2
0057
003E
0009
0007
FFFC
000C
002F
003A
001B
0016
001A
0010
0008
0008
FFF9
FFED
0009
FFF1
FFEF
000F
0045
004A
0047
001D
FF85
FF4D
FF8E
FFB4
FFF6
0027
0053
0065
FFC9
FFFB
FFF3
FFF1
FFE8
FFDF
FFD8
FFF2
FFD9
FFE6
FFD2
FFDB
0000
0045
006F
006C
FFF4
FFEB
002C
0042
006B
0073
0051
0001
FFFA
0007
0005
FFDC
FFE3
FFF4
FFE8
FFFC
0014
000B
0002
0000
FFFB
0002
FFFA
FFFD
0076
0073
002D
FFE4
FFC5
FFB4
FFA6
FFD9
FFAD
FFA1
FFB9
FFDE
FFE3
0007
0032
0049
0001
FFEE
FFF3
FFF0
0009
0020
0039
0040
0010
FFFE
FFED
FFE1
FFEC
FFD6
FFC9
FFED
FFFA
0014
0009
0011
FFF5
FFBA
FFCE
FFE2
FFE3
FFF2
FFF4
FFF9
FFEB
FFE9
FFF8
FFE5
0039
0033
005C
0052
001D
FFEC
FFBB
FFA2
FFCD
FFD2
FFF1
FFF7
FFC3
FFBE
FFC7
FFE8
FFFA
FFE0
FFF7
FFFB
FFF1
0013
002E
0049
FFDE
FFDC
0005
000E
0004
000D
000F
0019
FFFD
FFFD
FFFC
000F
0003
0006
0019
001A
FFE3
FFEC
0005
FFFB
0001
0016
005E
005D
0030
FFFD
FFD2
FFDD
FFF3
0004
000C
FFF1
0048
002C
0032
005C
009E
00DC
00E8
003E
0016
0026
0031
0017
001A
0012
0012
001E
FF62
FF60
FF67
FF83
FFB1
FFC4
FFBD
0005
00E7
00BB
0026
FF99
FF4A
FF6F
FFF7
0059
0022
0023
0011
000F
000E
0017
000F
FFFE
002F
0025
FFFB
FFCD
FFBD
FFB5
FFC5
FFD4
FFEC
0001
0002
FFF2
FFE5
FFA6
FFB3
FFBA
FFF6
0005
000F
000B
0012
002A
001B
FFF8
0024
0031
0028
0024
FFD3
FFB1
FFA2
FFA8
FF95
FFF3
0028
0033
0058
007C
0068
004D
FF88
FFAB
FFBB
FFEB
0029
0050
0081
007B
000F
000B
FFF7
0005
FFF0
FFF4
FFF0
FFFE
FFFD
FFF1
0002
FFC6
FFD3
FFB6
FFC4
FFA1
FFC9
FFD5
FFE0
FFDA
FFA6
FFBD
FFD2
0006
FFBE
FFD5
FFC5
FFBE
FFED
FFF3
002B
0057
000C
0024
001D
000D
FFF9
0000
FFEB
FFFC
002D
FFFE
FFD3
FFF1
0009
001B
0053
003F
FFF6
0005
001A
001F
003C
0018
0008
FFF4
001D
0014
0006
001E
0029
0020
0016
0023
0027
0047
007D
0081
00A6
0094
001C
FFCF
0025
0031
0036
003D
001F
000E
FFDF
FFD1
FFBD
FFE8
0007
FFCE
FFBA
FFD4
000C
0045
FFEF
FFF4
FFFA
0014
0029
0019
0012
000F
001E
0020
0012
FFF8
000A
000F
FFFA
FFE4
FFBE
FFA6
FF9A
FF9F
FFA2
FFDC
0007
0039
0013
FFD3
FFD6
FFF0
FFF9
0002
FFFA
001A
0017
001B
FFE5
FFEB
FFE3
FFE2
FFE0
FFEB
FF9A
FFB0
FFE8
FFEF
000A
0005
0010
002D
0027
0001
0000
FFEB
FFEA
FFFF
FFF9
000E
FFFB
FFE5
FFE8
FFF1
FFD8
FFFE
000E
000F
008A
0052
0035
FFFE
FFDF
FF8E
FF7E
FF7F
0011
FFFD
FFD9
FFC4
FFC2
FFAF
FFAC
FFDA
005F
005A
004C
0028
001D
002A
001C
FFE3
0000
FFFE
FFFC
FFEC
FFE6
0009
0012
0004
FFB9
FFA6
FF9C
FFB5
FFC7
FFEA
0008
003B
005F
0056
0038
0029
004A
003A
0006
FFED
0040
0034
0029
000C
FFD2
FFB0
FFAB
FFD2
0015
0012
FFFE
FFED
FFE8
FFD8
FFD7
FFE4
FFC0
FF94
FF9E
FFDE
0009
0001
0023
0042
FFF7
FFED
FFEC
0002
FFE6
FFC4
FFCB
FFCE
00BE
005E
002F
000A
FFBD
FF85
FF6A
FFB1
0014
FFE9
FFD3
FFE4
FFE6
FFF4
FFDE
FFE7
FFEE
FFF5
FFEC
0013
FFF9
FFE5
FFDD
FFF6
001C
0034
0023
0032
0034
0003
FFE2
FFDA
0004
001F
0025
0001
FFF9
FFD7
FFF7
FFEF
FF7E
FFB3
FFF2
0006
FFF5
0001
000B
0014
FFD6
FFD5
FFD0
FFF5
000F
0048
004F
0063
FFF7
0012
FFD5
FFC4
FFA7
FFA2
FFB6
FFD8
0008
FFFD
FFEF
FFD5
FFCA
FFCD
FFDC
FFFF
FFF9
FFF2
FFC8
FFEC
0005
0028
0024
0029
FFD7
FFEB
0005
001A
0029
0037
002A
0003
FFB6
FFC3
FFE7
FFF2
FFE4
FFF1
FFEA
FFE9
0006
000E
FFF7
000B
FFF5
000C
0023
0003
FFA8
FFD1
FFE5
0003
004B
009D
007E
004E
000A
0001
0014
0029
0039
002F
002E
0035
0033
0031
0028
0028
FFF7
FFD8
FFDA
FFC5
0010
0021
002A
001D
0001
FFFF
0009
FFEB
002C
002A
0011
FFDF
FFCC
FFC1
FFC7
FFBA
009B
007A
0027
FFDA
FFCE
FFBF
FFB9
FFC3
001D
003F
0032
000F
0001
0027
0044
0014
FFEF
FFF0
FFEA
FFED
FFF4
FFDA
FFDE
0002
0080
0031
FFF9
FFC3
FF8D
FF64
FF2B
FF79
0036
0034
FFFB
FFEC
FFEC
FFFC
001B
0012
FFF7
000B
0020
FFEC
FFC9
FFD1
FFD7
FFF2
FFD0
FFC2
FFE3
FFEC
FFE6
FFF6
0007
0036
0001
0004
0006
FFE6
FFEF
0000
FFF3
FFE8
004A
0077
004F
001B
FFF7
FFAB
FF72
FF87
FF05
FEF2
FF56
FFDB
0050
009F
00C2
00A0
0012
0043
003C
0040
000D
FFE7
FFDB
FFEE
FFCB
FFDC
0000
FFF2
FFFC
000B
FFFA
FFF5
0000
000F
000C
0025
003E
0035
FFEA
FFC5
FFEB
FFE1
FFDB
FFEC
FFFD
000D
0004
0009
FFF5
0004
FFE6
FFDF
001B
0056
005A
0041
0048
003B
0060
0051
0036
0028
003E
002B
001B
003C
0043
002C
0024
0012
FFF0
0001
FFE9
FFFC
000D
FFF6
FFFD
0006
FFF5
FFFA
002C
0024
003A
0038
0035
0035
0033
001E
000F
FFE9
0010
001A
000E
FFFA
FFF3
000C
0039
0062
0068
0043
002E
0004
FFDE
FFAE
0022
0019
FFFE
FFF4
0005
0027
0027
0030
FFE8
FFE3
FFF4
FFFA
FFF8
0006
000F
000F
FFFF
FFE9
FFE6
FFD1
FFB4
FFA9
FFAA
FFBE
003F
FFF6
0003
0014
0014
FFF9
0004
0000
0014
000F
FFE1
FFF0
FFCE
FFE0
FFD2
FFCE
FFFD
FFF3
FFE5
FFE3
FFE6
FFF9
0001
0019
FFA9
FFA6
FFB3
FFBD
FFE9
002E
0046
000C
0006
FFFE
000C
0023
001D
0030
0011
FFF7
FFF7
0008
000E
001C
0014
0008
FFFF
0006
FFE8
FFF8
FFE5
FFDC
FFFB
0006
FFFE
FFF4
FFF7
000C
000B
0028
001E
0006
0029
0032
FFD6
FFFF
0026
0017
001C
001B
0019
0008
FF4B
FFA6
FFDD
FFF3
FFDE
FFB3
FFD8
FFE6
001A
FFD8
FFEB
FFD5
FFA4
FF8A
FF9E
FFE3
000A
FFFD
FFFA
FFE2
FFE7
FFE0
FFCD
FFFC
001A
002B
0018
FFE8
FFCB
FFB2
FF9C
FFC3
000A
FFED
000C
0037
0027
FFFD
FFD0
FFCC
FFEE
001F
001D
FFEA
FFD5
FFC9
FFB5
FFCC
009D
0039
0010
000C
0017
000B
FFFC
FFDB
0014
0010
0014
001D
001D
0017
0020
0013
FFC9
FFC2
FFCA
FFBB
FFD1
FFD8
FFF4
002A
0095
007D
0056
FFFB
FFD2
FF99
FF91
FFC9
0041
004D
002E
002A
003B
003E
005D
0069
FFCF
FFE6
0012
0018
000E
FFFF
FFEC
FFF3
FFFD
000E
0008
0025
FFE7
FFCD
FFCE
FFC0
0022
0026
0024
FFF2
FFD3
FFCF
FFEA
FFEC
FF5A
FFBC
FFFB
FFEC
FFE5
FFD3
FFB8
FFDE
FFD8
FFDE
FFE3
FFDE
FFDD
FFBE
FFC7
FFB9
FF9E
FFB0
FF9C
FFC2
FFBB
FFD1
FFF3
FFFB
FFB1
FFCC
FFD5
FFEE
0002
FFF6
FFF9
0009
0075
0050
002A
001C
0001
FFDC
FFC6
FFC7
FFA7
FFE1
0028
0020
0026
000E
FFF7
FFF9
FFB7
FFDB
001A
0001
002C
0036
002C
0004
001E
0015
0018
0010
FFE5
FFE7
FFFC
0016
FFC9
FFB6
FFD7
0016
0031
002E
0040
0015
FFE3
000B
FFF0
FFF3
FFF1
FFE7
FFDA
FFCE
FFF9
FFDF
FFEA
FFEA
FFFF
0032
0039
001C
FFCD
FFF6
FFF5
FFFD
000A
FFF8
000C
0014
0076
0031
FFE1
FF99
FF62
FF5E
FF99
FFF4
0060
004A
004C
FFFD
0006
0023
0004
FFF4
0099
0050
0024
0028
001C
0004
0016
FFF5
0020
000E
FFE5
0000
0008
0002
0016
FFFF
000D
FFCD
FF9D
FF94
FF9B
FFD7
0018
0055
0019
0008
0025
0016
FFED
FFDD
FFFC
001E
0007
0019
0007
FFEA
FFF6
0006
0009
0003
002B
001F
001D
002F
0043
0037
002F
0032
FFF0
0014
0016
000C
000A
FFFE
FFF4
FFF4
0005
0007
FFF5
FFEC
FFE8
FFF0
FFF8
FFEC
FFF3
FFCA
FFD0
FFFC
0015
002D
002F
004E
FFC8
FFDA
FFF1
FFFE
FFF7
FFE2
FFA9
FF99
0016
FFEE
FFE4
FFE6
FFD6
FFC9
FFDA
FFFB
0064
0022
FFE4
FFB0
FFA1
FF97
FFBD
FFFD
0038
005F
0043
000C
FFCD
FFAA
FFB8
0006
FFFD
0013
0025
FFF7
FFE2
FFE5
FFE2
FFD1
0043
001D
0003
0004
FFE4
FFBC
FFB9
FFE0
000A
0000
000A
000B
0000
0000
FFF6
FFF9
FFE9
FFF8
000E
0017
0016
FFF2
FFD2
FFE5
0013
0010
FFFA
0007
0028
0043
0050
002B
001B
004F
0030
0021
0001
FFDC
FFAF
FFB8
0026
0020
0034
0042
0045
0056
0028
0001
FFAD
FFC0
FFBB
FFC9
FFC8
FFB0
FFB7
FFAC
0015
0019
0009
000B
000D
0013
000A
0001
FFF9
FFCE
FFEF
FFFF
FFFF
000B
0025
002A
0089
0096
00C5
00A6
0011
FF69
FF07
FF4B
FFA5
FFD3
FFF3
0027
003D
0031
FFF3
FFBB
0003
000D
0008
FFFC
001E
0032
FFF7
FFAC
FFEB
0006
000A
000F
000C
0012
0024
001A
FFE8
FFE8
FFF4
FFD2
FFE3
FFE6
FFE4
FFEC
0028
0038
0039
000E
0015
000A
000C
FFFF
FFDE
FFE9
FFE4
FFE7
FFE8
FFF2
0011
000A
FFB4
FFFD
000F
0036
0038
000C
FFB7
FF9A
FFEF
FFEB
FFFD
FFFD
001A
0034
001E
0003
0026
0046
0032
0015
FFF6
FFF2
FFE1
FFF3
FFBD
FF7B
FF41
FF33
FF50
FFA1
003A
008B
FFFF
0018
0018
FFFF
FFFC
FFFC
FFF3
FFFE
FF7E
FFE7
000D
0023
0024
000C
FFFD
FFEE
000C
FFF7
FFD9
FFCC
FFB9
FFB6
FFD4
0008
006C
003E
0026
002B
000A
FFF3
FFE7
FFE3
0094
0083
0031
001A
0008
0015
0047
002B
FFEE
FFE7
FFF7
000C
0005
0000
FFFF
FFFB
FFD0
FFC0
FFB9
FFCF
FFE3
FFE3
FFC9
FFCA
FFFB
000B
001C
0022
0017
000E
0000
FFFE
FFBA
FFC2
0017
005F
008E
0094
0055
000C
0007
0011
FFE6
FFC4
FFB8
FFDB
FFD5
FFE1
0048
003C
0032
0004
FFF3
FFE5
FFE6
FFD7
FFFE
FFEF
FFD7
FFD3
FFE3
000F
003F
0063
002E
0042
0044
003B
001D
000A
FFCC
FFA1
FFE5
FFF8
0038
003E
004E
0076
003A
FFAF
0062
0056
0033
0034
003E
005C
0094
007E
0032
003C
0024
000B
FFF5
FFFE
000B
000B
FFF0
FFE7
FFF2
FFF2
0000
FFF2
FFE2
FFF7
001B
0006
FFF0
FFF6
FFD6
FFC6
FFDF
0008
FFEC
0001
FFF6
FFE6
FFE7
0010
0050
004E
001B
0004
0004
000B
000A
FFEF
FFFF
0001
007B
0047
0016
FFE1
FFCA
FF97
FFAB
FFDE
0011
FFEC
FFF0
FFF9
FFF7
000E
0003
FFF8
0064
005A
004C
0017
FFF1
FFC8
FF79
FF7B
FFF3
FFDE
FFF8
FFF1
FFF6
FFF8
0002
0003
FFA6
FFB9
FFDD
FFE0
0035
0083
0057
0018
FFDD
FFCA
FFC3
FFD2
FFE2
0010
0023
0026
002C
0034
0040
0026
001E
FFF9
FFC1
FFA3
0014
000B
0028
005C
0068
007E
0063
FFDF
0045
0039
001D
0023
002F
003C
0037
0046
FFEA
FFF9
0031
0036
002A
002E
002B
FFEC
FFC9
FFCB
FFC4
FFB8
FFD0
FFEE
0021
0062
0003
FFE4
FFC7
FFA9
FF97
FF88
FF90
FFAC
0043
000D
FFF4
FFFD
0000
0003
FFF7
FFEA
0043
004A
000C
0005
FFF7
FFE0
FFED
FFDD
001D
0031
0046
004B
0057
0060
0094
005E
0018
0034
002F
0040
002F
0011
001D
0005
0052
0017
FFFF
FFFC
FFF6
FFD8
FFC6
FFB4
FFE3
FFE8
FFF6
000E
0017
FFFF
0011
0019
0062
0018
002E
001F
0014
0014
0014
0010
FFEF
FFFD
0025
003C
003E
001B
FFE4
FFA0
0047
0035
0020
000A
0011
FFDB
FFCF
FFE6
0039
0028
0017
001F
0025
0021
FFEF
FFC8
0017
FFD4
FFC7
FFDC
000A
0039
000C
0010
0053
001A
FFF9
0002
0008
0005
FFC0
FFA9
0004
002D
0014
0008
0001
FFFF
0018
0007
0015
002C
0034
0067
00B8
00EC
00A4
0053
FFCB
FFC7
FFD2
FFF0
FFF9
001A
002E
0035
FFD5
FFD8
FFB0
FFBF
FFD0
FF97
FF9F
FFBF
FFF1
FFC4
FFCA
FFE2
FFE7
FFF1
0009
0038
FFC8
FFE1
0002
0020
0022
0027
0044
0018
0011
0002
FFFE
FFF5
FFDD
FFF0
FFFC
FFF8
FFBB
FFD3
FFEF
FFEA
FFF4
000B
0012
002B
FFE9
FFDF
FFBB
FFC0
FF9A
FFB7
FFE0
001A
0080
007A
0048
0048
003C
0047
0046
0034
00BD
00C9
00C9
0095
0065
FFF7
FF8C
FF89
FFFB
FFF1
FFFD
FFEB
FFF8
002F
0026
0005
FFFF
0003
0013
0024
0006
FFD7
FFD3
FFEE
005F
0043
0020
FFFD
FFC1
FF77
FF5E
FF59
FFD7
FFD2
FFDF
FFD1
FFC6
FFD7
000E
0054
0013
0019
0011
002E
0018
FFFB
FFDF
FFCE
0062
0072
004C
FFF4
FFA8
FFAD
FFD7
FFF0
001B
0015
000E
000C
FFEF
FFDF
FFDB
FFE4
FFC2
FFD3
FFE4
FFEE
0006
0000
0012
0018
FFCE
FFDC
FFD7
FFDD
FFEB
FFEB
FFDA
FFD2
FFE3
FFD2
0017
0015
0021
0032
0063
0036
002B
004A
0070
0073
0056
0018
FFDA
FFB8
FFDF
FFF5
001E
0005
000D
0031
003B
0008
FFE5
FFEE
FFF6
000E
000E
0003
FFF5
FFDB
000A
002A
0019
FFF4
FFF7
FFDE
FFD3
FFE5
FFDB
0002
0031
0025
0044
0047
005A
0063
FFEC
FFDE
FFD1
FFEA
FFFE
0006
001D
000F
0047
001C
001D
001E
005A
0074
0073
003C
0015
0008
FFE2
FFF6
FFEF
000D
0007
FFDC
FFE6
FFCB
FFE2
FFE9
FFE5
000B
001C
0001
FFD7
FFB5
FFD3
0007
0044
004D
005B
0073
FF8A
FFA9
FFD3
FFFF
0041
0034
0045
000D
FFF0
FFF3
FFE8
FFEA
0014
0048
0051
0033
001E
001A
0012
0000
0010
FFE4
FFCB
FFC3
003F
0026
0003
0008
0007
0013
FFF8
0001
001C
0000
FFF4
FFF4
FFE9
FFC5
FFCB
FFE4
0056
005A
003F
0037
003B
001B
0014
FFEB
003A
000B
FFF6
FFF5
FFF1
FFF2
000D
000C
FFE9
0032
0033
0018
FFDE
FFA3
FFB7
FFCB
FFE8
0007
FFEC
FFFB
0014
001B
0035
0035
008C
0064
0069
0061
0044
0075
008F
0056
FFD6
FFF1
0023
0037
0041
0040
001A
FFFB
FFA1
FFC6
FFC6
FFAF
FFA2
FFB8
FFE3
001F
FFEF
FFF6
000B
0034
0053
004F
000F
FFD7
FFF4
FFFB
FFFD
FFF9
0000
0008
FFF5
FFF9
FFC4
FFEF
0019
0043
0051
0071
0072
0061
FFC5
FFE7
FFEC
FFC0
FFCD
FFDC
0031
0050
FFBA
FFB7
FFDF
FFCD
FFB1
FFCA
0022
0052
0079
004B
004D
005D
005B
000B
FFD4
FFB1
FFF6
0002
0004
FFFB
FFE0
FFF0
FFED
FFDF
002C
0033
0028
001E
002D
0070
0060
0020
001E
0027
001F
FFFC
FFC7
FFC0
FFAC
FFAC
FFE5
000D
000C
0005
000B
0006
000C
FFFB
0026
0012
0015
0023
0049
0074
0087
005F
FFD1
FFCF
FFD2
FFF1
0000
FFEA
FFEB
FFCF
FFEA
FFF9
0038
0033
0009
FFE7
FFE2
FFDA
FFDC
FFE2
FFCD
FFA6
FFA5
FFC8
FFC3
FFEC
000B
FFF9
FFDA
FFDF
FFF2
FFDE
FFDF
FFE4
FF8F
FF98
FFCB
0003
000B
0045
0053
0043
001C
0014
0013
FFFA
0005
FFF8
FFF7
FFF7
FFDF
FFF7
0023
0029
001C
FFF6
FFE6
000A
FF90
FFC7
FFEE
FFAF
FF86
FF90
FFD8
000B
000C
002B
001B
0018
000E
FFF2
FFD8
FFBE
002C
0026
001D
0019
0029
0036
0039
000F
FF75
FFA7
FFB2
FFC7
FFBE
FFB2
FFA7
FFA8
FFF6
0005
0005
000B
0002
000B
001B
0017
FF9D
FF9E
FFED
0006
FFC7
FF9F
FF90
FFB5
003A
0031
0042
002C
0008
FFF1
FFDD
FFC2
0012
0024
0002
FFEE
FFCF
FFC7
FFE3
FFF9
0014
0024
0029
000A
FFE4
FFE8
FFF7
0026
0020
0025
0015
FFF8
FFF2
FFE0
FFBD
FFCB
FFBB
FFEF
0018
FFFD
0000
0011
FFFE
0000
FFC2
FFDC
FFFE
FFF7
FFFF
FFF6
FFFA
FFF3
FF6B
FF3F
FF3B
FF57
FFED
006F
0090
004B
FFA8
FF91
FF75
FF91
FFB7
FFCB
0023
006B
002C
001E
000E
FFF9
0030
005D
0062
0031
0028
002A
001E
0012
0004
FFE8
FFF7
FFFF
000D
FFFC
0015
001A
0023
0025
0037
004A
0003
001D
FFF3
FFD0
FFC1
FFC1
FFCD
FFC2
FFDA
0006
0005
FFFA
FFF6
FFDE
FFC9
FFAD
FF96
FF8C
FFC0
FFDA
FFFD
0023
002A
001B
FFCA
FFE7
0001
0019
002F
003A
001A
FFF2
FFEE
FFFC
0007
0016
000B
FFEA
FFCD
FFD5
FFAA
FF75
FF5E
FF4D
FF5C
FF82
FFDF
003E
FFED
FFDF
FFEF
FFF0
0013
000E
0006
0002
0045
0059
006B
0050
0011
FFCA
FF75
FF52
FF9D
FFC1
FFF7
001D
0047
0060
005E
001C
FFEB
FFFD
0016
002B
0010
0007
FFE6
FFD6
009A
00A3
0038
000D
0016
000D
002C
001A
FFD3
FFCA
FFD6
FFD9
FFC7
FFBC
FFD6
0001
0041
0014
0008
0010
0015
001A
FFF6
0003
002E
0024
FFF1
FFDE
FFC7
FFB4
FFBC
FFDF
0024
0021
0052
0065
0051
003B
0033
0031
FFBC
FFE0
FFD2
FFDE
FFCF
FFCF
FFFA
000C
FFDF
FFF9
002A
003D
003F
0048
0050
0032
FF91
FFF9
000E
0015
0018
FFF3
FFDE
FFDD
0027
FFFC
001C
0041
003A
0023
FFED
FFB3
005D
003B
0027
FFEB
FFD5
FFCA
FFD5
001C
0054
0071
005B
0014
FFF0
FFC6
FFB9
FFB5
002F
002F
0017
000C
FFE5
FFBD
FFB5
FFAD
0021
0024
0011
0006
0021
000B
0013
0035
FFE1
FFC5
FFC3
FFC0
FFAE
FFD0
FFF8
004E
0005
000C
0010
0031
0011
FFCC
FF98
FFA5
0018
FFEA
FFE6
FFCA
FFB2
FFA4
FFB0
FFE9
007B
005A
001B
000A
FFE7
FFC2
FFB3
FFD1
FFFF
001A
000E
FFF8
FFE0
FFD3
FFDB
0002
00DD
00D9
0099
0070
003B
FFC7
FF51
FF2E
FFFF
0014
002B
002B
0023
0030
0012
FFF6
FFEC
000D
0028
001B
0005
FFCA
FFBD
FFBE
FFFD
001E
0027
003D
0046
003D
0038
0025
0032
0057
008B
0077
005B
0012
FFCF
FFA2
FFA4
FFCA
0007
0033
0079
00BA
008F
000B
FFE3
FFF7
0018
000B
FFFC
FFFE
FFEE
FFE6
001D
0014
FFF0
FFE7
0008
0011
0001
000E
FF8C
FFD1
FFFF
FFF6
FFE4
FFCA
FFB9
FFC2
0020
004B
0055
0055
0056
0061
0024
FFD3
0092
0002
0010
0020
0010
0020
004D
004E
007D
0048
0032
0064
0066
0024
FFC6
FF60
FFC0
FFAD
FFA6
FFB5
FFAB
FF92
FF43
FF7E
FFE2
000F
0021
0037
0021
FFF3
FFEE
0006
FFD8
FFCD
0009
0012
0023
0055
007D
006E
FFE3
FFF0
FFE1
FFC6
FFED
0005
0031
0039
008B
0016
0022
0044
0059
0054
0027
000C
00A7
009A
006F
0046
0017
FF99
FF32
FF8C
FFF6
FFEA
FFF7
FFEE
FFEE
FFE2
FFE2
0009
FFC1
FFD6
FFDA
FFE5
FFF6
0006
000C
FFFA
FFCB
FFE1
0018
0054
0050
0003
FFE3
FFE2
FFCD
FFE5
000C
0013
FFFE
0014
001F
001A
FFDF
FFD4
FFD6
FFC1
FFBE
FFD8
0006
0033
FFEB
FFDB
FFD6
FF9F
FF51
FF31
FF61
FFAB