0111001110101101
0111001000101001
0110111111101011
0110110001110100
0111010011101000
0111000110001000
0111000001101000
0111010101010100
0111011100010111
0101111101101101
0011100100100011
0010100010100111
0001111100000110
1111111111111110
0000000000000000
0011110011100101
0111011001000001
0111101101101010
1000010101100100
1001010100001100
0110101011001100
1000000000100100
1000011101010100
0110110101011000
0111001101111000
0111100010011011
1000001011100011
1000100100010111
1000011110101001
0101000000000001
1000010000101010
0111110110100010
0111001101110001
0110111101001110
0110100100101001
0101111101000111
0111100000100110
0111000010000000
0110101110110001
0111100000010110
0111010101001000
0110100011010011
0101000110101011
0100011100001110
0100110010000000
1100101001111011
0100011000000010
0101101011001001
