1010100100001100
0111100010000110
0010110110011110
1101000110100100
1110010101001010
0010110100111010
0101111011100100
1010100110011001
1010110010111100
0110111101100100
0001000101110000
1101010110001000
1111111111111110
0000000000000000
0100001111001100
1011000100100000
1010101000010100
1001101010101111
0111000101010000
0100111001111110
0100001100011010
1111111101011111
0100011010111010
1000010001100001
1010010001001001
1010100010001111
1011000111001010
1010010110001100
1010000010001101
1010111001100011
1010100110011001
1010010000111011
1010001111010100
1010000111110011
1001110111010011
1010001011100011
1010010111101011
1001111011100111
1010000101100001
1010001111001101
1010001011011010
1010010100101001
1010100010010111
1010110010110000
1011011010010111
1010001100000010
1011110101101100
1010101100001111
1010010010101000
1010001000001010
1001110111101000
1010011000000110
1010011011111101
1001111001110011
1010000011001100
1010010010110100
1010001111000101
1010001110000000
1010001000110101
1010010001101101
1010010100011001
1010000110011000
1010001011111001
1010010000011110
1010001111111000
1010010000010010
1010010010010011
1010010011111000
1010010100100011
1010001011011100
1010010100010010
1010010001111111
