0011110110000110110000011101101101100000000000000000000000000000
10100011
10101000
01111000
00101101
11010000
11100100
00101101
01011110
10101001
10101100
01101111
00010001
11010100
11111111
00000000
01000011
10110000
10101001
10011010
01110001
01001110
01000010
11111110
01000110
10000100
10100011
10101000
10110001
10100101
10100000
10101101
10101001
10100011
10100011
10100001
10011101
10100010
10100101
10011110
10100000
10100011
10100010
10100100
10101000
10101100
10110110
10100010
10111100
10101010
10100100
10100001
10011101
10100101
10100110
10011101
10100000
10100100
10100011
10100011
10100001
10100011
10100100
10100001
10100010
10100011
10100011
10100011
10100100
10100100
10100100
10100010
10100100
10100100
