01110011
01110001
01101111
01101100
01110100
01110001
01110000
01110100
01110110
01011111
00111001
00101000
00011111
11111111
00000000
00111100
01110101
01111011
10000100
10010100
01101010
01111111
10000110
01101101
01110011
01111000
10000010
10001000
10000111
01001111
10000011
01111101
01110011
01101110
01101000
01011111
01110111
01110000
01101011
01110111
01110100
01101000
01010001
01000110
01001100
11001001
01000101
01011010
