0011110111001000001011011111100100100000000000000000000000000000
1001
1001
0110
0010
1100
1101
0010
0101
1001
1010
0110
0000
1100
1110
0000
0011
1010
1001
1000
0110
0100
0011
1110
0100
0111
1001
1001
1010
1001
1001
1010
1001
1001
1001
1001
1001
1001
1001
1001
1001
1001
1001
1001
1001
1010
1010
1001
1010
1001
1001
1001
1001
1001
1001
1001
1001
1001
1001
1001
1001
1001
1001
1001
1001
1001
1001
1001
1001
1001
1001
1001
1001
1001
