FE4D
EE97
EAA4
FEF4
07C8
F96B
11A9
050A
0751
4025
356A
1609
D52A
8001
6763
0D5F
FE2F
E813
DE1C
F046
EEF1
CBCA
FFFA
051B
FCD0
DFD7
D9EA
D45B
D4A5
E4C3
9642
F5B5
023B
284C
3FFF
2BCF
32D5
7808
1418
F0D8
FF17
FA98
F7B3
F3C0
F131
F2C0
EA34
FDD5