0060
0377
0CB9
0356
F7AC
F836
FCDB
FF8C
FD64
FD5C
E0E7
EE7C
14B1
1588
0924
005C
0356
1540
02EF
E0FE
BA32
F2A3
49CF
0947
FF21
F424
D247
F359
1D79
1B85
0ABF
00BA
09B8
0127
7FFF
4320
B2B6
AFFE
DD78
0157
FF7D
ED83
FC7A
1754
3C0A
0E82
C2AE
F8D2
0102
07DF
0242
067E
0D94
0AD5
0409
0029
FFDC
EEBC
F6DD
FC54
EFB3
F1B5
FA0F
FFC3
FFAB
0632
04C6
05D7
0264
138E
1DDF
02D6