0011110111010100000011011010100110000000000000000000000000000000
01
01
01
01
01
01
01
01
01
01
01
00
00
00
11
00
00
01
01
01
01
01
01
01
01
01
01
01
01
01
01
01
01
01
01
01
01
01
01
01
01
01
01
01
00
01
10
00
01
