0011110111101110001110010111011101100000000000000000000000000000
01
01
00
00
10
10
00
00
01
01
00
00
10
10
00
00
01
01
01
00
00
00
10
00
01
01
01
01
01
01
01
01
01
01
01
01
01
01
01
01
01
01
01
01
01
01
01
01
01
01
01
01
01
01
01
01
01
01
01
01
01
01
01
01
01
01
01
01
01
01
01
01
01
